<pad>,	0
<unk>,	0
<s>,	0
</s>,	0
<mask>	0
▁the	-3.17601
,	-3.3668
.	-3.44145
s	-3.45441
▁of	-3.76706
▁and	-3.93218
▁in	-3.99339
▁a	-4.20198
▁to	-4.29095
▁was	-4.7379
▁"	-4.92658
-	-4.94382
▁is	-4.95576
▁The	-4.98853
▁for	-5.16499
'	-5.2474
▁on	-5.27208
"	-5.32366
▁as	-5.33021
▁by	-5.34576
▁with	-5.36191
▁(	-5.42578
▁	-5.47912
ed	-5.52192
ing	-5.54066
▁that	-5.62747
▁at	-5.63908
▁from	-5.66252
)	-5.72349
▁In	-5.78907
▁his	-5.8055
e	-5.84192
d	-5.85237
▁an	-5.91054
▁he	-5.95161
er	-6.0584
▁were	-6.11203
▁He	-6.13155
y	-6.14341
▁are	-6.16623
t	-6.18201
▁which	-6.22308
▁A	-6.2467
a	-6.26151
▁it	-6.26537
ly	-6.28548
▁be	-6.31115
▁also	-6.39702
▁has	-6.4005
:	-6.4042
▁or	-6.4216
n	-6.42551
▁had	-6.45876
al	-6.46021
th	-6.46955
o	-6.48931
▁It	-6.49746
▁first	-6.5014
i	-6.53373
r	-6.60365
in	-6.61833
▁who	-6.63952
▁S	-6.67082
es	-6.67902
▁their	-6.68229
▁one	-6.72771
▁its	-6.73129
▁not	-6.74997
",	-6.76308
▁but	-6.76513
▁her	-6.79306
▁have	-6.81217
▁two	-6.81965
S	-6.82999
▁this	-6.86636
▁been	-6.87676
▁re	-6.89656
or	-6.93108
m	-6.93601
),	-6.94324
;	-6.94775
".	-6.97378
▁after	-7.03206
▁I	-7.03848
▁other	-7.05931
k	-7.08124
g	-7.08243
).	-7.09401
re	-7.09444
▁de	-7.1043
▁time	-7.14027
▁into	-7.14179
▁over	-7.14583
an	-7.16593
▁all	-7.17156
▁she	-7.17691
c	-7.17764
▁New	-7.20382
l	-7.21093
st	-7.21564
en	-7.23
▁E	-7.23227
▁they	-7.24779
A	-7.24988
▁C	-7.25915
on	-7.26901
le	-7.27015
man	-7.28121
▁years	-7.28605
C	-7.28698
▁On	-7.29428
▁B	-7.29543
▁when	-7.30127
▁can	-7.30652
▁out	-7.31273
u	-7.31577
▁This	-7.3167
▁more	-7.31909
▁1	-7.31984
▁up	-7.3402
▁where	-7.34062
▁G	-7.34342
▁new	-7.34745
▁during	-7.34906
The	-7.3501
ic	-7.3528
h	-7.36351
b	-7.37064
▁would	-7.37414
us	-7.39048
B	-7.3909
▁only	-7.39354
▁She	-7.39444
▁between	-7.4027
▁under	-7.41705
▁P	-7.42083
/	-7.42187
▁three	-7.4281
▁part	-7.446
▁made	-7.44713
ers	-7.45115
▁used	-7.45135
ra	-7.45371
▁season	-7.45544
ta	-7.46191
T	-7.46297
▁United	-7.47114
▁known	-7.47204
p	-7.47461
z	-7.47798
to	-7.47844
D	-7.48469
▁most	-7.49005
▁U	-7.49372
▁American	-7.49484
▁O	-7.4957
▁D	-7.49575
▁2	-7.49905
▁later	-7.49997
F	-7.50039
se	-7.50235
▁University	-7.50241
▁T	-7.50465
▁18	-7.50973
ion	-7.51144
ation	-7.51408
▁became	-7.51451
▁such	-7.52234
▁year	-7.52292
▁film	-7.52305
▁team	-7.52308
▁about	-7.52346
M	-7.52686
ton	-7.52742
▁M	-7.53188
de	-7.53214
▁him	-7.53386
▁K	-7.53717
P	-7.53738
ar	-7.53998
G	-7.57842
▁F	-7.58762
▁3	-7.59366
▁than	-7.59429
▁well	-7.6024
▁some	-7.60485
il	-7.60653
▁second	-7.61582
▁including	-7.62566
na	-7.62815
ro	-7.62819
ne	-7.63494
▁then	-7.63663
▁W	-7.63981
▁being	-7.64973
ry	-7.65105
el	-7.65697
▁there	-7.65829
▁through	-7.66505
ma	-7.66763
▁name	-7.66817
▁work	-7.68428
▁St	-7.68884
▁no	-7.68885
▁many	-7.69125
ist	-7.69635
▁As	-7.70057
▁R	-7.70632
▁school	-7.71007
▁After	-7.71283
▁album	-7.71741
▁17	-7.71865
O	-7.72029
H	-7.72584
▁family	-7.72697
▁against	-7.73467
ia	-7.73499
▁before	-7.73625
▁played	-7.74181
▁until	-7.74232
▁number	-7.74983
ian	-7.75057
▁World	-7.75137
at	-7.75162
▁released	-7.75242
▁–	-7.76047
te	-7.76089
E	-7.7633
▁may	-7.76549
f	-7.76691
▁people	-7.77304
▁area	-7.7776
▁both	-7.78135
▁States	-7.78153
▁while	-7.78401
li	-7.78407
▁National	-7.78421
▁May	-7.78651
x	-7.79091
▁N	-7.79094
▁won	-7.79847
N	-7.79906
L	-7.80663
ch	-7.80956
▁School	-7.81017
ity	-7.81096
▁L	-7.814
▁4	-7.81613
I	-7.8232
▁series	-7.83103
ck	-7.83607
it	-7.83722
▁un	-7.84011
R	-7.84242
▁Re	-7.85359
▁War	-7.85865
K	-7.86438
is	-7.86514
ur	-7.86784
w	-7.8691
▁four	-7.86987
ter	-7.87182
▁At	-7.87641
la	-7.8869
."	-7.88727
▁called	-7.89213
▁August	-7.89463
▁them	-7.89472
▁several	-7.90504
▁state	-7.90545
▁city	-7.91338
ine	-7.91874
W	-7.92503
the	-7.92623
▁South	-7.92665
ir	-7.92767
▁16	-7.928
▁game	-7.92989
▁John	-7.93069
▁September	-7.93229
et	-7.93298
▁Al	-7.93428
▁following	-7.9356
▁will	-7.93793
lo	-7.93914
▁June	-7.94191
ri	-7.94214
▁March	-7.94507
▁population	-7.94558
V	-7.95021
▁co	-7.9512
▁10	-7.95303
▁January	-7.95381
ate	-7.95583
’	-7.95739
▁early	-7.95809
▁end	-7.95839
%	-7.95994
▁July	-7.96191
▁located	-7.96294
▁so	-7.96342
▁same	-7.9644
son	-7.96526
um	-7.96876
▁His	-7.97062
▁5	-7.97303
ment	-7.97535
▁La	-7.97823
▁County	-7.98163
▁H	-7.98638
▁October	-7.98694
▁home	-7.98867
▁since	-7.99053
▁found	-7.99343
ke	-7.99591
▁group	-8.00036
▁use	-8.00905
▁They	-8.0204
▁April	-8.02068
▁There	-8.02366
▁York	-8.02457
▁began	-8.02667
co	-8.03007
ce	-8.03099
▁place	-8.0338
able	-8.03681
▁For	-8.04026
as	-8.04246
ol	-8.04403
ent	-8.04603
–	-8.04674
▁December	-8.04819
be	-8.0485
▁November	-8.05079
▁back	-8.05257
▁station	-8.05459
▁age	-8.05913
ca	-8.05964
ul	-8.06035
id	-8.06181
▁15	-8.06472
▁member	-8.06575
▁held	-8.07522
da	-8.08028
ive	-8.08146
▁named	-8.09064
▁con	-8.09604
mo	-8.0968
born	-8.09692
am	-8.0972
▁high	-8.09776
▁6	-8.0979
▁V	-8.09971
▁(19	-8.10267
▁government	-8.10314
▁Co	-8.10413
age	-8.10497
▁former	-8.10514
▁music	-8.10724
▁each	-8.10804
no	-8.109
▁North	-8.11044
▁company	-8.11077
ie	-8.11884
ated	-8.12004
▁these	-8.12117
▁served	-8.12223
▁City	-8.12614
▁J	-8.12695
ti	-8.12796
ty	-8.13013
▁De	-8.13214
▁British	-8.1342
▁born	-8.13483
land	-8.13663
un	-8.13887
nd	-8.13978
▁took	-8.14045
2	-8.14056
▁State	-8.1465
▁received	-8.14651
ley	-8.14813
ge	-8.14839
▁local	-8.15032
me	-8.15102
▁town	-8.1512
▁band	-8.15573
ve	-8.15776
▁February	-8.15912
▁include	-8.16089
▁League	-8.16577
▁e	-8.16655
▁12	-8.16812
▁village	-8.17161
▁Ba	-8.17177
▁line	-8.1749
▁single	-8.17529
▁song	-8.17759
j	-8.17891
▁7	-8.17908
go	-8.18232
▁built	-8.18985
der	-8.1932
ga	-8.1933
ant	-8.19515
▁system	-8.1977
di	-8.19834
▁any	-8.20219
▁To	-8.20324
▁based	-8.20375
▁public	-8.20515
▁20	-8.20987
▁final	-8.21025
ha	-8.21043
3	-8.21151
▁do	-8.21212
▁However	-8.21241
▁'	-8.21303
▁Le	-8.21309
ut	-8.21677
U	-8.2173
▁around	-8.21856
▁national	-8.22217
do	-8.22451
▁long	-8.2281
▁species	-8.23027
ism	-8.23034
ll	-8.23743
ba	-8.23868
▁No	-8.24169
ni	-8.24607
▁now	-8.24624
▁small	-8.25115
é	-8.25157
tic	-8.25404
▁along	-8.25805
▁show	-8.25895
▁club	-8.26275
ary	-8.2636
▁Mar	-8.26374
▁published	-8.26566
▁-	-8.26752
▁could	-8.27486
ka	-8.2752
▁did	-8.27584
▁left	-8.28008
▁pre	-8.28209
▁West	-8.28316
▁Ka	-8.284
▁An	-8.28449
▁set	-8.28531
▁8	-8.28704
▁due	-8.28712
▁All	-8.28887
sh	-8.29098
▁world	-8.2933
▁died	-8.29368
▁building	-8.29422
▁century	-8.29535
▁per	-8.29697
▁During	-8.30271
▁p	-8.30691
▁&	-8.30741
▁within	-8.30881
▁San	-8.30903
▁large	-8.31479
▁College	-8.31767
va	-8.32069
▁life	-8.32302
▁five	-8.33027
▁own	-8.33102
▁water	-8.33345
▁last	-8.33357
▁members	-8.33663
▁District	-8.33766
▁Mo	-8.33789
▁("	-8.33915
ad	-8.34005
▁included	-8.34036
up	-8.3409
▁14	-8.34146
and	-8.34392
▁main	-8.34652
▁River	-8.34748
▁death	-8.34817
▁11	-8.34894
▁dis	-8.34943
▁like	-8.35086
v	-8.3509
▁day	-8.35192
▁Be	-8.35355
▁play	-8.35413
▁Ca	-8.35515
▁Con	-8.35823
▁said	-8.36038
▁career	-8.36439
▁13	-8.36468
▁third	-8.36478
▁million	-8.36904
▁English	-8.37221
▁son	-8.37261
▁because	-8.37423
▁Me	-8.3746
▁Ha	-8.37574
▁Bo	-8.37608
▁head	-8.37912
ak	-8.38456
▁children	-8.3847
1	-8.38628
▁French	-8.3882
▁German	-8.39165
▁c	-8.39345
▁book	-8.39367
▁north	-8.39675
▁war	-8.40099
▁off	-8.40149
▁moved	-8.40244
▁side	-8.40593
est	-8.40716
▁service	-8.40781
ling	-8.40863
▁major	-8.40918
▁different	-8.41257
4	-8.41389
im	-8.41506
▁Na	-8.4212
ous	-8.42286
▁9	-8.42675
▁those	-8.42969
▁football	-8.4308
7	-8.43159
ot	-8.43455
▁still	-8.43511
▁Ma	-8.4388
ner	-8.43897
▁land	-8.44339
▁district	-8.44342
▁period	-8.44527
")	-8.44852
▁near	-8.44858
ies	-8.45116
ance	-8.45474
▁support	-8.45586
▁very	-8.45685
▁London	-8.45687
▁best	-8.46427
ard	-8.46464
▁Li	-8.46587
▁Ra	-8.46982
▁form	-8.47002
▁south	-8.47167
▁down	-8.47421
▁original	-8.47477
▁pro	-8.47529
ted	-8.47543
▁Park	-8.48452
vi	-8.48461
▁II	-8.49022
▁di	-8.49107
▁led	-8.4912
▁Ar	-8.49323
▁often	-8.49795
▁record	-8.5038
▁Sa	-8.50515
▁short	-8.50754
wa	-8.50765
0	-8.50785
▁non	-8.50897
▁Her	-8.51014
▁father	-8.51084
▁late	-8.51098
▁another	-8.51237
ting	-8.51322
▁Man	-8.51368
▁House	-8.51464
▁country	-8.51792
▁US	-8.51914
▁men	-8.5208
den	-8.52089
▁six	-8.52108
▁Pa	-8.52134
▁Ro	-8.52147
▁Lo	-8.52184
▁established	-8.52502
▁among	-8.52519
▁title	-8.52552
▁Cup	-8.52602
▁total	-8.52644
9	-8.52941
▁if	-8.52955
▁order	-8.5357
▁started	-8.5384
▁Se	-8.54005
▁top	-8.54029
ja	-8.54203
▁women	-8.54229
▁Ho	-8.54261
way	-8.54326
▁came	-8.54471
ci	-8.54509
os	-8.54581
▁married	-8.54703
▁post	-8.54709
one	-8.54898
▁Po	-8.55148
▁role	-8.55244
he	-8.55465
▁East	-8.55632
▁El	-8.55682
con	-8.55775
▁When	-8.55799
▁International	-8.56531
▁just	-8.56556
▁again	-8.56602
ler	-8.5677
od	-8.56808
▁make	-8.56927
▁High	-8.57005
▁went	-8.57147
▁announced	-8.57191
ah	-8.57293
▁history	-8.57653
▁la	-8.57758
ang	-8.57868
bi	-8.57875
que	-8.57974
▁house	-8.57986
pa	-8.5826
▁Go	-8.58643
▁England	-8.58673
▁Z	-8.58745
▁player	-8.58968
▁community	-8.59044
op	-8.59185
mb	-8.5946
▁Ta	-8.59565
ud	-8.59729
▁games	-8.5975
▁joined	-8.5986
▁One	-8.59956
hi	-8.60354
▁19	-8.60424
men	-8.60476
▁development	-8.60554
▁students	-8.6064
po	-8.60761
ish	-8.60813
▁produced	-8.60949
▁what	-8.61056
▁various	-8.61066
▁By	-8.61101
▁Car	-8.6111
ina	-8.61144
▁become	-8.61248
▁present	-8.61295
lin	-8.62215
ness	-8.62226
▁much	-8.62269
▁election	-8.62588
▁Church	-8.62734
▁Pro	-8.62734
ster	-8.63159
▁given	-8.63191
mp	-8.63246
▁worked	-8.6343
▁general	-8.63461
▁b	-8.63935
▁production	-8.64263
ver	-8.64593
▁sub	-8.64761
les	-8.64993
ized	-8.65013
mon	-8.65015
▁France	-8.65117
by	-8.65225
▁William	-8.65316
▁These	-8.65358
▁few	-8.65361
tra	-8.65415
▁created	-8.6552
▁man	-8.6583
▁King	-8.65946
▁car	-8.66697
▁written	-8.66712
side	-8.66712
▁law	-8.66726
▁professional	-8.66872
▁using	-8.6716
8	-8.67289
bo	-8.67506
▁returned	-8.67548
▁30	-8.67625
▁site	-8.67648
▁2010	-8.67676
▁European	-8.67876
▁having	-8.67902
▁described	-8.68078
▁power	-8.68179
▁round	-8.68266
ya	-8.68359
per	-8.68418
▁average	-8.68531
com	-8.68555
vo	-8.68624
▁version	-8.68924
▁next	-8.69076
▁point	-8.69131
time	-8.69139
▁25	-8.69317
▁According	-8.69408
ong	-8.69558
om	-8.6969
▁list	-8.69712
we	-8.69722
▁India	-8.69787
▁take	-8.69864
▁From	-8.69901
▁Air	-8.69979
▁Council	-8.70039
▁Australia	-8.70041
▁Street	-8.70051
▁George	-8.70274
▁political	-8.70293
min	-8.7039
hu	-8.70475
ham	-8.70543
▁program	-8.70568
gi	-8.70577
line	-8.70617
▁region	-8.70644
▁me	-8.7075
ex	-8.71153
▁m	-8.71304
ven	-8.71374
ko	-8.71415
J	-8.71511
▁research	-8.71552
rs	-8.7172
▁Vi	-8.71933
za	-8.71971
▁en	-8.72053
▁way	-8.72077
▁formula	-8.72298
5	-8.72378
pe	-8.72407
mar	-8.72649
ow	-8.72838
▁even	-8.72879
▁run	-8.73016
▁mo	-8.7304
▁television	-8.73485
▁founded	-8.73514
▁Ne	-8.73835
▁full	-8.73853
▁So	-8.73879
ber	-8.73976
ship	-8.74049
ac	-8.74062
▁project	-8.74257
br	-8.74273
▁control	-8.74289
▁director	-8.74347
▁California	-8.74462
▁wrote	-8.74526
▁every	-8.74602
ct	-8.7478
▁position	-8.74782
▁d	-8.74914
ger	-8.74939
▁church	-8.75057
▁however	-8.75064
lu	-8.7531
▁event	-8.75324
ial	-8.75325
▁Ko	-8.75597
che	-8.76022
ny	-8.76204
▁America	-8.76401
▁Party	-8.76504
▁international	-8.76583
mer	-8.76709
▁video	-8.7682
▁special	-8.76832
▁100	-8.7685
▁Dr	-8.76876
ally	-8.76889
▁President	-8.7696
ite	-8.76983
▁release	-8.77026
ru	-8.77053
ence	-8.77073
▁level	-8.771
▁appeared	-8.77259
▁James	-8.773
ron	-8.77569
▁live	-8.77665
▁similar	-8.77884
▁Do	-8.78025
▁ex	-8.78126
▁debut	-8.78628
▁continued	-8.7867
▁opened	-8.78736
▁match	-8.78829
▁General	-8.78852
▁Division	-8.78927
ities	-8.79099
▁old	-8.79123
▁Indian	-8.79215
▁art	-8.793
—	-8.79557
▁elected	-8.79639
▁air	-8.79683
▁Canada	-8.79749
▁Da	-8.79878
▁race	-8.79954
dy	-8.80073
▁business	-8.80203
▁Army	-8.80296
▁addition	-8.80436
▁recorded	-8.80441
▁important	-8.80514
ating	-8.80613
▁Lu	-8.8067
▁Robert	-8.8075
▁win	-8.80814
sa	-8.80903
▁2011	-8.80934
▁Gu	-8.80999
▁free	-8.81172
em	-8.81188
▁light	-8.8135
▁Association	-8.81473
▁half	-8.81517
▁signed	-8.81563
ana	-8.816
▁Su	-8.81664
▁together	-8.81849
▁considered	-8.81907
▁X	-8.82291
▁Di	-8.82517
ig	-8.82559
▁east	-8.82604
▁lost	-8.82701
tal	-8.82821
▁term	-8.82885
▁field	-8.82903
ki	-8.82912
▁Hu	-8.82993
ach	-8.83065
▁wife	-8.83182
▁formed	-8.8349
▁design	-8.8356
ts	-8.83602
year	-8.83659
▁refer	-8.83752
au	-8.83764
mi	-8.83769
▁Ri	-8.83826
▁military	-8.8387
▁without	-8.84048
▁popular	-8.8413
▁appointed	-8.84155
▁Pe	-8.84202
▁With	-8.84335
▁1990	-8.84352
qui	-8.84486
▁works	-8.84701
▁right	-8.85003
▁party	-8.85275
▁2006	-8.85513
ill	-8.85639
ho	-8.85654
tro	-8.85834
▁style	-8.85882
▁Royal	-8.85987
▁social	-8.86026
▁west	-8.86135
rd	-8.86164
field	-8.86316
▁Hall	-8.86703
ran	-8.86892
▁Union	-8.86928
▁developed	-8.87384
▁example	-8.87494
▁Award	-8.87496
ier	-8.87524
ning	-8.87562
▁24	-8.87643
ng	-8.87675
ov	-8.8768
io	-8.87784
▁Australian	-8.87788
▁open	-8.87808
▁office	-8.87935
▁league	-8.88199
X	-8.88286
▁result	-8.88337
▁Some	-8.88384
ev	-8.88512
ology	-8.88957
▁working	-8.89105
▁2012	-8.89151
▁further	-8.89303
▁“	-8.89353
▁living	-8.89448
▁Court	-8.89506
▁sp	-8.8975
▁Ga	-8.89837
▁ten	-8.89926
▁Paul	-8.89998
less	-8.90476
gu	-8.90538
▁21	-8.90705
har	-8.90813
▁common	-8.90898
▁Per	-8.90955
▁case	-8.90994
▁times	-8.91033
▁playing	-8.9105
▁2009	-8.91226
ft	-8.91303
▁currently	-8.91347
▁1,	-8.91601
ub	-8.91878
▁days	-8.92102
▁1980	-8.92447
▁sold	-8.92497
▁process	-8.92536
ff	-8.92562
▁available	-8.92753
▁making	-8.92955
▁Germany	-8.9328
ell	-8.9331
▁lead	-8.9334
gg	-8.93403
▁David	-8.93775
ford	-8.93777
▁language	-8.93809
▁contract	-8.93938
▁help	-8.93947
▁Road	-8.93971
▁Cha	-8.9403
▁2008	-8.94041
▁Wa	-8.94104
ward	-8.94232
á	-8.94246
▁bar	-8.94303
▁While	-8.94313
▁Pi	-8.94637
nt	-8.94638
▁Fa	-8.94954
▁Ja	-8.94954
▁although	-8.9496
red	-8.95122
▁services	-8.95149
▁education	-8.95278
▁Bi	-8.95393
▁Island	-8.95412
▁story	-8.95422
▁human	-8.95546
▁daughter	-8.95554
ville	-8.95739
▁teams	-8.95759
▁Championship	-8.95778
ey	-8.9598
▁character	-8.95996
ung	-8.96041
▁Act	-8.96172
▁2014	-8.96438
▁2015	-8.96465
und	-8.96508
▁Or	-8.9655
▁events	-8.96732
▁go	-8.97057
▁comp	-8.97251
▁China	-8.97308
▁track	-8.97314
▁center	-8.97365
▁road	-8.97483
ney	-8.97511
ium	-8.97563
▁En	-8.97653
▁across	-8.97762
▁Bar	-8.97769
han	-8.97809
▁Central	-8.97839
▁Company	-8.9784
▁modern	-8.97977
▁areas	-8.98297
▁body	-8.98298
kin	-8.98306
▁performed	-8.98575
▁2013	-8.98791
je	-8.98817
▁Ti	-8.98839
▁range	-8.98955
▁hand	-8.98963
▁()	-8.99056
ze	-8.99164
▁we	-8.99185
Y	-8.99265
▁2007	-8.99518
▁Lake	-8.99593
▁current	-8.99629
▁mother	-8.99731
pi	-8.99784
gen	-8.99917
▁largest	-8.99964
▁Music	-9.0009
port	-9.00156
sen	-9.00173
nce	-9.00194
▁college	-9.00303
▁Europe	-9.00346
tor	-9.00368
▁himself	-9.00404
chi	-9.00427
▁less	-9.00529
▁Du	-9.00539
▁mid	-9.00717
▁22	-9.0076
▁river	-9.00944
car	-9.00946
▁Charles	-9.01109
▁points	-9.01167
day	-9.01204
▁1970	-9.01238
▁should	-9.01654
▁Club	-9.01669
▁designed	-9.01673
▁radio	-9.01692
ide	-9.01735
▁Department	-9.01858
▁Art	-9.02068
fe	-9.02081
▁construction	-9.02091
▁Jo	-9.02094
▁features	-9.02144
▁Center	-9.02176
▁seven	-9.02227
▁fire	-9.02356
out	-9.02411
▁private	-9.02589
▁campaign	-9.02669
▁stage	-9.02761
▁coach	-9.02808
ring	-9.02958
▁Ni	-9.03064
▁black	-9.03197
▁ma	-9.03278
ab	-9.03368
”	-9.03402
ph	-9.03403
▁followed	-9.03407
▁young	-9.03436
▁Roman	-9.03538
▁First	-9.03559
▁court	-9.03675
▁Since	-9.03768
▁Green	-9.03801
▁president	-9.03825
▁Group	-9.03834
ful	-9.03848
▁gave	-9.04084
▁originally	-9.04162
ding	-9.04364
tin	-9.04427
▁never	-9.04448
▁Black	-9.04528
▁Institute	-9.04538
▁finished	-9.04745
▁al	-9.04775
▁Red	-9.0503
▁2016	-9.05092
▁UK	-9.05096
▁rock	-9.0517
▁ship	-9.05233
▁completed	-9.05308
lic	-9.05365
20	-9.05414
▁class	-9.05449
▁official	-9.05478
▁space	-9.05717
▁months	-9.0576
▁Mon	-9.05804
▁Bay	-9.05947
▁Thomas	-9.06046
▁awarded	-9.06103
▁size	-9.06151
▁taken	-9.06164
6	-9.064
▁includes	-9.06408
▁reported	-9.06523
q	-9.06564
▁see	-9.0657
▁though	-9.06597
▁Am	-9.06656
▁throughout	-9.06841
▁directed	-9.06845
ise	-9.0724
▁Sch	-9.07246
▁Canadian	-9.07247
▁featured	-9.07337
▁Although	-9.07342
ji	-9.07418
lan	-9.0747
50	-9.0765
▁model	-9.07774
gar	-9.07897
▁remained	-9.0792
ai	-9.08001
▁training	-9.08093
▁Washington	-9.08502
▁great	-9.08671
wi	-9.0897
▁must	-9.0906
▁Italian	-9.09337
▁how	-9.09338
▁Mc	-9.09347
gan	-9.0938
val	-9.09387
▁km	-9.09392
ap	-9.09396
▁eight	-9.09413
▁front	-9.09438
tion	-9.09502
▁degree	-9.09618
▁does	-9.09656
▁base	-9.0974
▁(18	-9.09763
▁songs	-9.09813
▁real	-9.09835
▁brother	-9.10022
ice	-9.1009
▁once	-9.10161
▁anti	-9.1019
▁network	-9.10193
▁Russian	-9.10222
ving	-9.10295
▁Minister	-9.10402
▁park	-9.10745
▁low	-9.10763
king	-9.10793
▁We	-9.1082
▁countries	-9.10921
▁episode	-9.1093
▁return	-9.11039
▁se	-9.11137
jo	-9.11151
▁23	-9.11293
▁Ru	-9.11303
ves	-9.11439
▁Ben	-9.11552
>	-9.11631
(	-9.11649
▁studio	-9.11667
▁Si	-9.11702
▁Western	-9.11713
▁information	-9.11841
▁Society	-9.11893
▁TV	-9.11897
▁Mi	-9.1201
▁Christian	-9.12016
tu	-9.12274
ization	-9.12306
ction	-9.12436
▁competition	-9.12487
▁census	-9.1249
▁leading	-9.12507
▁1960	-9.12593
▁Japan	-9.12648
▁board	-9.12773
▁study	-9.12774
▁f	-9.12846
▁seen	-9.1292
▁Other	-9.13043
▁away	-9.13061
–19	-9.13318
▁Te	-9.13351
▁performance	-9.13463
▁white	-9.135
▁Fi	-9.135
▁players	-9.13553
▁sea	-9.13577
ther	-9.137
ou	-9.13789
▁African	-9.13792
▁0	-9.13873
▁ca	-9.14061
▁2000	-9.141
▁White	-9.14121
▁inter	-9.14176
▁deal	-9.14247
]	-9.14281
▁close	-9.14445
ari	-9.1447
▁2017	-9.14486
du	-9.14696
▁involved	-9.14837
▁tournament	-9.15239
▁active	-9.15304
▁usually	-9.15421
▁above	-9.1553
fa	-9.1561
▁26	-9.15724
▁author	-9.16006
▁Academy	-9.16094
ical	-9.16136
▁replaced	-9.16179
▁Peter	-9.1622
▁eventually	-9.16261
▁attack	-9.16421
▁Saint	-9.16487
▁Grand	-9.16531
▁provided	-9.16537
▁railway	-9.16562
▁Ad	-9.16613
▁novel	-9.16669
▁good	-9.16782
▁Great	-9.16862
Z	-9.17148
bb	-9.17195
▁others	-9.1721
▁added	-9.17362
▁start	-9.17362
form	-9.17462
▁sent	-9.17479
ek	-9.17552
▁ground	-9.17554
ator	-9.17591
00	-9.17597
▁capital	-9.17623
ik	-9.17718
▁central	-9.17762
wood	-9.17796
▁met	-9.17819
ten	-9.17857
▁Chi	-9.1786
▁market	-9.18052
11	-9.18132
10	-9.18262
▁27	-9.18291
▁g	-9.18334
off	-9.18512
▁magazine	-9.18533
pt	-9.18557
▁either	-9.18571
tre	-9.18577
▁Ex	-9.18581
▁Ge	-9.18622
▁Catholic	-9.18644
▁Har	-9.18649
ay	-9.18813
tri	-9.18834
▁previous	-9.18872
▁k	-9.18873
-19	-9.18981
▁forces	-9.19038
▁28	-9.19147
▁provide	-9.19172
tt	-9.19274
▁families	-9.19285
all	-9.19324
▁movement	-9.19385
▁Japanese	-9.19633
▁Bra	-9.19721
▁Ch	-9.19935
▁schools	-9.19957
ath	-9.20198
▁2018	-9.20345
▁vi	-9.2035
▁female	-9.20521
▁attended	-9.20709
berg	-9.20729
▁success	-9.208
▁organization	-9.212
▁Africa	-9.21278
ris	-9.2141
▁Chinese	-9.21442
▁change	-9.21488
▁score	-9.21619
Ma	-9.21652
▁Can	-9.2166
▁Bur	-9.21707
tch	-9.21722
si	-9.21766
▁writing	-9.21821
old	-9.21837
▁interest	-9.21942
▁t	-9.21988
▁Pre	-9.2203
▁via	-9.22166
ep	-9.22175
bu	-9.2237
▁Michael	-9.22405
ker	-9.22432
▁plant	-9.22575
▁police	-9.2258
house	-9.22651
▁listed	-9.22655
▁Football	-9.22698
cha	-9.22704
▁groups	-9.22727
▁reached	-9.22896
▁strong	-9.2291
▁fourth	-9.23085
▁Spanish	-9.23131
▁aircraft	-9.23237
▁Henry	-9.23237
▁Wi	-9.23378
▁Tri	-9.23604
▁least	-9.23662
ino	-9.23719
▁you	-9.23723
▁far	-9.23758
tter	-9.23796
▁Film	-9.23952
▁50	-9.24003
▁media	-9.24079
▁2004	-9.24192
▁introduced	-9.24227
▁killed	-9.24321
▁saw	-9.24369
▁upon	-9.24442
▁Day	-9.24472
tan	-9.2448
ative	-9.24612
▁Hill	-9.2463
▁type	-9.24731
cent	-9.2479
▁Mac	-9.24812
▁Y	-9.2482
▁centre	-9.24919
In	-9.24993
▁Republic	-9.24999
▁able	-9.25089
▁Ju	-9.25146
▁independent	-9.25195
▁goal	-9.25291
▁2005	-9.25298
▁Hi	-9.25333
fi	-9.25335
▁access	-9.25362
▁approximately	-9.25369
▁successful	-9.25653
ku	-9.25665
well	-9.25865
▁Museum	-9.25887
▁rest	-9.25969
▁health	-9.2602
▁natural	-9.26057
▁Cor	-9.26178
▁Mary	-9.26201
idae	-9.26386
▁placed	-9.26421
▁host	-9.26426
▁Kingdom	-9.26482
▁unit	-9.26603
ius	-9.26695
▁put	-9.2672
▁1994	-9.26787
▁northern	-9.26891
▁decided	-9.27036
▁battle	-9.27108
of	-9.27121
▁summer	-9.27193
her	-9.27197
ctor	-9.27278
▁commercial	-9.27368
▁Ke	-9.27396
tz	-9.27535
cy	-9.27546
ize	-9.27617
▁Los	-9.27632
ee	-9.2767
▁40	-9.27707
▁represented	-9.27753
▁My	-9.27785
▁structure	-9.27827
▁get	-9.27874
ip	-9.2791
▁Texas	-9.27921
▁section	-9.28027
▁seat	-9.28223
▁Men	-9.28409
30	-9.28555
ations	-9.28583
▁southern	-9.28613
▁o	-9.28617
▁test	-9.28673
▁du	-9.28681
tive	-9.28685
▁Mu	-9.28804
▁stated	-9.28935
ib	-9.28977
▁Tu	-9.28989
▁shows	-9.2908
yl	-9.292
ica	-9.29223
sk	-9.29238
ix	-9.2938
▁2010,	-9.2939
▁Richard	-9.29487
▁regular	-9.29539
▁come	-9.29554
▁economic	-9.29693
▁night	-9.29764
▁division	-9.29796
ile	-9.29837
don	-9.29899
▁artist	-9.29936
▁Best	-9.30079
▁books	-9.3016
▁Pan	-9.30288
▁Ver	-9.30442
▁Paris	-9.3046
ture	-9.30465
▁island	-9.3058
▁scored	-9.30711
ries	-9.30882
▁practice	-9.3092
▁Star	-9.30991
let	-9.31
▁lower	-9.31005
ren	-9.3104
▁hit	-9.31059
▁edition	-9.31082
if	-9.31265
▁Smith	-9.31269
▁Col	-9.31303
▁winning	-9.31325
low	-9.31382
▁data	-9.31386
ions	-9.31438
▁v	-9.31473
zi	-9.31474
▁w	-9.31496
▁Two	-9.31507
▁Committee	-9.31541
bre	-9.31574
▁owned	-9.31623
▁Festival	-9.31626
▁singer	-9.31659
▁li	-9.31734
▁imp	-9.31902
▁29	-9.31926
nes	-9.31936
▁2013,	-9.31966
▁Most	-9.32205
▁brought	-9.32225
▁tour	-9.32281
▁move	-9.3231
ez	-9.32353
▁broadcast	-9.32502
▁Ki	-9.32598
▁changed	-9.32652
▁Che	-9.32685
row	-9.32687
▁rather	-9.32689
▁bi	-9.32748
▁Ireland	-9.32791
▁beginning	-9.32812
▁Zealand	-9.32827
▁week	-9.32896
led	-9.3299
▁units	-9.33067
▁Ph	-9.33196
dic	-9.33222
▁personal	-9.3325
▁Law	-9.33369
▁primary	-9.33542
▁sta	-9.33553
▁Following	-9.33586
▁industry	-9.33607
▁border	-9.33676
▁Bu	-9.33717
▁outside	-9.33786
▁2014,	-9.33831
▁Sea	-9.3392
▁2011,	-9.34041
ett	-9.34349
▁almost	-9.344
▁2012,	-9.34474
▁Year	-9.34522
ified	-9.34536
▁previously	-9.34543
▁individual	-9.3461
bar	-9.34643
▁states	-9.34669
_	-9.34788
ef	-9.34899
ins	-9.34937
▁county	-9.34965
based	-9.34991
▁Super	-9.35018
▁Don	-9.3507
our	-9.35181
▁Government	-9.35186
▁income	-9.35297
▁fact	-9.35333
▁award	-9.35391
ists	-9.3546
▁route	-9.35491
▁2015,	-9.35499
▁length	-9.35574
▁below	-9.35644
▁Summer	-9.35768
lla	-9.35834
aw	-9.35845
ps	-9.35889
▁Sun	-9.35899
▁buildings	-9.35984
ani	-9.36061
kh	-9.36083
▁science	-9.36191
▁Th	-9.36439
▁person	-9.36473
▁trade	-9.36524
▁plays	-9.36566
▁standard	-9.36593
▁spent	-9.36798
tru	-9.36828
shire	-9.36859
▁instead	-9.36868
▁Olympics	-9.36917
▁Records	-9.36924
▁rights	-9.36935
La	-9.36999
end	-9.37056
▁Board	-9.37095
12	-9.37114
▁Sir	-9.37129
▁Rock	-9.3714
▁1950	-9.3722
▁ever	-9.37288
vis	-9.37319
ok	-9.3739
for	-9.37456
▁But	-9.37468
▁defeated	-9.37706
▁wide	-9.37708
▁Mor	-9.3786
nk	-9.37951
▁collection	-9.37953
lia	-9.37959
▁decision	-9.37987
▁Fe	-9.38021
▁action	-9.3826
13	-9.38276
▁red	-9.38312
25	-9.38333
▁cast	-9.38352
can	-9.38357
▁past	-9.38395
ure	-9.38449
▁possible	-9.38511
▁Congress	-9.38654
▁older	-9.38658
iv	-9.38669
ag	-9.38701
▁Province	-9.38717
▁behind	-9.38786
ible	-9.38906
back	-9.39003
▁sometimes	-9.39123
▁Port	-9.39174
▁itself	-9.39218
▁contains	-9.39229
▁2009,	-9.39236
▁And	-9.39238
pro	-9.39255
▁ran	-9.39317
▁ho	-9.39337
▁Sal	-9.39436
▁Soviet	-9.39496
ick	-9.39584
▁municipality	-9.39689
▁significant	-9.39728
▁Han	-9.39789
oc	-9.39812
▁Martin	-9.39837
▁command	-9.39871
▁ha	-9.39919
▁my	-9.40036
▁manager	-9.40054
▁Women	-9.40106
▁Bre	-9.40141
hy	-9.40142
▁Force	-9.4016
15	-9.40347
▁2016,	-9.40685
▁Louis	-9.4071
▁highest	-9.4072
▁review	-9.4077
▁Edward	-9.40854
▁increase	-9.40886
▁turn	-9.40894
▁soon	-9.40898
▁runs	-9.40909
▁Championships	-9.40917
▁31	-9.41004
▁Angeles	-9.41026
▁1988	-9.41136
▁ended	-9.41136
▁medal	-9.41138
▁entered	-9.41184
▁launched	-9.41214
cle	-9.41221
▁2003	-9.41257
▁traditional	-9.4126
▁travel	-9.41328
▁child	-9.41343
▁date	-9.41382
▁Brown	-9.41463
▁studied	-9.4148
▁location	-9.41565
▁department	-9.41643
▁student	-9.41658
▁Sp	-9.41707
over	-9.41724
▁force	-9.41732
▁Railway	-9.41745
▁according	-9.41747
▁allowed	-9.41761
▁taking	-9.41771
▁love	-9.41839
res	-9.41898
pur	-9.41939
sky	-9.41952
▁course	-9.41997
▁plan	-9.42091
▁leader	-9.42091
▁complex	-9.42116
▁create	-9.42139
▁multi	-9.42155
yn	-9.42175
▁annual	-9.42191
lar	-9.42217
▁Virginia	-9.42274
▁companies	-9.42329
ised	-9.42404
▁future	-9.42428
▁Sam	-9.42501
ire	-9.42528
"),	-9.42659
▁whom	-9.42747
▁bank	-9.42787
▁generally	-9.42813
▁sound	-9.42879
▁sc	-9.42882
▁producer	-9.42906
▁relationship	-9.42952
▁genus	-9.43092
▁Bank	-9.43105
▁label	-9.43115
ign	-9.43116
▁writer	-9.4313
▁numerous	-9.43211
van	-9.43228
▁Va	-9.43304
▁senior	-9.43355
▁higher	-9.43445
fer	-9.43516
ara	-9.43605
í	-9.43644
▁politician	-9.43667
▁especially	-9.43698
▁Ku	-9.4376
▁Navy	-9.43822
▁legal	-9.4386
gue	-9.43894
uk	-9.43903
▁God	-9.43939
▁Par	-9.44003
▁Gi	-9.44011
▁Town	-9.44035
▁Many	-9.44064
▁opening	-9.44065
pic	-9.44087
▁food	-9.44091
cre	-9.44115
▁means	-9.44288
▁closed	-9.4438
▁husband	-9.4444
▁2017,	-9.44445
shi	-9.44452
▁Gar	-9.44458
mit	-9.44568
▁culture	-9.44639
▁Arts	-9.44689
▁studies	-9.44709
▁Chicago	-9.44712
▁little	-9.44738
▁Hol	-9.44899
vin	-9.44927
▁Education	-9.44975
▁double	-9.44999
▁feature	-9.45004
▁$1	-9.45055
▁retired	-9.45106
▁2001	-9.45107
▁Za	-9.45169
▁Greek	-9.45174
▁separate	-9.45225
▁[	-9.45228
▁sister	-9.45262
▁cover	-9.45287
▁2008,	-9.45316
▁competed	-9.4535
▁block	-9.45351
▁gold	-9.45463
▁2002	-9.45566
ological	-9.45574
▁required	-9.45662
cur	-9.45664
▁$	-9.45736
▁western	-9.45742
▁Old	-9.45769
▁lo	-9.45825
80	-9.45848
▁find	-9.45991
so	-9.46025
▁lived	-9.46033
▁Min	-9.46058
▁1986	-9.46065
▁appearance	-9.46076
town	-9.46116
▁related	-9.46226
use	-9.46271
40	-9.4637
▁films	-9.46516
▁selected	-9.46575
▁operated	-9.46579
▁parts	-9.4671
▁property	-9.46832
ü	-9.46833
ever	-9.47044
60	-9.47067
▁Sha	-9.471
▁train	-9.47141
▁Bal	-9.47378
▁famous	-9.47457
▁province	-9.47517
▁surface	-9.47543
yard	-9.47591
▁running	-9.47598
qu	-9.47607
▁color	-9.47649
Re	-9.47663
ita	-9.47664
▁1992	-9.4768
▁Italy	-9.47682
qua	-9.47726
▁Valley	-9.47814
ns	-9.47895
▁systems	-9.47912
▁Pennsylvania	-9.47943
▁matches	-9.47962
▁1984	-9.47979
▁Gra	-9.48013
cher	-9.48065
▁operations	-9.48153
▁Cal	-9.48194
▁Joseph	-9.482
▁money	-9.48221
▁Mexico	-9.48244
▁bridge	-9.48269
▁prior	-9.48279
cho	-9.48423
▁Lord	-9.4845
▁Mark	-9.48491
▁material	-9.48534
▁1987	-9.48559
▁nine	-9.48572
serv	-9.48623
▁Parliament	-9.48646
▁self	-9.48679
▁cost	-9.48692
▁earlier	-9.48724
▁Second	-9.48901
▁break	-9.48915
▁square	-9.49028
▁musical	-9.4906
▁certain	-9.49206
▁subject	-9.49269
ual	-9.49289
▁2007,	-9.49391
14	-9.49418
▁additional	-9.49433
▁army	-9.49475
▁shot	-9.49479
▁2018,	-9.49518
des	-9.49627
▁read	-9.49636
▁tax	-9.49647
▁Queen	-9.49671
▁fl	-9.49723
▁noted	-9.49858
▁Director	-9.49908
rie	-9.49985
▁Northern	-9.49992
head	-9.50022
▁Games	-9.50064
war	-9.5008
▁Tom	-9.5008
▁word	-9.50087
ata	-9.50161
ye	-9.502
uff	-9.50262
ric	-9.50274
▁produce	-9.50321
rk	-9.50379
▁Florida	-9.50409
▁thought	-9.50452
▁view	-9.50483
▁staff	-9.50718
▁need	-9.50722
▁sa	-9.50742
▁entire	-9.50867
act	-9.50922
▁Under	-9.50923
▁na	-9.50994
▁hard	-9.51095
000	-9.51116
▁channel	-9.51312
▁thus	-9.51345
▁Ab	-9.51379
.5	-9.51568
ria	-9.51653
▁influence	-9.51703
▁majority	-9.51774
▁becoming	-9.51858
▁camp	-9.51869
istic	-9.51903
▁activities	-9.51911
av	-9.51921
90	-9.51921
fin	-9.51941
-1	-9.52018
▁towards	-9.52092
▁serving	-9.52125
sis	-9.52196
▁Land	-9.52224
ration	-9.52252
▁super	-9.52336
▁issues	-9.52445
▁woman	-9.52471
▁Wood	-9.52509
▁Wales	-9.52521
▁associated	-9.52532
▁direct	-9.5255
ini	-9.52596
now	-9.52741
▁particular	-9.52813
Le	-9.52822
▁championship	-9.52945
▁text	-9.52993
ea	-9.53019
▁List	-9.5302
ect	-9.53228
▁2,	-9.53228
<	-9.53233
▁chief	-9.53331
▁Line	-9.53391
▁Public	-9.53411
▁trans	-9.53436
▁engine	-9.53483
▁artists	-9.53512
▁If	-9.53631
▁already	-9.53677
▁Irish	-9.53685
▁semi	-9.53745
ug	-9.53785
▁honor	-9.53815
▁Battle	-9.53821
▁sports	-9.53862
ken	-9.53876
ome	-9.53887
▁1983	-9.53982
▁Ya	-9.54022
len	-9.54063
ola	-9.54135
▁increased	-9.5427
▁programs	-9.54304
▁complete	-9.54404
▁1985	-9.54435
▁remains	-9.54541
xi	-9.54553
70	-9.54756
▁loss	-9.54775
▁Its	-9.5487
art	-9.54893
ec	-9.54896
▁face	-9.5495
▁limited	-9.54995
▁pay	-9.54999
▁mostly	-9.55022
▁native	-9.55107
din	-9.55111
▁officer	-9.55147
▁cut	-9.5521
ple	-9.55216
▁rate	-9.55221
▁i	-9.55337
▁Service	-9.55528
▁1991	-9.55591
▁1982	-9.55646
▁Pacific	-9.55653
▁management	-9.55678
19	-9.55696
▁settlement	-9.55708
sch	-9.55816
▁composed	-9.55881
▁federal	-9.55935
▁victory	-9.55963
▁university	-9.56044
▁goals	-9.56075
▁earned	-9.56103
▁chart	-9.56177
▁consists	-9.56298
▁Tra	-9.56322
▁le	-9.56443
▁graduated	-9.56455
▁65	-9.56489
sha	-9.56505
▁key	-9.56516
▁interview	-9.56569
▁Q	-9.56582
▁origin	-9.56608
▁regional	-9.56642
21	-9.56657
▁1993	-9.56712
▁vote	-9.56716
▁Commission	-9.56829
▁Their	-9.56843
▁better	-9.56868
air	-9.56917
▁Bill	-9.56939
ö	-9.57004
▁Yu	-9.57052
ification	-9.57066
▁hospital	-9.57112
▁shown	-9.57214
▁Tour	-9.57247
▁Shi	-9.57296
pl	-9.57344
▁Fort	-9.5738
▁Later	-9.57495
▁subsequently	-9.57516
▁referred	-9.57529
mann	-9.57589
cul	-9.57598
▁firm	-9.57663
▁Science	-9.57702
illa	-9.57784
▁medical	-9.57803
cal	-9.57925
▁raised	-9.57946
ped	-9.58056
ery	-9.58064
▁Assembly	-9.58107
unt	-9.58146
▁variety	-9.58218
▁concept	-9.58228
▁Russia	-9.5824
▁Van	-9.58246
▁meaning	-9.58414
▁computer	-9.58416
▁terms	-9.58422
▁farm	-9.58425
▁financial	-9.58441
▁passed	-9.58479
rt	-9.58483
▁caused	-9.58524
tur	-9.58534
▁function	-9.58629
▁Lee	-9.58715
▁Radio	-9.58745
▁care	-9.58797
▁carried	-9.58812
mor	-9.58851
▁act	-9.58904
ade	-9.58957
▁speed	-9.59034
▁supported	-9.59234
▁1930	-9.59306
▁prevent	-9.59326
▁Chief	-9.59365
▁households	-9.59396
▁perform	-9.59435
&	-9.59456
▁pa	-9.59591
▁ch	-9.59777
▁parish	-9.59857
Ch	-9.5993
▁hours	-9.59956
▁Governor	-9.60043
▁Blue	-9.6007
▁Southern	-9.60071
Q	-9.60103
▁fight	-9.60204
▁wing	-9.60212
▁professor	-9.60242
ore	-9.60263
nn	-9.60286
▁initially	-9.60358
▁report	-9.60376
lon	-9.60378
▁eastern	-9.60453
").	-9.60479
▁You	-9.60534
▁Un	-9.60542
▁lack	-9.60613
▁amount	-9.60622
▁1979	-9.60709
▁account	-9.60781
▁issue	-9.60792
▁Cla	-9.60827
ious	-9.6084
▁ra	-9.61078
ory	-9.61078
▁Research	-9.61126
▁larger	-9.61184
Co	-9.61232
▁effect	-9.61236
▁1999	-9.61269
ä	-9.61272
▁Awards	-9.61287
mal	-9.61313
ray	-9.61325
▁provides	-9.61326
▁Christ	-9.61344
▁give	-9.61372
▁presented	-9.61438
▁particularly	-9.61558
▁port	-9.61588
▁Station	-9.61595
cu	-9.61604
▁sign	-9.61606
▁Over	-9.6161
ability	-9.61702
▁movie	-9.61733
non	-9.61735
▁characters	-9.6186
▁star	-9.61928
▁council	-9.62012
fo	-9.62083
tel	-9.62095
vel	-9.62201
▁source	-9.62245
▁acquired	-9.62328
▁voice	-9.62346
east	-9.62367
▁Ve	-9.62384
▁room	-9.62405
ā	-9.62416
▁Both	-9.62464
▁build	-9.62466
▁forced	-9.62491
▁1972	-9.62548
▁longer	-9.62577
ue	-9.62586
▁religious	-9.62597
sta	-9.62654
▁1976	-9.62666
▁evidence	-9.62742
▁2006,	-9.62799
▁Ber	-9.62814
▁changes	-9.6291
▁1998	-9.62947
▁Middle	-9.62954
▁=	-9.62977
mm	-9.62991
pp	-9.63082
ala	-9.63085
light	-9.6309
lam	-9.63119
▁1981	-9.63132
ula	-9.63134
▁minutes	-9.63149
▁focus	-9.63178
ew	-9.63217
▁Poland	-9.63253
▁status	-9.63303
iz	-9.63335
hr	-9.63344
▁mainly	-9.63387
▁Mal	-9.63552
▁coast	-9.63557
▁recent	-9.63671
▁ba	-9.63681
▁Mil	-9.63708
▁fi	-9.63715
ens	-9.63754
▁2019	-9.63775
▁That	-9.63901
▁overall	-9.63923
▁clear	-9.63964
▁king	-9.63989
▁offered	-9.63992
▁median	-9.64021
ble	-9.64038
De	-9.64062
▁Spain	-9.64097
▁helped	-9.641
▁stop	-9.64168
▁civil	-9.64185
▁value	-9.64218
▁1945	-9.64225
▁response	-9.64268
ned	-9.64273
▁call	-9.64339
▁gl	-9.64396
▁Cho	-9.64438
ear	-9.64482
▁energy	-9.64504
▁male	-9.64532
▁editor	-9.64578
▁foreign	-9.64595
▁1940	-9.64645
ski	-9.64667
ox	-9.64685
sco	-9.6473
▁claimed	-9.6483
oon	-9.64834
▁1989	-9.64842
og	-9.64886
▁1996	-9.64892
▁meeting	-9.65045
▁em	-9.65133
par	-9.65139
▁im	-9.65161
ane	-9.65174
uc	-9.6519
▁individuals	-9.65223
▁Dan	-9.65296
▁today	-9.65301
▁multiple	-9.65343
▁leaving	-9.65367
wing	-9.65472
lli	-9.65595
▁pass	-9.65744
▁Carolina	-9.65791
▁marriage	-9.65907
▁Creek	-9.65946
▁box	-9.65962
ette	-9.65998
ó	-9.66051
▁Gold	-9.66062
▁1968	-9.66067
16	-9.66081
▁Democratic	-9.66245
▁appears	-9.66271
▁results	-9.66274
American	-9.66276
ura	-9.66294
ram	-9.66311
▁cross	-9.66325
4%	-9.66329
▁Love	-9.66348
▁Long	-9.66411
▁going	-9.66426
▁Pat	-9.66429
▁1975	-9.66525
TV	-9.66531
▁Conference	-9.66539
▁ta	-9.66588
▁Dar	-9.66846
▁metal	-9.6688
▁format	-9.66963
▁got	-9.66973
▁believed	-9.67003
▁1978	-9.67005
▁Dutch	-9.67013
▁month	-9.6702
▁website	-9.67025
▁hi	-9.67047
▁product	-9.67191
▁middle	-9.67246
▁serve	-9.67399
▁People	-9.67514
▁promoted	-9.67535
▁trial	-9.67649
▁weeks	-9.67657
▁too	-9.67661
▁1920	-9.67769
St	-9.67786
▁Jewish	-9.67786
ase	-9.6783
▁Book	-9.67833
▁Qu	-9.67835
▁constructed	-9.67864
my	-9.67895
▁Republican	-9.67985
play	-9.68006
▁Team	-9.68074
wn	-9.68116
▁policy	-9.68124
stone	-9.68229
▁ru	-9.68356
▁Britain	-9.68402
▁remaining	-9.6844
▁allow	-9.68658
ju	-9.68734
▁Asian	-9.68857
▁nearby	-9.68863
▁oil	-9.68977
18	-9.68984
▁sh	-9.69007
▁themselves	-9.69112
nch	-9.69153
▁operation	-9.6919
▁bo	-9.69205
▁Theatre	-9.69211
▁Pu	-9.69251
▁1977	-9.69279
▁Frank	-9.69306
▁failed	-9.69352
▁po	-9.69512
dia	-9.69541
▁Of	-9.69574
▁Er	-9.697
▁administrative	-9.69703
▁code	-9.69719
▁females	-9.6979
▁Inter	-9.69821
▁starting	-9.69825
▁society	-9.69859
▁stone	-9.69859
▁Jack	-9.69889
▁experience	-9.69921
▁join	-9.70021
▁products	-9.70059
▁target	-9.7011
▁master	-9.70143
▁recording	-9.70168
▁cases	-9.70194
tar	-9.70199
▁1974	-9.70245
ient	-9.70261
▁lies	-9.70275
▁friend	-9.70286
▁festival	-9.70298
▁technology	-9.70303
▁Prince	-9.70339
▁ob	-9.70362
!	-9.70377
▁CD	-9.7047
▁Com	-9.70483
▁Despite	-9.70549
work	-9.70584
tle	-9.7066
zo	-9.70678
▁mis	-9.70683
▁cultural	-9.70699
▁Home	-9.70743
▁basketball	-9.70801
▁flight	-9.70813
af	-9.70838
▁Bel	-9.70846
▁parents	-9.70861
eg	-9.70862
▁theory	-9.70871
▁historical	-9.70886
ō	-9.70928
nie	-9.70974
▁prominent	-9.71022
▁1973	-9.71032
▁Big	-9.71117
▁Ram	-9.71122
▁visit	-9.71175
▁estate	-9.71226
Ba	-9.71258
ella	-9.71396
▁floor	-9.71403
▁1969	-9.71412
▁Order	-9.71433
▁cap	-9.71522
▁1971	-9.7154
▁academic	-9.71593
▁Coast	-9.71661
17	-9.71684
era	-9.71743
▁Eastern	-9.71769
▁III	-9.71773
az	-9.71777
ugh	-9.71786
▁r	-9.71807
right	-9.71824
▁Empire	-9.7188
tern	-9.71948
▁always	-9.72079
late	-9.72085
class	-9.72093
▁pe	-9.7212
▁1997	-9.72159
▁cause	-9.72174
▁discovered	-9.72185
▁potential	-9.72199
▁Asia	-9.72217
▁Bell	-9.72249
▁Centre	-9.72264
▁union	-9.72316
▁responsible	-9.72359
▁Foundation	-9.7237
bel	-9.724
▁cur	-9.72431
top	-9.72469
▁minor	-9.72484
tric	-9.72518
▁cities	-9.72578
▁takes	-9.72578
tes	-9.72633
▁Vo	-9.72742
▁proposed	-9.72759
▁Times	-9.72773
▁latter	-9.72775
▁Pri	-9.72846
ging	-9.72846
▁newspaper	-9.72855
▁mountain	-9.72859
▁Ken	-9.72884
▁reference	-9.72912
cer	-9.72928
▁specific	-9.73053
▁prison	-9.73151
35	-9.73243
▁crew	-9.73285
45	-9.7332
▁participated	-9.73334
▁Pen	-9.73431
▁Francisco	-9.73447
▁primarily	-9.73585
▁Bro	-9.73607
▁Ter	-9.73636
▁direction	-9.73656
▁3,	-9.73665
▁lines	-9.73676
ency	-9.73681
▁tracks	-9.73732
▁poor	-9.73788
▁60	-9.73843
▁done	-9.73874
cra	-9.73947
▁attempt	-9.74049
ments	-9.74055
▁forms	-9.74109
An	-9.7413
ack	-9.7414
bin	-9.74141
▁fifth	-9.74203
▁Ohio	-9.74203
▁fellow	-9.74248
▁quarter	-9.7428
▁managed	-9.74284
▁turned	-9.74304
▁candidate	-9.7436
▁drama	-9.74379
▁Historic	-9.74632
-20	-9.74658
▁actor	-9.74755
▁judge	-9.7476
▁receive	-9.74782
▁heavy	-9.74793
cker	-9.74802
▁Cre	-9.74824
▁machine	-9.74825
24	-9.74872
▁1967	-9.74935
▁notable	-9.74944
▁Scotland	-9.74989
▁Im	-9.74993
▁Far	-9.74998
▁transport	-9.75082
duc	-9.75087
23	-9.75123
▁museum	-9.75154
▁residents	-9.75246
▁nearly	-9.75279
▁transferred	-9.75298
▁Major	-9.75308
▁troops	-9.75315
▁deep	-9.75331
▁fall	-9.75384
like	-9.75429
▁problems	-9.75432
▁Latin	-9.75454
long	-9.75531
▁brand	-9.75821
uch	-9.75883
ography	-9.7589
▁Bridge	-9.75908
▁bus	-9.75934
▁Ser	-9.75944
▁l	-9.75972
▁appearances	-9.7607
oo	-9.76127
▁grew	-9.7622
▁Val	-9.76236
▁pair	-9.76292
▁1995	-9.76419
▁paper	-9.76567
▁Ol	-9.76578
▁renamed	-9.76712
Ro	-9.7677
▁elections	-9.76789
ates	-9.76887
▁Master	-9.76937
▁youth	-9.76945
ena	-9.77011
rac	-9.77021
▁Boston	-9.77142
▁Out	-9.77144
▁gra	-9.77187
part	-9.77201
▁Civil	-9.77288
bra	-9.77321
▁covered	-9.77351
22	-9.77376
board	-9.77422
col	-9.77435
▁Columbia	-9.77454
▁stations	-9.77464
▁Jones	-9.7748
▁blue	-9.77489
ping	-9.77502
▁conference	-9.77522
▁Another	-9.77667
▁(1	-9.77691
▁Je	-9.77692
▁mission	-9.77722
▁directly	-9.77795
▁distance	-9.77811
▁Michigan	-9.77826
▁1964	-9.77838
▁tradition	-9.77859
▁officially	-9.77871
▁finally	-9.77941
ada	-9.77966
▁solo	-9.78019
▁might	-9.78067
▁ball	-9.78081
▁Young	-9.78123
▁Will	-9.78131
▁45	-9.78146
igh	-9.78181
▁fa	-9.78183
▁Water	-9.7819
▁executive	-9.78199
▁whole	-9.78226
▁arrived	-9.7825
cc	-9.78271
▁extended	-9.78307
▁Open	-9.78325
▁Also	-9.78348
▁historic	-9.78368
▁BBC	-9.78417
law	-9.78419
yo	-9.78575
▁Tal	-9.78576
itu	-9.78582
▁houses	-9.78585
▁Fo	-9.78604
▁scene	-9.78685
▁appear	-9.78719
gel	-9.78756
▁enough	-9.78827
▁Tro	-9.78875
▁association	-9.78881
▁FC	-9.78894
set	-9.78904
ob	-9.78912
▁200	-9.79008
▁physical	-9.79025
▁positive	-9.79052
ene	-9.79083
▁Tre	-9.79109
ral	-9.79169
▁—	-9.79183
burg	-9.79213
▁Born	-9.79227
▁names	-9.79239
ose	-9.7924
▁footballer	-9.79263
▁Inc	-9.79287
▁table	-9.79287
▁fo	-9.79329
▁treatment	-9.79353
▁Mill	-9.79378
▁Mr	-9.79425
▁spot	-9.7945
▁pi	-9.79591
▁Senate	-9.79594
▁stories	-9.79674
▁programme	-9.79726
▁mass	-9.79731
▁Israel	-9.79753
▁heart	-9.79772
▁1965	-9.79822
▁mine	-9.79834
▁campus	-9.7985
▁gas	-9.79896
▁grade	-9.79917
▁Ed	-9.79938
▁uses	-9.7999
▁asked	-9.80023
▁fish	-9.8007
▁content	-9.80099
▁2005,	-9.80141
▁lives	-9.80166
bert	-9.80182
▁Cross	-9.80187
▁Prime	-9.80293
▁Kar	-9.80359
▁housing	-9.80397
▁demand	-9.80407
▁issued	-9.80472
▁Hospital	-9.80501
med	-9.80536
▁here	-9.80574
▁nature	-9.80584
▁leg	-9.80673
▁""	-9.80676
▁para	-9.80731
ole	-9.80745
▁Scottish	-9.80763
▁dance	-9.80789
▁branch	-9.80823
▁news	-9.80871
▁Health	-9.80896
▁Reg	-9.80986
▁divided	-9.80986
▁disease	-9.80989
cus	-9.81004
▁races	-9.81043
▁press	-9.81077
▁conditions	-9.81204
▁Mad	-9.81222
▁commonly	-9.81238
▁method	-9.81241
worth	-9.81288
var	-9.81378
▁follows	-9.8138
ash	-9.81392
gra	-9.8144
▁ancient	-9.8148
▁guest	-9.81537
▁plans	-9.81558
och	-9.81605
▁leave	-9.81613
▁1966	-9.81703
lie	-9.81749
▁minister	-9.81842
ese	-9.81862
▁1944	-9.81881
ming	-9.82004
place	-9.8201
▁percent	-9.82022
dra	-9.82049
more	-9.82088
▁disc	-9.82182
▁Series	-9.8222
▁step	-9.82226
▁Scott	-9.8231
▁assistant	-9.82389
▁System	-9.82539
▁equal	-9.82626
▁ships	-9.82654
▁keep	-9.82707
▁street	-9.8271
▁limit	-9.82756
▁syn	-9.82773
ute	-9.82775
▁spread	-9.82792
▁portion	-9.82841
▁Route	-9.82869
▁cor	-9.82874
ano	-9.82934
▁Each	-9.82949
▁gun	-9.82975
▁purchased	-9.83032
▁our	-9.83053
▁lake	-9.8309
bro	-9.83098
▁founder	-9.83108
▁Stra	-9.83182
▁4,	-9.83222
▁approach	-9.8336
▁elements	-9.83375
oma	-9.83403
ero	-9.83405
▁Ye	-9.83416
▁Johnson	-9.83426
▁tower	-9.83428
▁Jan	-9.83538
01	-9.83584
chan	-9.83606
▁capacity	-9.83609
▁miles	-9.83622
▁draw	-9.83657
▁Life	-9.8366
vers	-9.83708
▁idea	-9.8371
lea	-9.83741
▁Jean	-9.83745
▁Mel	-9.83762
▁Office	-9.83779
▁organ	-9.8383
▁Iran	-9.83866
▁basis	-9.83871
log	-9.83874
75	-9.83919
▁Free	-9.83989
▁Earth	-9.84005
▁serves	-9.8405
05	-9.84051
▁Polish	-9.84062
▁records	-9.84068
▁stars	-9.84079
▁Illinois	-9.84148
amp	-9.8416
Al	-9.84173
eo	-9.84207
▁density	-9.84221
▁know	-9.84324
27	-9.8443
26	-9.84503
net	-9.84509
cro	-9.84515
▁despite	-9.84581
28	-9.84582
ree	-9.84624
▁sw	-9.84636
▁letter	-9.84765
▁2010.	-9.84802
▁screen	-9.8481
▁continue	-9.84815
▁(20	-9.84831
▁dedicated	-9.84871
▁conducted	-9.84912
▁adult	-9.84912
▁Avenue	-9.84944
▁era	-9.84945
▁reason	-9.84963
pri	-9.85022
▁1962	-9.85029
▁Mag	-9.85033
▁agreement	-9.85046
▁Sydney	-9.8509
▁rule	-9.85114
▁2011.	-9.85138
▁friends	-9.85175
▁couple	-9.85216
bon	-9.85272
▁Pra	-9.85386
▁traffic	-9.85418
▁smaller	-9.85437
▁moving	-9.85452
▁alongside	-9.85468
▁initial	-9.85492
▁dark	-9.8554
▁Mount	-9.85704
▁highly	-9.8573
▁da	-9.85734
▁Nor	-9.85748
▁Top	-9.85804
▁crime	-9.85816
▁Bishop	-9.85821
▁Secretary	-9.85827
He	-9.85887
–1	-9.85931
86	-9.85979
▁facilities	-9.86004
▁whether	-9.86077
▁Georgia	-9.86097
▁link	-9.86112
▁featuring	-9.86151
▁cell	-9.86166
▁Jersey	-9.86188
▁reserve	-9.86228
▁Ze	-9.86231
▁problem	-9.86252
▁wood	-9.86253
▁promotion	-9.8638
▁growth	-9.86387
▁Gal	-9.8658
ón	-9.86598
ball	-9.86616
▁widely	-9.86639
▁2012.	-9.86676
are	-9.86694
▁Professor	-9.86741
▁Mat	-9.86779
fu	-9.86785
89	-9.86803
gent	-9.86814
▁1948	-9.86866
94	-9.86913
▁nu	-9.86939
▁pop	-9.86975
▁article	-9.87009
▁Jackson	-9.87193
▁1963	-9.87198
▁green	-9.87247
▁finish	-9.87325
▁launch	-9.87382
▁Cu	-9.87554
▁told	-9.87573
▁Show	-9.8759
kar	-9.87616
▁words	-9.8766
▁winner	-9.87688
rin	-9.87695
▁likely	-9.87706
▁del	-9.87718
▁critical	-9.87728
▁fe	-9.87793
eh	-9.87804
ets	-9.87816
▁projects	-9.87875
▁digital	-9.87943
gy	-9.87987
▁protest	-9.88018
▁rural	-9.88018
▁pressure	-9.88089
mu	-9.88136
▁Williams	-9.88304
not	-9.88311
▁partner	-9.88327
▁bill	-9.88333
▁offers	-9.88343
▁Olympic	-9.88357
▁store	-9.88382
▁drug	-9.88428
▁Alexander	-9.8846
▁feel	-9.88513
▁Development	-9.88536
ax	-9.88576
▁organized	-9.88578
▁!	-9.88582
▁defeat	-9.88608
▁reflect	-9.88609
▁recently	-9.88622
▁protect	-9.88633
izing	-9.88646
▁security	-9.88646
▁Mer	-9.88647
▁officers	-9.88688
▁develop	-9.88689
▁want	-9.88774
▁online	-9.88777
▁2009.	-9.88877
▁2014.	-9.88892
▁gu	-9.88909
▁spring	-9.88944
▁platform	-9.88945
duct	-9.88968
▁birth	-9.88974
▁mi	-9.88991
▁reform	-9.89006
▁dead	-9.89021
▁levels	-9.89038
▁Joe	-9.89046
▁loan	-9.8907
▁Song	-9.89081
▁silver	-9.89238
▁Santa	-9.89266
▁Rome	-9.89269
▁tend	-9.89287
▁str	-9.89364
▁Post	-9.89384
wan	-9.89394
▁#	-9.89498
▁ge	-9.89572
water	-9.89608
▁committee	-9.89632
▁Airport	-9.89672
▁transfer	-9.89682
gal	-9.897
lle	-9.89752
▁situated	-9.89784
▁Victoria	-9.89837
▁makes	-9.89842
▁Nu	-9.89859
▁2013.	-9.8986
▁operating	-9.89878
dale	-9.89878
▁Massachusetts	-9.89937
▁kind	-9.89943
▁tra	-9.90028
poli	-9.90057
▁split	-9.90063
nic	-9.90096
▁signal	-9.90099
95	-9.90148
▁Corporation	-9.90166
▁Member	-9.90167
▁intended	-9.90209
bal	-9.90233
gh	-9.90249
pper	-9.90316
▁planned	-9.90331
▁surrounding	-9.90335
▁upper	-9.90354
▁audience	-9.90358
uck	-9.90424
ough	-9.90462
▁1961	-9.90524
▁Jr	-9.90532
▁mark	-9.90585
▁$2	-9.90595
mic	-9.90609
▁va	-9.90622
▁share	-9.90622
▁captain	-9.90634
dor	-9.90667
ants	-9.90668
sol	-9.9068
ua	-9.90775
▁More	-9.90812
▁forward	-9.90818
▁gained	-9.90831
▁su	-9.90833
▁Berlin	-9.90884
▁saying	-9.90935
▁Federal	-9.90935
▁teaching	-9.90953
▁35	-9.90988
▁murder	-9.91037
▁hosted	-9.91042
▁distribution	-9.91056
▁seasons	-9.91121
▁taught	-9.91128
▁conflict	-9.91206
▁matter	-9.91262
▁wanted	-9.91267
▁joint	-9.91305
cia	-9.91324
▁respectively	-9.91343
▁forest	-9.91361
▁display	-9.91418
▁talk	-9.91418
▁adopted	-9.91485
▁household	-9.91502
▁estimated	-9.91514
▁2019,	-9.91533
š	-9.91554
del	-9.91576
▁owner	-9.91585
▁question	-9.91596
▁typically	-9.91659
▁Arm	-9.91695
29	-9.91735
▁temperature	-9.91749
▁lu	-9.91761
▁champion	-9.91761
▁Sand	-9.91799
▁app	-9.91845
▁feed	-9.91851
▁yet	-9.91865
yan	-9.91925
▁administration	-9.91943
bury	-9.91976
▁search	-9.91995
▁compete	-9.92017
▁look	-9.92051
▁titled	-9.92072
▁1958	-9.92112
dar	-9.92173
ros	-9.92198
mes	-9.92236
▁price	-9.92382
.5%	-9.92397
▁Dun	-9.92437
▁Three	-9.92539
▁workers	-9.92559
▁2015.	-9.92567
–2	-9.9258
▁ice	-9.92598
▁pen	-9.92612
▁1946	-9.92622
87	-9.92655
▁believe	-9.92681
▁Register	-9.92692
▁males	-9.92709
▁flow	-9.92717
▁meet	-9.92766
ons	-9.92779
▁environment	-9.92796
west	-9.92841
pen	-9.92919
▁reach	-9.9293
▁Kong	-9.92932
arm	-9.93003
iya	-9.93012
▁1941	-9.93018
zz	-9.93057
▁Hy	-9.93067
▁quickly	-9.93132
▁destroyed	-9.93151
ain	-9.93189
lay	-9.93204
AC	-9.93207
aries	-9.93229
int	-9.93231
▁Sh	-9.93235
sey	-9.93255
Ar	-9.93265
onic	-9.93285
ux	-9.93296
ace	-9.93297
);	-9.93321
▁Carl	-9.93338
lly	-9.93342
▁removed	-9.93344
▁Up	-9.93358
▁job	-9.93361
▁damage	-9.93409
▁immediately	-9.93432
▁Sub	-9.93448
▁assigned	-9.93495
▁Little	-9.93525
▁protein	-9.93555
su	-9.93647
▁Hong	-9.93653
▁Corps	-9.93664
è	-9.93702
▁wall	-9.93712
▁revealed	-9.93721
rist	-9.93735
▁activity	-9.93756
tha	-9.93758
▁exchange	-9.93833
▁Highway	-9.93847
▁ability	-9.9385
▁Char	-9.93916
▁quality	-9.93951
-2	-9.93981
▁accept	-9.9399
CC	-9.94021
rum	-9.94039
▁Ash	-9.94127
▁Before	-9.9415
kan	-9.94165
▁Ali	-9.94212
▁charge	-9.94213
▁Duke	-9.94218
▁wind	-9.94224
▁attention	-9.94231
▁Daniel	-9.94238
oy	-9.94242
▁bring	-9.94256
▁strike	-9.94397
▁principal	-9.9443
▁combined	-9.94432
▁formation	-9.94457
▁van	-9.94513
37	-9.94543
point	-9.94632
▁situation	-9.9467
las	-9.94726
▁Elizabeth	-9.9483
▁communities	-9.9483
▁temple	-9.94831
▁USA	-9.94924
▁Ministry	-9.9495
▁industrial	-9.94991
▁largely	-9.95022
▁probably	-9.95071
lor	-9.95083
ks	-9.95103
▁foot	-9.9514
▁Premier	-9.95152
ave	-9.95156
▁impact	-9.9517
▁Andrew	-9.95207
dal	-9.95226
▁connection	-9.95232
▁2016.	-9.95259
▁micro	-9.95266
▁Field	-9.95276
▁90	-9.9542
▁Maria	-9.95431
▁32	-9.95459
▁hall	-9.95467
nan	-9.95525
▁ve	-9.95533
SA	-9.95536
▁Cro	-9.9556
▁Kan	-9.95565
▁gene	-9.95646
with	-9.95662
06	-9.95688
▁80	-9.95733
tis	-9.9574
▁Ten	-9.95763
▁1942	-9.95936
▁recognized	-9.95937
▁Township	-9.95946
▁poet	-9.95981
zy	-9.96014
pped	-9.96015
▁Good	-9.96025
án	-9.96057
arch	-9.96104
▁efforts	-9.96109
▁giving	-9.96123
itz	-9.96136
▁Final	-9.96211
ult	-9.96233
ern	-9.96286
▁awards	-9.96299
run	-9.96316
▁70	-9.9632
pre	-9.96325
▁Sta	-9.96327
▁soldiers	-9.96342
▁Mus	-9.96356
matic	-9.9639
▁declared	-9.96414
▁suffered	-9.96417
▁ordered	-9.96448
aka	-9.96472
▁mentioned	-9.96492
▁Light	-9.96508
▁airport	-9.9653
▁Ham	-9.96535
vol	-9.96538
▁concert	-9.96571
▁Ger	-9.9658
▁types	-9.96591
▁nominated	-9.96611
▁peak	-9.96652
36	-9.96666
dom	-9.96673
▁exhibition	-9.96736
▁1956	-9.96789
▁Ac	-9.96811
33	-9.96846
▁inside	-9.96856
▁effects	-9.96887
▁Fre	-9.96908
▁Like	-9.96914
▁teacher	-9.96933
ition	-9.96956
▁occurred	-9.9699
wo	-9.97004
ington	-9.97043
83	-9.97074
▁feet	-9.97179
▁blood	-9.97185
▁Muslim	-9.97188
▁24,	-9.97189
▁Sho	-9.9721
▁Jim	-9.97212
▁guitar	-9.97278
▁theatre	-9.9733
▁journalist	-9.9736
▁Comp	-9.97382
list	-9.97389
ded	-9.97437
▁contact	-9.97473
▁compared	-9.97473
5,000	-9.97492
▁hold	-9.97503
NA	-9.97539
▁Library	-9.97555
▁accepted	-9.97598
▁fine	-9.97691
▁Del	-9.97753
▁Part	-9.9778
▁Band	-9.97818
▁Game	-9.97833
▁Toronto	-9.97844
mark	-9.97852
▁captured	-9.97935
iti	-9.97936
Mo	-9.97949
▁1939	-9.97985
▁alone	-9.97996
hor	-9.98027
New	-9.9804
▁extra	-9.9805
▁Stadium	-9.98051
▁2008.	-9.98066
▁2004,	-9.98074
▁drive	-9.98074
aya	-9.98097
sia	-9.98139
▁/	-9.98157
▁image	-9.98181
▁1952	-9.98229
▁needed	-9.98239
▁actress	-9.98259
ars	-9.98273
try	-9.98293
▁Wil	-9.98316
▁purpose	-9.9834
rupt	-9.9837
▁equipment	-9.98383
▁1943	-9.984
▁comes	-9.98408
▁kill	-9.98424
IS	-9.98427
▁shape	-9.98537
▁buried	-9.98549
▁unique	-9.98662
▁sexual	-9.98691
▁5,	-9.98697
hn	-9.9872
▁Sports	-9.98767
▁except	-9.98774
anda	-9.98799
▁expanded	-9.98809
Mi	-9.98841
▁figure	-9.98844
sum	-9.98896
tta	-9.98924
▁facility	-9.98925
▁Fair	-9.98962
▁Fr	-9.98973
▁Ban	-9.99071
▁scale	-9.99113
rit	-9.99232
99	-9.99247
▁comedy	-9.9925
▁Korea	-9.9927
pha	-9.99279
▁surname	-9.99305
–20	-9.99318
▁Ontario	-9.99386
▁providing	-9.99428
▁reviews	-9.99433
▁episodes	-9.9944
▁roles	-9.99446
31	-9.99462
▁Castle	-9.99498
wer	-9.9952
▁architect	-9.99542
▁map	-9.99563
bs	-9.99644
▁mile	-9.99677
ister	-9.9968
▁languages	-9.99689
ologist	-9.99749
▁expected	-9.9975
▁Swedish	-9.99806
.1	-9.99823
▁Luc	-9.99834
pin	-9.99839
ches	-9.9985
▁acting	-9.99877
.3%	-9.99918
Ho	-9.99925
ges	-9.99969
▁sha	-10.0002
▁clubs	-10.0004
ale	-10.0007
▁obtained	-10.0011
▁votes	-10.0014
▁Stephen	-10.0015
▁remain	-10.002
tical	-10.0021
▁mixed	-10.0022
▁Among	-10.0023
▁generation	-10.0024
▁ne	-10.0027
▁pilot	-10.0028
84	-10.0028
▁1957	-10.0029
▁governor	-10.0031
▁composer	-10.0031
▁risk	-10.0032
▁Tor	-10.0033
▁enter	-10.0034
▁promote	-10.0037
▁Supreme	-10.004
▁Boy	-10.0043
▁therefore	-10.0044
▁Area	-10.0046
▁Power	-10.0046
▁lot	-10.0049
lk	-10.0049
▁difficult	-10.005
▁newly	-10.005
41	-10.0051
▁paid	-10.0053
▁urban	-10.0055
bor	-10.0055
▁leadership	-10.0055
▁software	-10.0061
–18	-10.0062
07	-10.0063
▁der	-10.0065
!"	-10.0066
▁creation	-10.0066
ably	-10.0068
▁2017.	-10.0072
▁Br	-10.0074
▁Justice	-10.0074
▁broad	-10.0078
04	-10.0081
▁hill	-10.0082
▁Tim	-10.009
▁mm	-10.0095
rich	-10.0098
▁Eu	-10.0099
ically	-10.0102
▁2007.	-10.0102
▁1947	-10.0105
▁Francis	-10.0106
▁driver	-10.0106
▁stream	-10.0111
▁1959	-10.0114
▁ranked	-10.0115
▁reduced	-10.0118
ky	-10.0122
▁44	-10.0123
▁avoid	-10.013
▁Forest	-10.013
cast	-10.0133
ians	-10.0134
▁Is	-10.0138
▁sources	-10.0141
ith	-10.0144
▁highway	-10.0144
▁Network	-10.0146
▁stand	-10.0148
▁nation	-10.015
tom	-10.0151
▁Os	-10.0151
▁Gro	-10.016
CA	-10.0161
▁weight	-10.0164
▁Four	-10.0164
▁door	-10.0166
▁Brazil	-10.0167
▁territory	-10.0168
▁Oxford	-10.0168
▁fell	-10.017
▁identified	-10.0172
03	-10.0173
▁2000,	-10.0173
▁£	-10.0179
▁condition	-10.0182
▁symbol	-10.0187
nal	-10.0188
96	-10.0191
FL	-10.0193
▁par	-10.0196
nu	-10.02
▁twice	-10.0202
▁Philip	-10.0203
▁secret	-10.0204
Me	-10.0207
▁agreed	-10.0209
▁simple	-10.0211
stein	-10.0218
▁billion	-10.0218
▁count	-10.0222
▁secondary	-10.0223
pan	-10.0225
▁Dam	-10.0227
ert	-10.0236
▁rise	-10.0237
▁numbers	-10.024
▁1955	-10.0243
34	-10.0245
▁Pol	-10.0255
hen	-10.0255
▁Sol	-10.0257
▁1949	-10.026
▁rules	-10.0265
FC	-10.0272
▁Gen	-10.0275
rate	-10.028
ans	-10.0283
▁Press	-10.0284
▁achieved	-10.0288
▁big	-10.0291
▁growing	-10.0292
▁Head	-10.0294
▁Rose	-10.0297
sur	-10.0297
▁stay	-10.0306
▁session	-10.0306
Pa	-10.0314
nar	-10.0316
▁Cra	-10.0317
▁sector	-10.0318
lum	-10.032
▁Night	-10.0325
Li	-10.0326
▁Tru	-10.0332
key	-10.0339
▁succeeded	-10.0341
most	-10.0345
kov	-10.0347
Ca	-10.0349
▁winter	-10.0352
ida	-10.036
known	-10.0362
▁sport	-10.0368
▁Fu	-10.0368
ei	-10.0369
+	-10.0374
39	-10.0375
hood	-10.0376
lock	-10.0376
▁Police	-10.0377
▁page	-10.0378
▁offer	-10.0386
▁Ren	-10.0389
▁Tar	-10.0389
▁actually	-10.0393
09	-10.04
85	-10.0401
ati	-10.0402
▁library	-10.0403
▁global	-10.0403
▁comic	-10.0403
▁mill	-10.0405
EC	-10.0407
88	-10.0408
▁organizations	-10.0414
mont	-10.0415
ost	-10.0416
▁contemporary	-10.0416
▁twenty	-10.0416
bul	-10.0417
▁mayor	-10.0419
cen	-10.042
▁Marine	-10.0425
▁Special	-10.0425
▁mu	-10.0434
▁gr	-10.0436
▁Ven	-10.0438
IA	-10.0441
▁Pakistan	-10.0448
▁oldest	-10.045
▁Albert	-10.0452
▁follow	-10.0454
▁parties	-10.0455
▁resulted	-10.0455
▁presence	-10.0456
▁Mountain	-10.0457
▁squad	-10.0458
Po	-10.0463
▁Ran	-10.0464
ban	-10.0467
▁threat	-10.0469
which	-10.0472
44	-10.0472
▁designated	-10.0473
79	-10.0473
▁Cur	-10.0476
▁column	-10.0487
stan	-10.0488
▁painting	-10.0488
▁Arch	-10.0493
win	-10.0493
▁chairman	-10.0497
MA	-10.0502
▁Au	-10.0505
sure	-10.0505
▁hotel	-10.0506
rid	-10.0507
▁Earl	-10.0508
▁setting	-10.0509
also	-10.0511
▁colour	-10.0514
93	-10.0517
▁effective	-10.0522
spir	-10.0526
oli	-10.0526
▁option	-10.0526
▁Bor	-10.0527
tte	-10.0529
▁composition	-10.0531
▁ski	-10.0535
▁scientific	-10.054
.1%	-10.0543
pu	-10.0548
▁claim	-10.0548
▁6,	-10.0548
reg	-10.0554
▁plants	-10.0555
awa	-10.0558
▁cat	-10.0562
▁defined	-10.0567
▁granted	-10.0568
▁scoring	-10.0571
▁tree	-10.0571
mis	-10.0574
▁leaders	-10.0577
Con	-10.0584
▁Media	-10.0585
star	-10.059
AA	-10.0593
RA	-10.0595
ved	-10.0605
ato	-10.0608
.7%	-10.061
▁headquarters	-10.0612
▁organisation	-10.0612
▁Philadelphia	-10.0616
▁engineer	-10.0621
.2%	-10.0622
▁aired	-10.0625
uni	-10.0627
▁Ly	-10.0628
▁connected	-10.0633
▁communication	-10.0633
▁pattern	-10.0634
▁Sri	-10.0635
▁kept	-10.0639
▁injury	-10.0643
Mar	-10.0648
▁motor	-10.0648
▁path	-10.0652
eb	-10.0652
dan	-10.0661
▁Bob	-10.0664
▁applied	-10.0666
▁grow	-10.0667
ona	-10.0668
▁Atlantic	-10.0669
▁shop	-10.0674
▁leaves	-10.0677
mat	-10.0678
▁knowledge	-10.068
Billboard	-10.0682
▁(17	-10.0682
▁phase	-10.0684
dri	-10.0686
▁Chris	-10.0691
▁sales	-10.0692
▁literature	-10.0693
▁Point	-10.0693
olo	-10.0699
gon	-10.0702
▁commander	-10.0703
▁‘	-10.0703
ines	-10.0706
▁Netherlands	-10.0706
▁Ana	-10.0709
▁opera	-10.0709
▁address	-10.0712
02	-10.0715
▁rail	-10.0716
42	-10.0717
▁Main	-10.072
▁Son	-10.072
▁foundation	-10.0721
▁classes	-10.073
stra	-10.0733
pping	-10.0742
▁...	-10.0747
▁Business	-10.0747
▁Mont	-10.0749
▁domestic	-10.0752
▁Islands	-10.0755
▁bought	-10.0757
hal	-10.0757
▁metres	-10.076
▁Nations	-10.0762
▁Technology	-10.0765
▁Fox	-10.0769
To	-10.0771
dd	-10.0777
rn	-10.0777
▁coming	-10.0777
down	-10.0781
.8%	-10.0782
▁arch	-10.0784
▁priest	-10.0785
▁BC	-10.0787
▁basic	-10.0794
▁comm	-10.0796
atory	-10.0796
▁entitled	-10.0798
▁History	-10.0803
▁Mid	-10.0806
hl	-10.0807
▁garden	-10.0816
rom	-10.0817
▁1951	-10.0822
▁Class	-10.0826
▁Human	-10.0827
▁64	-10.0829
▁2003,	-10.084
BA	-10.0846
▁7,	-10.0847
▁von	-10.0849
▁Bri	-10.0853
98	-10.0855
ado	-10.0856
▁Beach	-10.0857
vent	-10.0857
▁Dis	-10.0862
ising	-10.0863
▁Vol	-10.0868
▁Hor	-10.0869
▁greater	-10.087
Be	-10.087
▁Wilson	-10.087
rick	-10.0871
ulation	-10.0875
▁existing	-10.0887
▁continues	-10.0892
.6%	-10.0893
▁Korean	-10.0895
bit	-10.0898
38	-10.0899
▁Region	-10.09
▁Not	-10.0903
▁places	-10.0903
temp	-10.0907
▁true	-10.0908
vert	-10.0917
graph	-10.0917
▁Several	-10.0917
91	-10.0918
43	-10.0918
▁resulting	-10.0919
Ra	-10.0928
ich	-10.0928
▁yards	-10.0929
avi	-10.0929
lip	-10.093
▁watch	-10.0932
▁Sk	-10.0937
pon	-10.0937
▁allows	-10.0941
▁1954	-10.0946
▁starring	-10.0947
▁2006.	-10.0948
vid	-10.0951
▁effort	-10.0956
lt	-10.0957
▁alternative	-10.0959
lies	-10.0961
▁2018.	-10.0962
97	-10.0965
▁analysis	-10.0968
hand	-10.0968
▁rating	-10.0977
▁horse	-10.0984
▁Dor	-10.0988
rea	-10.0991
ston	-10.0991
▁Alex	-10.0992
ae	-10.0993
▁challenge	-10.0995
▁1953	-10.0998
▁wave	-10.0998
▁baseball	-10.1002
▁tri	-10.1002
▁marked	-10.1003
00,000	-10.1008
▁confirmed	-10.1009
▁contain	-10.1009
▁Time	-10.1011
rus	-10.1012
▁Regiment	-10.1015
▁Miss	-10.1015
▁hu	-10.1017
▁broke	-10.1023
lain	-10.1024
ttle	-10.1031
▁Hay	-10.1031
▁edge	-10.1032
.9%	-10.1034
eng	-10.1035
▁historian	-10.1038
▁rank	-10.1041
▁picture	-10.1043
▁losing	-10.1045
▁Ce	-10.1049
▁photo	-10.1053
▁object	-10.1059
▁Because	-10.1062
▁incident	-10.1062
▁chosen	-10.1064
▁simply	-10.1066
▁Mike	-10.107
mel	-10.1071
ika	-10.1076
▁task	-10.1079
zar	-10.108
▁mono	-10.1081
▁trains	-10.1083
▁performances	-10.1084
▁corner	-10.1086
▁funding	-10.1088
▁Camp	-10.1088
▁sixth	-10.109
Bo	-10.1094
bus	-10.1094
▁advance	-10.1104
▁consider	-10.1108
▁seats	-10.1113
▁frequently	-10.1119
▁titles	-10.112
▁height	-10.1128
92	-10.1128
ille	-10.1133
dis	-10.1136
▁Sweden	-10.1137
▁publication	-10.1138
▁roof	-10.1143
No	-10.115
ott	-10.115
▁500	-10.1155
▁Captain	-10.1156
▁models	-10.1158
▁graduate	-10.1161
▁Wal	-10.1164
?	-10.1164
teen	-10.1165
▁settled	-10.1166
▁claims	-10.1178
▁Today	-10.1179
▁journal	-10.1185
▁holds	-10.1187
century	-10.1191
ele	-10.1194
▁etc	-10.1197
▁30,	-10.1199
▁qua	-10.1201
▁inspired	-10.1204
▁Prior	-10.1205
č	-10.1213
▁grant	-10.1214
="	-10.1215
▁Social	-10.1216
ght	-10.1216
▁Kh	-10.1218
▁ro	-10.1223
heim	-10.1223
▁assist	-10.1224
Ha	-10.1227
▁suggested	-10.1227
▁sense	-10.1229
▁Trans	-10.1229
76	-10.1237
▁younger	-10.1239
▁stock	-10.1241
▁technical	-10.1242
65	-10.1242
▁cars	-10.1246
▁respect	-10.1258
▁Arthur	-10.1262
▁trail	-10.1268
ili	-10.1269
▁Ag	-10.1275
▁ring	-10.1275
tto	-10.128
▁expansion	-10.128
▁Kat	-10.1282
▁gives	-10.1283
▁copies	-10.1285
▁maintain	-10.1288
▁climate	-10.129
▁Cri	-10.1294
▁(2	-10.1309
▁castle	-10.1313
▁neighborhood	-10.1314
▁Sur	-10.1317
▁pick	-10.1318
▁stu	-10.1322
▁covers	-10.1327
rio	-10.1328
▁cha	-10.1337
▁showed	-10.1338
▁36	-10.134
▁flat	-10.1341
chen	-10.1343
▁boy	-10.1346
▁survey	-10.1348
▁morning	-10.1348
▁Lady	-10.1352
ić	-10.1353
wick	-10.1358
room	-10.1365
yer	-10.1366
▁agent	-10.1367
▁Junior	-10.1372
▁Khan	-10.1374
ify	-10.1375
▁Community	-10.1377
▁relatively	-10.1382
▁supply	-10.1396
iff	-10.1402
▁statement	-10.1412
$	-10.1413
▁Roger	-10.1419
▁completely	-10.142
▁Mur	-10.142
▁Op	-10.1421
▁walk	-10.1424
▁guard	-10.1431
▁protection	-10.1435
▁commissioned	-10.1438
TA	-10.144
get	-10.144
47	-10.1442
▁beat	-10.1445
▁singles	-10.1454
▁Prize	-10.1457
een	-10.1457
▁architecture	-10.1461
▁invest	-10.1464
▁Between	-10.1464
uri	-10.1465
mond	-10.1467
▁says	-10.147
▁restaurant	-10.1474
ctic	-10.1479
▁8,	-10.1481
_1	-10.1485
▁1938	-10.1496
▁fully	-10.1497
BC	-10.1499
▁royal	-10.1504
Di	-10.151
▁Ste	-10.1511
lus	-10.152
▁1936	-10.152
▁Federation	-10.1523
ook	-10.1523
▁iron	-10.1523
▁Ci	-10.1524
▁cancer	-10.1524
nia	-10.1525
cit	-10.1525
▁tried	-10.1527
▁Cambridge	-10.1528
77	-10.1536
▁12,	-10.1538
▁mode	-10.1549
▁prize	-10.1549
▁conduct	-10.155
▁Command	-10.1552
▁Norwegian	-10.1558
▁daily	-10.1558
▁Hot	-10.1567
▁suit	-10.1569
▁tank	-10.1573
▁districts	-10.1573
▁Tan	-10.1574
66	-10.1575
▁Angel	-10.1579
gate	-10.1579
▁maximum	-10.1588
▁Taylor	-10.1592
▁doctor	-10.1593
▁spell	-10.1593
▁Even	-10.1594
▁18,	-10.1595
▁Lewis	-10.1603
–0	-10.1603
▁Due	-10.1605
▁Sin	-10.1606
▁advanced	-10.1608
▁Steve	-10.1609
08	-10.161
▁returning	-10.161
▁cannot	-10.1611
▁dropped	-10.1613
▁trip	-10.1616
▁fun	-10.1617
see	-10.1631
▁zone	-10.1634
Lo	-10.1637
▁versions	-10.164
▁attend	-10.1641
▁electronic	-10.1644
▁Win	-10.1644
vor	-10.1649
▁felt	-10.1653
▁Davis	-10.1656
blo	-10.1657
=	-10.1659
▁authorities	-10.1661
▁1918	-10.1665
▁script	-10.1668
cat	-10.1671
▁arrested	-10.1672
▁33	-10.1674
ties	-10.1677
▁sequence	-10.1677
▁yellow	-10.1677
▁Project	-10.1677
press	-10.168
tics	-10.168
ava	-10.1682
▁solution	-10.1682
55	-10.1689
ø	-10.169
▁11,	-10.1691
▁tu	-10.1693
▁figures	-10.1694
▁Liberal	-10.1694
▁Spe	-10.1699
▁(;	-10.17
▁documentary	-10.1704
We	-10.1706
▁Minnesota	-10.1707
▁politics	-10.1707
▁materials	-10.1709
▁defense	-10.1712
▁Stone	-10.1714
▁formerly	-10.1723
▁engineering	-10.1731
▁Wall	-10.1731
position	-10.1735
gre	-10.1736
oid	-10.174
ama	-10.1741
▁Em	-10.1743
vy	-10.1745
▁Guard	-10.175
rat	-10.1752
▁progress	-10.176
32	-10.1763
burn	-10.1766
▁Cam	-10.1766
▁ver	-10.1768
ean	-10.1771
▁Cast	-10.1776
▁End	-10.1778
▁Sar	-10.1787
▁Pur	-10.1788
cation	-10.1791
48	-10.1792
cht	-10.1799
▁bio	-10.1802
▁sites	-10.1809
▁sum	-10.1829
▁Clo	-10.183
▁Channel	-10.1839
▁worldwide	-10.184
▁extensive	-10.184
▁subsequent	-10.184
▁begin	-10.1845
.6	-10.1847
cin	-10.1848
▁retirement	-10.1854
sp	-10.1855
gin	-10.1862
▁1937	-10.1866
▁flood	-10.1869
▁buy	-10.1869
▁strip	-10.187
▁seed	-10.1878
▁entry	-10.1881
▁township	-10.1886
▁allowing	-10.1888
▁si	-10.1899
▁Melbourne	-10.1899
▁Vice	-10.19
▁creating	-10.1901
▁represent	-10.1912
▁spec	-10.1913
▁Winter	-10.1914
▁frame	-10.1915
▁narrow	-10.1915
▁MP	-10.1918
▁positions	-10.1921
▁Live	-10.1925
▁investigation	-10.193
die	-10.1935
▁visited	-10.1938
▁educated	-10.1938
ora	-10.194
▁connect	-10.1941
▁Emperor	-10.1945
▁opposition	-10.1946
▁Ross	-10.1947
▁Sunday	-10.1949
▁Ray	-10.1954
▁Kal	-10.1962
Th	-10.1964
Do	-10.1966
▁Census	-10.1971
▁fans	-10.1973
tus	-10.1974
▁representing	-10.1974
lect	-10.1975
aga	-10.1975
▁memory	-10.1976
ame	-10.1976
▁think	-10.1978
▁1919	-10.198
▁Kansas	-10.1981
RC	-10.1982
▁piece	-10.1983
bla	-10.1984
▁Pla	-10.1986
▁holding	-10.1989
It	-10.1992
▁10,	-10.1992
▁plot	-10.2
▁cells	-10.2001
▁Pal	-10.2005
▁arts	-10.2007
▁racing	-10.2013
▁Kim	-10.2014
▁Play	-10.2015
▁15,	-10.2019
▁Yo	-10.202
lit	-10.2022
▁unknown	-10.2022
▁consisted	-10.2023
▁9,	-10.2027
▁Matt	-10.2031
▁Fred	-10.2033
IC	-10.2034
▁derived	-10.2038
mble	-10.204
▁founding	-10.2043
ock	-10.2044
▁Journal	-10.2047
▁entrance	-10.2048
▁sex	-10.2058
ular	-10.2059
▁Golden	-10.2062
▁DVD	-10.2064
aki	-10.2067
▁rear	-10.2068
▁critics	-10.2069
▁performing	-10.2069
▁approved	-10.2069
ien	-10.2071
▁valley	-10.2074
▁y	-10.2079
▁resources	-10.2087
▁bronze	-10.209
▁rare	-10.2092
Da	-10.2097
Go	-10.2102
▁Cat	-10.2103
▁Mexican	-10.2106
▁application	-10.2109
▁appeal	-10.2111
gram	-10.2114
ement	-10.2116
▁Singapore	-10.2116
▁qualified	-10.2116
▁goes	-10.2116
▁Queensland	-10.2116
phy	-10.2118
▁Phil	-10.2124
▁relations	-10.2125
▁Age	-10.2125
zer	-10.2126
▁necessary	-10.2127
▁peace	-10.2127
▁Arab	-10.2127
▁fuel	-10.2128
dies	-10.213
▁someone	-10.2132
▁exist	-10.2137
▁begins	-10.2137
▁Native	-10.2139
▁fought	-10.2148
▁ban	-10.2149
▁request	-10.215
78	-10.2152
ú	-10.2153
▁permanent	-10.216
▁Fire	-10.2166
▁nomination	-10.2173
▁combat	-10.2174
lot	-10.2176
▁reaction	-10.2178
▁articles	-10.2178
▁vehicle	-10.2185
▁reports	-10.2188
▁establishment	-10.2189
▁constituency	-10.2189
▁Sil	-10.2193
▁moth	-10.2193
Se	-10.2194
▁religion	-10.2195
▁steam	-10.2201
▁1917	-10.2208
▁habitat	-10.2209
▁Wisconsin	-10.2211
▁honour	-10.2211
▁Cape	-10.2221
▁photograph	-10.2227
▁acid	-10.2229
▁Operation	-10.2233
▁institution	-10.2234
▁receiving	-10.2237
▁bishop	-10.2237
▁Country	-10.2242
▁row	-10.2242
▁send	-10.2242
▁learn	-10.2248
▁regions	-10.2252
▁volume	-10.2256
tig	-10.226
64	-10.2263
▁properties	-10.2264
▁authority	-10.2265
67	-10.228
election	-10.2281
▁tells	-10.2285
▁escape	-10.2289
▁14,	-10.2289
▁sun	-10.2293
▁economy	-10.23
▁exception	-10.2301
▁Ty	-10.2303
▁moment	-10.2303
▁commission	-10.2309
night	-10.2315
▁speech	-10.2316
view	-10.2321
▁counter	-10.2321
▁2005.	-10.2322
table	-10.2325
rated	-10.2328
verse	-10.2329
▁trees	-10.2334
▁dam	-10.2336
▁Missouri	-10.2338
▁Zo	-10.2344
mus	-10.2345
▁et	-10.2346
▁Garden	-10.2348
▁Ocean	-10.2359
▁citizens	-10.236
▁sell	-10.2362
▁print	-10.2364
▁converted	-10.2366
▁existence	-10.2366
tti	-10.2368
▁normal	-10.2368
▁Rob	-10.2374
gor	-10.2375
▁sons	-10.2378
▁brothers	-10.238
door	-10.2381
▁Ky	-10.2381
▁Qua	-10.2382
▁things	-10.2382
nor	-10.2383
ison	-10.2384
56	-10.2385
▁tall	-10.2388
▁roll	-10.2389
▁EP	-10.2391
▁finishing	-10.2394
▁Tur	-10.2398
▁Bla	-10.2401
elle	-10.2407
▁Rural	-10.2407
▁fr	-10.2412
▁regiment	-10.2414
pet	-10.2415
▁investment	-10.2427
▁write	-10.244
▁Walter	-10.244
▁don	-10.2445
ators	-10.2445
▁stadium	-10.2445
▁Ball	-10.2445
mir	-10.2446
ull	-10.2446
▁Bowl	-10.2448
▁Pope	-10.2449
▁shared	-10.2449
▁Count	-10.245
▁venue	-10.2451
▁Anti	-10.2454
▁Mas	-10.2463
▁Stan	-10.2464
▁Simon	-10.2467
▁2001,	-10.247
▁Labour	-10.2474
▁Places	-10.2477
▁opposed	-10.2478
▁fan	-10.2479
thi	-10.2482
▁Memorial	-10.2483
▁Gor	-10.2483
▁23,	-10.2486
▁draft	-10.2486
mas	-10.2489
46	-10.2491
▁fighting	-10.2493
▁Hart	-10.2493
▁background	-10.2493
▁Indiana	-10.2495
▁Program	-10.2496
▁institutions	-10.2497
▁shortly	-10.2497
Star	-10.2499
▁category	-10.2499
81	-10.2507
▁focused	-10.2508
▁Trust	-10.2515
▁partnership	-10.2523
▁containing	-10.2524
▁rugby	-10.2526
▁albums	-10.2528
▁tie	-10.2528
▁employed	-10.2531
▁failure	-10.2532
▁incorporated	-10.2543
▁1935	-10.2546
▁spin	-10.2546
▁accident	-10.2547
▁participate	-10.2547
▁chair	-10.2547
▁constant	-10.2548
▁2002,	-10.2548
▁commune	-10.2549
ime	-10.2552
▁chain	-10.2561
▁ending	-10.2566
▁13,	-10.2571
▁arms	-10.2574
mph	-10.2574
▁Bureau	-10.2576
▁22,	-10.2582
▁1933	-10.2583
▁Medal	-10.2587
▁Player	-10.2589
ites	-10.2591
▁Ford	-10.2593
▁environmental	-10.2598
ked	-10.2599
▁1932	-10.2599
ess	-10.2602
tent	-10.2605
68	-10.2608
▁aid	-10.2609
▁safety	-10.2611
▁indicate	-10.2613
cial	-10.2618
▁reduce	-10.2618
▁officials	-10.2621
▁Lau	-10.2623
▁gain	-10.2627
▁ill	-10.2627
AR	-10.263
▁straight	-10.263
jan	-10.2632
▁Norway	-10.2633
▁Fla	-10.2637
▁About	-10.2638
▁ju	-10.264
▁locations	-10.2644
▁1900	-10.2647
▁hockey	-10.2647
*	-10.2647
ira	-10.2648
▁powerful	-10.2652
▁contributed	-10.2656
▁methods	-10.2657
▁Oregon	-10.2658
▁brown	-10.2658
▁Medical	-10.2659
put	-10.2659
mmer	-10.2659
▁developing	-10.2665
mination	-10.2667
▁Moscow	-10.2669
▁experiment	-10.2673
▁Building	-10.2674
▁$3	-10.2676
▁refused	-10.2679
rian	-10.268
▁21,	-10.2682
▁Fin	-10.2682
▁20,	-10.2688
til	-10.2688
▁vice	-10.2691
▁Temple	-10.2703
▁Lincoln	-10.2713
▁merged	-10.272
▁theme	-10.2726
aging	-10.2727
▁Des	-10.273
▁Upon	-10.273
▁attempted	-10.2731
cket	-10.2734
▁visual	-10.2735
▁increasing	-10.2739
hop	-10.2739
ters	-10.2744
▁extension	-10.2746
▁27,	-10.2747
▁scheduled	-10.2748
▁wheel	-10.2749
▁aged	-10.2751
▁boat	-10.2753
▁bra	-10.2754
rel	-10.2755
▁educational	-10.276
▁<	-10.2767
▁learning	-10.2776
▁Vietnam	-10.2779
▁document	-10.278
▁animals	-10.2784
▁Ann	-10.2785
vil	-10.2786
▁occur	-10.2788
▁1934	-10.2788
▁Military	-10.2791
▁behavior	-10.2791
lands	-10.2793
ident	-10.2795
.8	-10.2796
▁des	-10.2796
74	-10.2798
▁invited	-10.2798
▁slightly	-10.2801
▁Run	-10.2805
▁fleet	-10.2809
▁bit	-10.2809
tten	-10.2811
";	-10.2813
ello	-10.2813
▁choice	-10.2814
▁occupied	-10.2814
▁unable	-10.2817
▁occurs	-10.2826
▁1914	-10.2829
▁Farm	-10.283
▁ultimately	-10.2834
▁junior	-10.2836
▁mean	-10.2841
▁expert	-10.2847
▁Fri	-10.2848
57	-10.2848
▁News	-10.2856
PA	-10.2857
▁Mun	-10.2858
▁Mah	-10.2858
▁needs	-10.2859
▁NFL	-10.2864
▁card	-10.2866
▁grand	-10.2868
▁Ferr	-10.2873
una	-10.2878
▁say	-10.2883
▁attacks	-10.2883
▁Austria	-10.2886
▁residence	-10.2886
▁lyrics	-10.2889
weight	-10.2889
▁Sel	-10.2889
▁successfully	-10.2894
lf	-10.2894
.0%	-10.2898
▁NCAA	-10.2898
Sa	-10.2898
▁Malaysia	-10.2901
▁girl	-10.2909
▁Anne	-10.2911
▁Philippines	-10.2915
▁Colorado	-10.292
ogen	-10.2925
▁Ak	-10.2929
power	-10.2932
▁meant	-10.2934
▁internal	-10.2937
▁negative	-10.2937
62	-10.294
BS	-10.294
cri	-10.2941
▁criminal	-10.2943
term	-10.2947
ico	-10.2952
▁Es	-10.2959
▁cre	-10.2965
▁34	-10.297
▁vehicles	-10.297
▁Though	-10.2971
under	-10.2973
eva	-10.2974
chu	-10.2976
ami	-10.2977
▁contained	-10.298
cept	-10.2981
▁budget	-10.2988
km	-10.2989
▁sides	-10.2989
hill	-10.299
82	-10.2995
▁classical	-10.2998
▁flag	-10.2999
▁throw	-10.3
lim	-10.3002
▁theater	-10.3002
▁improve	-10.3004
▁19,	-10.301
▁representative	-10.3012
▁Ker	-10.3014
▁Economic	-10.3017
vision	-10.3018
eau	-10.3019
▁voted	-10.3027
▁fu	-10.3028
▁becomes	-10.3031
▁file	-10.3032
▁sail	-10.3035
▁rival	-10.3035
▁reading	-10.3037
▁26,	-10.3037
where	-10.304
OS	-10.3046
▁formal	-10.3046
season	-10.305
▁beyond	-10.3057
gna	-10.3061
type	-10.3066
▁influenced	-10.3068
▁Manchester	-10.3069
▁aim	-10.3069
▁contest	-10.3077
▁us	-10.308
nz	-10.3082
▁25,	-10.3084
▁Shan	-10.3084
▁lawyer	-10.3088
▁nuclear	-10.3091
▁affect	-10.3097
▁1929	-10.31
cip	-10.3102
▁determined	-10.3107
print	-10.3108
bol	-10.3109
▁eye	-10.3116
▁reasons	-10.3117
▁sy	-10.3118
▁weak	-10.3119
For	-10.3125
▁Cy	-10.3126
▁fields	-10.3131
▁Glen	-10.3131
▁Shar	-10.3133
▁passenger	-10.3135
▁hands	-10.3136
▁Regional	-10.3137
▁ga	-10.3139
▁te	-10.314
▁hope	-10.3141
▁Hockey	-10.3143
own	-10.3147
▁notes	-10.3147
▁Tennessee	-10.3149
▁fashion	-10.3149
▁literary	-10.3149
▁producing	-10.3149
▁Holy	-10.3152
▁poll	-10.3152
▁recognition	-10.3155
hin	-10.3159
▁fruit	-10.3161
▁glass	-10.3162
▁painter	-10.3162
lis	-10.3163
▁hired	-10.3169
▁funds	-10.3176
▁proved	-10.3182
abad	-10.3186
cz	-10.3188
▁28,	-10.3188
▁centuries	-10.319
ides	-10.319
▁Studies	-10.3196
61	-10.3196
▁refers	-10.3207
lem	-10.3207
▁1928	-10.321
▁Democrat	-10.3211
▁Mos	-10.3213
▁1910	-10.3213
ech	-10.3215
tile	-10.3216
–3	-10.3216
ened	-10.3218
▁explain	-10.322
58	-10.3223
54	-10.3227
▁selection	-10.3228
▁Constitution	-10.323
▁translation	-10.3231
▁heat	-10.3238
▁rich	-10.3238
band	-10.3242
▁Down	-10.3242
ique	-10.3243
63	-10.3246
▁Turkey	-10.3249
▁abandoned	-10.325
▁proper	-10.3254
▁chance	-10.3255
▁pieces	-10.3255
hol	-10.3262
▁Kra	-10.3263
▁purchase	-10.3266
71	-10.3267
ī	-10.3271
▁combination	-10.3271
▁resigned	-10.3274
comp	-10.3276
▁letters	-10.3277
▁establish	-10.328
▁dog	-10.3284
gle	-10.3285
▁electric	-10.3304
▁panel	-10.3307
▁Sim	-10.3308
▁Management	-10.3313
▁hair	-10.3317
▁Ji	-10.3323
ces	-10.3324
▁consecutive	-10.3324
49	-10.3325
ographic	-10.3328
▁girls	-10.3329
odo	-10.333
▁opponent	-10.333
▁Hamilton	-10.333
▁contrast	-10.333
▁something	-10.3331
▁attempts	-10.3333
▁1924	-10.3334
ū	-10.3336
▁Tony	-10.3337
rag	-10.3338
▁standing	-10.334
▁attacked	-10.3347
sburg	-10.335
▁collaboration	-10.3354
72	-10.3356
▁Brook	-10.3356
mission	-10.3359
Com	-10.3361
▁Para	-10.3362
▁northeast	-10.3364
count	-10.3364
▁scheme	-10.3366
wl	-10.3368
▁Fame	-10.3369
▁debate	-10.337
▁Eli	-10.3371
▁Christmas	-10.3373
▁relative	-10.3377
▁struggle	-10.3377
69	-10.3385
▁Miller	-10.3386
▁specifically	-10.3386
AS	-10.3388
▁expressed	-10.3391
▁1931	-10.3398
▁Maryland	-10.3398
▁web	-10.3411
▁inhabitants	-10.3413
▁folk	-10.3414
cut	-10.3421
▁Switzerland	-10.3425
▁maintained	-10.3427
mbo	-10.3429
▁villages	-10.343
▁marine	-10.343
▁ceremony	-10.3431
▁(3	-10.3435
▁add	-10.3436
▁installed	-10.3437
▁custom	-10.3438
DP	-10.3439
▁Clark	-10.3444
▁operate	-10.3445
mun	-10.345
▁1926	-10.3452
ild	-10.3457
▁reign	-10.3463
ori	-10.3468
▁candidates	-10.3468
path	-10.3469
53	-10.3471
san	-10.3474
▁Anna	-10.3478
hara	-10.348
▁1927	-10.3482
TC	-10.3483
gno	-10.3487
uro	-10.3498
nel	-10.3501
▁nor	-10.3501
▁acts	-10.3502
▁flu	-10.3504
mina	-10.3505
▁Vis	-10.3507
▁Jacob	-10.3509
bot	-10.3512
▁message	-10.3515
itch	-10.3517
gun	-10.3518
▁joining	-10.3518
▁Affairs	-10.3521
▁sal	-10.3521
▁talent	-10.3521
Ja	-10.3526
▁ethnic	-10.3527
▁segment	-10.3527
▁determine	-10.3528
▁Bat	-10.3528
▁camera	-10.3531
Ju	-10.3532
▁fiction	-10.3533
isation	-10.3535
▁identity	-10.3539
fici	-10.354
▁Arizona	-10.3545
▁Swiss	-10.3545
char	-10.3551
▁Bad	-10.3554
▁planning	-10.356
▁1912	-10.3562
▁Infantry	-10.3563
▁Real	-10.3567
▁pri	-10.3571
▁faced	-10.3571
▁Magazine	-10.3575
▁catch	-10.3583
▁decide	-10.3584
▁premiered	-10.3586
▁offices	-10.3587
▁advantage	-10.3587
▁chemical	-10.3587
▁cru	-10.3588
▁heavily	-10.3593
sign	-10.3595
▁Six	-10.3596
51	-10.3601
▁Diego	-10.3601
▁functions	-10.3603
-18	-10.3603
agh	-10.3604
▁storm	-10.3605
▁twelve	-10.3611
SC	-10.3614
▁dispute	-10.3618
▁critic	-10.3624
▁jump	-10.3625
▁Motor	-10.3627
▁Design	-10.3627
▁sale	-10.3628
▁harm	-10.3628
▁29,	-10.363
lio	-10.3636
▁poetry	-10.3636
▁Officer	-10.3638
AF	-10.3638
▁programming	-10.3639
▁col	-10.3641
uit	-10.3642
▁Harry	-10.3645
59	-10.3649
esh	-10.3661
▁plea	-10.3663
▁guns	-10.3667
IT	-10.3668
▁supporting	-10.3669
▁Israeli	-10.367
oe	-10.3671
bach	-10.3672
▁Rad	-10.3675
▁ni	-10.3676
▁Entertainment	-10.3676
▁38	-10.3678
▁Television	-10.3678
▁collected	-10.3682
box	-10.3685
▁explore	-10.369
▁Wei	-10.3693
tting	-10.3694
dio	-10.3695
▁fear	-10.37
▁consul	-10.3701
▁Euro	-10.3702
▁Hotel	-10.3703
▁McG	-10.3703
▁walls	-10.3705
cade	-10.3706
master	-10.3707
▁Norman	-10.3709
ddle	-10.371
▁Jews	-10.3713
▁sought	-10.3715
▁decades	-10.3716
▁Cap	-10.3717
▁UN	-10.3719
▁Rod	-10.372
▁interior	-10.3721
▁instance	-10.3722
▁closely	-10.3723
▁Ur	-10.3729
▁bomb	-10.3729
▁carry	-10.3732
▁presidential	-10.3733
▁municipal	-10.3734
▁san	-10.3736
▁towns	-10.3737
▁fast	-10.374
▁registered	-10.3741
logy	-10.3744
eri	-10.3746
▁try	-10.3747
▁actions	-10.3747
▁Hal	-10.3751
book	-10.3752
73	-10.3757
2.	-10.3758
▁Jay	-10.3763
▁Portuguese	-10.3764
▁repair	-10.3764
fra	-10.3766
▁Allen	-10.3766
▁replace	-10.3766
▁arm	-10.3769
▁Opera	-10.377
▁laid	-10.3771
▁Buck	-10.3773
finals	-10.3777
▁Whit	-10.3779
▁37	-10.378
mid	-10.3785
els	-10.3787
▁Gene	-10.3793
▁correct	-10.3795
▁Sciences	-10.3798
▁Jane	-10.3799
▁trained	-10.3801
but	-10.3805
▁structures	-10.3808
ré	-10.3808
▁sole	-10.381
story	-10.3812
▁49	-10.3812
LA	-10.3812
▁Egypt	-10.3814
▁Front	-10.3814
▁bad	-10.3815
▁Howard	-10.3817
gene	-10.3822
▁engines	-10.3823
▁detect	-10.3824
52	-10.3825
▁1922	-10.3829
▁slow	-10.383
inger	-10.3833
▁sand	-10.3834
▁suburb	-10.3836
▁Kur	-10.3839
▁Var	-10.3839
Man	-10.3842
▁operates	-10.3844
she	-10.3844
▁distributed	-10.385
▁agricultural	-10.385
▁margin	-10.3851
▁Dom	-10.3854
▁dry	-10.3858
▁your	-10.386
dh	-10.3861
▁Av	-10.3871
organ	-10.3871
▁Gri	-10.3871
ín	-10.3872
▁Qui	-10.3873
▁steel	-10.3873
app	-10.3874
▁runner	-10.3874
▁Revolution	-10.3874
▁Turkish	-10.3874
▁See	-10.3878
▁finding	-10.3881
▁volunteer	-10.3882
▁passing	-10.3882
▁musician	-10.3882
▁sil	-10.3886
▁cricket	-10.3891
hir	-10.3893
▁reaching	-10.3894
▁mind	-10.39
zh	-10.3901
▁speak	-10.3901
▁discover	-10.3904
▁guide	-10.3908
▁Steven	-10.391
ried	-10.3911
▁Sound	-10.3911
▁1925	-10.3911
▁activist	-10.3913
▁Senior	-10.3913
nik	-10.3913
▁Lea	-10.3915
ific	-10.3916
elli	-10.3918
▁IV	-10.3921
▁onto	-10.3922
▁brick	-10.3924
▁Kentucky	-10.3925
▁Square	-10.3925
▁cent	-10.393
▁Executive	-10.3931
▁Lieutenant	-10.3931
▁am	-10.3933
▁save	-10.3935
▁quite	-10.3936
▁soil	-10.3944
▁tro	-10.3945
metre	-10.3947
▁1999,	-10.3947
▁applications	-10.3952
bil	-10.3952
▁1921	-10.3954
ER	-10.3956
▁racial	-10.3957
▁importance	-10.3958
▁Ir	-10.3963
▁touchdown	-10.3969
grad	-10.397
▁Tournament	-10.3975
▁Ap	-10.3975
▁wi	-10.3982
▁core	-10.3989
▁Well	-10.3994
oper	-10.3995
-3	-10.3996
▁piano	-10.3997
Ne	-10.3998
▁Med	-10.4
▁Village	-10.4
▁chapter	-10.4007
▁Douglas	-10.4013
▁weather	-10.4021
▁animal	-10.4021
▁Chan	-10.403
▁Bull	-10.4033
▁express	-10.4034
▁regarded	-10.4036
▁drawing	-10.4038
▁Foreign	-10.4038
cycl	-10.4039
▁Greece	-10.4045
▁16,	-10.4049
▁adjacent	-10.4051
▁serious	-10.4052
zu	-10.4055
via	-10.4057
▁Knight	-10.4058
▁300	-10.4058
▁calls	-10.4062
▁400	-10.4063
ffe	-10.4067
▁employees	-10.4069
▁favor	-10.4071
thy	-10.4071
who	-10.4074
▁expression	-10.4075
▁Engineering	-10.4076
▁invasion	-10.4077
▁Wild	-10.4077
▁sets	-10.408
▁2019.	-10.4084
▁Den	-10.4085
▁Cer	-10.4085
▁regularly	-10.4089
▁safe	-10.4092
cla	-10.4096
2).	-10.4098
ela	-10.41
▁Heart	-10.4108
▁improved	-10.4108
[	-10.411
US	-10.4111
▁credit	-10.4114
une	-10.4126
1,	-10.4128
▁Sky	-10.4131
ander	-10.4131
▁users	-10.4136
including	-10.4137
ST	-10.4137
▁poly	-10.4139
▁Czech	-10.414
▁killing	-10.4143
meter	-10.4146
dent	-10.415
▁herself	-10.4154
▁clean	-10.416
▁cycle	-10.4162
ware	-10.4166
▁railroad	-10.4166
AM	-10.417
▁Brian	-10.4172
▁engaged	-10.4173
▁Sav	-10.4173
▁obtain	-10.4174
hard	-10.4175
▁motion	-10.4176
▁let	-10.4177
▁bass	-10.4178
▁Nazi	-10.4182
▁Now	-10.4183
▁Danish	-10.4189
▁slave	-10.4195
▁Services	-10.4198
▁entirely	-10.4199
▁Pas	-10.4201
▁expand	-10.4203
▁heard	-10.4204
▁ensure	-10.4204
▁strength	-10.4206
▁reveal	-10.421
▁weapons	-10.4211
shed	-10.4212
▁survived	-10.4213
▁48	-10.4216
▁bear	-10.4217
100	-10.4225
▁Barr	-10.423
▁laws	-10.4232
pot	-10.4235
▁briefly	-10.4235
Qu	-10.4236
▁independence	-10.4237
iel	-10.4239
▁regarding	-10.424
▁courses	-10.4243
▁pioneer	-10.4243
▁orchestra	-10.4243
▁Samuel	-10.4249
▁consisting	-10.425
▁describes	-10.425
bur	-10.4253
▁42	-10.4259
tend	-10.4259
▁1923	-10.426
lton	-10.4263
Na	-10.4263
▁Staff	-10.4264
▁FM	-10.4273
▁pan	-10.4275
▁extend	-10.4275
align	-10.4278
▁Senator	-10.4279
▁jazz	-10.4282
ym	-10.4285
▁auto	-10.4287
▁Silver	-10.4287
▁Mayor	-10.4287
ional	-10.4288
itan	-10.4289
▁observed	-10.4289
liber	-10.429
▁tail	-10.4292
▁phone	-10.4293
▁shoot	-10.4295
▁introduction	-10.4295
▁patients	-10.4295
▁bodies	-10.4296
ender	-10.4297
▁medium	-10.4301
▁2004.	-10.4306
ima	-10.4307
▁distinct	-10.4309
▁standards	-10.4309
▁Metro	-10.431
▁Pet	-10.4311
AN	-10.4315
▁Conservative	-10.4321
kes	-10.4325
▁Hard	-10.4326
borough	-10.4328
Br	-10.4329
rant	-10.4333
body	-10.4334
▁scenes	-10.4335
▁fer	-10.4335
▁planet	-10.434
▁sur	-10.4345
▁hundred	-10.4345
▁enemy	-10.4347
itt	-10.4352
▁Gre	-10.4357
▁1916	-10.4357
▁wish	-10.4358
▁monument	-10.436
▁parallel	-10.436
ddy	-10.4366
▁Commonwealth	-10.4366
▁decade	-10.4368
▁opportunity	-10.4373
▁context	-10.4374
rap	-10.438
▁manufacturer	-10.4382
▁Spring	-10.4385
▁eleven	-10.4386
▁Patrick	-10.4387
▁wild	-10.4387
▁seek	-10.4388
▁passes	-10.4389
▁armed	-10.439
▁Bern	-10.4399
▁opposite	-10.4399
▁violence	-10.4399
▁classic	-10.44
▁Eric	-10.4401
▁Lin	-10.4401
▁factory	-10.4402
▁Coll	-10.4402
▁Frederick	-10.4406
▁earliest	-10.4406
omy	-10.4406
mate	-10.4407
▁items	-10.4409
round	-10.4411
▁Rugby	-10.4412
▁Juan	-10.4413
▁Bon	-10.4414
▁Victor	-10.4416
▁northwest	-10.4416
ł	-10.4419
▁residential	-10.442
range	-10.442
▁Security	-10.4425
▁wa	-10.4428
Pro	-10.4429
▁proposal	-10.4432
MS	-10.4433
▁skills	-10.4433
▁offering	-10.4435
▁Dick	-10.4437
▁Brigade	-10.4439
aba	-10.444
▁bat	-10.4442
▁kick	-10.4442
▁Thus	-10.4445
▁Plan	-10.4445
▁doing	-10.445
▁sample	-10.4452
▁Baseball	-10.4452
▁mention	-10.4454
▁epi	-10.4454
▁load	-10.4457
▁genre	-10.4459
▁personnel	-10.4459
▁Quebec	-10.4465
▁Independent	-10.4467
▁op	-10.4467
▁Naval	-10.4468
▁Mir	-10.4468
▁Iowa	-10.4472
▁Nick	-10.4475
▁Kin	-10.4476
▁Ron	-10.4479
▁businesses	-10.4482
lov	-10.4483
ı	-10.4485
ova	-10.4494
▁agency	-10.4498
▁Prix	-10.45
tho	-10.4501
▁user	-10.4501
uz	-10.4503
▁fort	-10.4507
▁fighter	-10.4511
even	-10.4516
▁enable	-10.4517
▁Sen	-10.4522
▁Lang	-10.4522
▁coal	-10.4529
▁Reserve	-10.4531
▁Seven	-10.4537
▁manage	-10.4544
▁Youth	-10.4548
▁shell	-10.4548
▁occupation	-10.4551
▁ruled	-10.4552
▁operator	-10.4553
▁singing	-10.4554
▁wine	-10.4554
urg	-10.4556
▁bowl	-10.4558
▁brief	-10.456
cor	-10.4561
▁Burn	-10.4564
▁dates	-10.4565
anga	-10.4568
gio	-10.4572
▁musicians	-10.4574
uma	-10.4575
had	-10.4576
▁Bol	-10.4577
▁Argentina	-10.4585
▁Dublin	-10.4591
▁Houston	-10.4591
▁speaker	-10.4595
▁select	-10.4598
▁paintings	-10.4605
▁birds	-10.4606
▁Grant	-10.4609
▁license	-10.4609
▁exercise	-10.4611
Un	-10.4615
pal	-10.4619
▁hero	-10.4619
▁Lan	-10.462
▁Space	-10.462
ij	-10.462
▁provision	-10.4621
▁possibly	-10.4622
▁1915	-10.4623
▁Thi	-10.4625
inter	-10.4627
▁designer	-10.4627
▁Chairman	-10.4629
▁dress	-10.4632
adi	-10.4633
▁seventh	-10.4637
▁crowd	-10.4638
▁toward	-10.464
▁Key	-10.4643
▁stating	-10.4645
▁poverty	-10.4652
▁successor	-10.4652
▁playoff	-10.466
mac	-10.4663
▁1913	-10.4664
▁Mass	-10.4667
▁Fer	-10.467
▁Production	-10.4673
ump	-10.4675
chy	-10.4675
▁crash	-10.4686
200	-10.4688
▁Kam	-10.469
▁Fund	-10.4691
DA	-10.4697
▁Cemetery	-10.4699
▁actual	-10.4702
▁Len	-10.4705
▁desire	-10.4705
rim	-10.4706
▁rescue	-10.4706
face	-10.4707
▁transition	-10.4707
▁controlled	-10.4707
rest	-10.4714
▁starred	-10.4716
▁Family	-10.4716
zon	-10.4719
▁Adam	-10.4719
▁Gil	-10.4727
▁Commander	-10.4729
profit	-10.4732
▁sculpture	-10.4733
▁Only	-10.4733
▁Doctor	-10.4738
▁stores	-10.4738
▁causing	-10.474
▁Il	-10.4745
,500	-10.4746
▁secretary	-10.4757
▁Shu	-10.4758
▁Way	-10.4759
▁circuit	-10.476
▁solid	-10.4764
▁41	-10.4767
vat	-10.4769
▁trying	-10.477
▁notably	-10.4772
▁franchise	-10.4773
ways	-10.4774
IN	-10.4776
▁factor	-10.4782
▁Review	-10.4785
▁2003.	-10.4785
▁Test	-10.4787
▁Squadron	-10.4787
gui	-10.4788
▁arrangement	-10.479
▁chose	-10.4792
▁debuted	-10.4793
vern	-10.4794
▁Chile	-10.4794
▁Anderson	-10.4795
arian	-10.4796
▁Express	-10.4796
▁shut	-10.4796
▁membership	-10.4798
ograph	-10.4798
▁cal	-10.4798
CO	-10.4802
▁Rio	-10.4803
eth	-10.4805
qual	-10.4805
▁Barn	-10.4806
▁capture	-10.4808
▁Internet	-10.4809
AP	-10.4813
▁suggest	-10.4814
▁tropical	-10.4814
▁Dal	-10.4817
▁squadron	-10.4817
▁Alabama	-10.4821
▁Lev	-10.4825
▁grave	-10.4829
▁Classic	-10.4835
▁crown	-10.4835
▁Louisiana	-10.4836
▁tourist	-10.484
▁domain	-10.4851
▁civilian	-10.4852
▁southwest	-10.4852
▁shore	-10.4853
phe	-10.4857
met	-10.4862
▁Communist	-10.4862
▁Children	-10.4863
RI	-10.4865
cel	-10.4867
▁Hunt	-10.4868
▁Modern	-10.487
dict	-10.487
dle	-10.487
enberg	-10.4871
▁hour	-10.488
▁stands	-10.488
▁philosophy	-10.4883
▁Bru	-10.4885
▁1998,	-10.4886
▁concluded	-10.4887
▁rain	-10.4887
tty	-10.4889
ould	-10.4889
bri	-10.4894
▁Ang	-10.4894
▁mini	-10.4895
▁techniques	-10.4895
▁Representatives	-10.4895
▁Ltd	-10.4898
oni	-10.4899
▁argued	-10.4903
PS	-10.4907
new	-10.4909
iva	-10.491
kers	-10.4912
tens	-10.4913
▁Bengal	-10.4914
1.	-10.4915
▁seems	-10.4925
▁17,	-10.4926
▁)	-10.4928
▁flows	-10.4928
tail	-10.493
▁Jon	-10.4931
▁admitted	-10.4932
▁Brand	-10.4936
▁cu	-10.4939
▁Moore	-10.4939
gro	-10.4941
▁accused	-10.4941
▁values	-10.4941
▁Work	-10.4945
▁churches	-10.4946
▁spa	-10.4947
uf	-10.4947
▁typical	-10.4949
▁Administration	-10.4952
▁Railroad	-10.4952
▁Bus	-10.4956
▁calling	-10.4956
▁Web	-10.4957
▁Early	-10.4958
▁fair	-10.4959
▁Mississippi	-10.4959
▁provincial	-10.4959
▁substantial	-10.4959
▁Detroit	-10.4959
▁Gallery	-10.496
▁getting	-10.496
aff	-10.4961
▁Cle	-10.4964
Vi	-10.4966
▁39	-10.4967
related	-10.497
▁log	-10.4971
▁FA	-10.4972
▁31,	-10.4976
▁Dol	-10.4978
cell	-10.4983
augh	-10.4984
eli	-10.4986
▁Connecticut	-10.4987
gli	-10.4992
▁sat	-10.4992
▁bottom	-10.4994
▁Album	-10.5001
▁(16	-10.5002
▁Brazilian	-10.5002
▁plane	-10.5006
▁expedition	-10.5008
▁faith	-10.5009
▁stood	-10.5009
▁cy	-10.5013
style	-10.502
▁alter	-10.5021
▁Jesus	-10.5022
▁beach	-10.5026
lau	-10.5031
▁Islamic	-10.5034
50,000	-10.5035
▁require	-10.5036
level	-10.5043
▁Raj	-10.5044
▁affected	-10.5049
direct	-10.505
▁improvement	-10.5051
▁starts	-10.5053
:00	-10.5054
▁def	-10.5054
▁answer	-10.5058
▁represents	-10.506
ID	-10.5066
▁benefit	-10.5079
cious	-10.508
▁easily	-10.5085
▁faculty	-10.5085
▁medicine	-10.5085
▁mix	-10.5085
▁span	-10.5086
▁selling	-10.5091
▁Margaret	-10.5092
▁Hindu	-10.5092
▁Honor	-10.5092
▁Hawk	-10.5094
▁greatest	-10.5094
▁Base	-10.5095
sim	-10.5097
roy	-10.5097
▁restored	-10.5097
▁Baron	-10.5098
▁Metropolitan	-10.5099
vit	-10.5099
▁ranking	-10.5105
hra	-10.5106
▁unusual	-10.5108
▁Ottoman	-10.5109
▁Wy	-10.5111
▁Imperial	-10.5113
ove	-10.5113
▁Forces	-10.5113
▁landscape	-10.5114
▁treat	-10.5114
▁lay	-10.5119
▁drum	-10.5121
scribe	-10.5126
▁Oklahoma	-10.5127
▁Az	-10.5129
?"	-10.513
▁definition	-10.5134
▁Mak	-10.5136
gger	-10.5138
▁mar	-10.5139
▁Dean	-10.5141
▁Saturday	-10.5149
▁appointment	-10.515
▁passengers	-10.5151
▁Jen	-10.5152
AT	-10.5153
▁1911	-10.5155
▁images	-10.5156
ledge	-10.5158
ES	-10.516
▁Gun	-10.5161
▁Edinburgh	-10.5162
▁elevation	-10.5162
▁satellite	-10.5162
▁publisher	-10.5165
▁southeast	-10.5167
yr	-10.5168
nam	-10.5175
▁climb	-10.5176
itor	-10.5178
ulate	-10.5181
▁Hollywood	-10.5184
▁Lanka	-10.5185
▁1908	-10.5186
▁plate	-10.5187
▁proceed	-10.5189
erson	-10.5192
▁hot	-10.5195
▁Tech	-10.5196
▁Harris	-10.5196
▁Nan	-10.5197
▁merchant	-10.5198
▁committed	-10.5199
▁Alan	-10.5202
▁Rev	-10.5202
▁opinion	-10.5205
maker	-10.5207
ska	-10.5211
▁cinema	-10.5213
agon	-10.5219
▁apartment	-10.5219
leg	-10.5227
▁labor	-10.5229
▁vo	-10.523
▁por	-10.5232
▁Voivodeship	-10.5233
▁Additionally	-10.5241
▁Kil	-10.5247
▁Puerto	-10.5248
▁Austrian	-10.5249
uv	-10.5251
▁string	-10.5252
▁equivalent	-10.5255
▁credited	-10.5257
▁objects	-10.5262
ibility	-10.5263
▁Lar	-10.5267
▁Chamber	-10.5269
DS	-10.527
▁views	-10.5271
▁CEO	-10.5272
So	-10.5275
ony	-10.5276
å	-10.5276
▁fee	-10.5276
▁Peru	-10.5277
▁duties	-10.5278
▁measure	-10.5278
▁Mountains	-10.5282
ă	-10.5283
▁Heritage	-10.5283
yu	-10.5284
▁gender	-10.5285
throp	-10.5285
▁collect	-10.5289
▁shooting	-10.5291
att	-10.5295
cord	-10.5297
▁export	-10.5298
▁belief	-10.5298
▁bound	-10.5303
â	-10.5305
aj	-10.5307
▁transform	-10.5311
▁Harvard	-10.5312
▁1890	-10.5313
bed	-10.5313
▁75	-10.5319
▁variant	-10.5319
▁injured	-10.5319
Car	-10.5321
▁winners	-10.5321
▁Iraq	-10.5323
▁brain	-10.5325
▁pack	-10.5326
▁Ukraine	-10.5326
▁Antonio	-10.5328
▁Monte	-10.5329
▁worth	-10.534
▁Carr	-10.5341
pers	-10.5341
▁Gordon	-10.5342
bridge	-10.5343
▁Matthew	-10.5348
▁Karl	-10.5351
ben	-10.5355
▁driving	-10.5355
▁ways	-10.5356
▁favour	-10.5359
▁device	-10.5362
▁Kent	-10.5364
migr	-10.5366
▁assumed	-10.5368
▁notice	-10.5374
▁Report	-10.5374
▁drawn	-10.5375
boy	-10.5376
IP	-10.5383
bound	-10.5384
pul	-10.5384
▁crossing	-10.5384
▁depth	-10.5384
cap	-10.5385
▁exhibit	-10.5388
tsu	-10.5389
▁Lind	-10.5391
▁Jordan	-10.5391
ów	-10.5392
▁broken	-10.5402
▁1905	-10.5402
core	-10.5405
ural	-10.5407
acy	-10.5409
▁representation	-10.5415
▁documents	-10.5416
▁finds	-10.5418
shaped	-10.542
▁adaptation	-10.542
▁Denmark	-10.5421
▁Sara	-10.5421
▁charges	-10.5423
▁Montreal	-10.5428
▁Tea	-10.5429
gri	-10.543
▁defeating	-10.5431
eon	-10.5431
hur	-10.5433
▁Anthony	-10.5435
.”	-10.5437
▁retail	-10.5438
tract	-10.5441
▁accompanied	-10.5442
▁fixed	-10.5442
SS	-10.5447
Ta	-10.5448
▁advocate	-10.545
▁Taiwan	-10.545
▁gate	-10.5454
▁Chart	-10.5458
▁vocals	-10.5459
▁fill	-10.5463
▁popularity	-10.5465
▁Hills	-10.5468
▁Lawrence	-10.5471
ule	-10.5472
▁intention	-10.5475
▁drop	-10.5477
▁universities	-10.5479
▁Deputy	-10.5479
ense	-10.5496
RT	-10.5499
▁costs	-10.55
▁painted	-10.5504
▁separated	-10.5506
▁Sab	-10.5507
You	-10.5507
▁client	-10.5508
ats	-10.5509
▁champions	-10.551
roll	-10.5511
▁Shah	-10.5513
▁Cook	-10.5518
▁Works	-10.5519
▁ideas	-10.552
▁vary	-10.5527
▁raise	-10.5527
fall	-10.5527
▁severe	-10.5528
▁purposes	-10.5528
pol	-10.553
▁scholar	-10.553
▁Orchestra	-10.553
▁pool	-10.553
▁hip	-10.5531
its	-10.5534
▁Hand	-10.5536
▁Belgium	-10.5537
▁details	-10.5542
pass	-10.5543
▁Max	-10.5545
▁evening	-10.5546
▁Once	-10.5546
▁prime	-10.5546
ila	-10.5547
▁check	-10.5553
▁bond	-10.5553
▁Artist	-10.5558
▁Has	-10.5559
▁initiative	-10.5559
▁cable	-10.5561
pect	-10.5564
▁Bha	-10.5565
▁Place	-10.5565
take	-10.5565
▁refuge	-10.5567
▁adapted	-10.5568
All	-10.5569
▁rose	-10.5572
▁thick	-10.5575
▁causes	-10.5576
rang	-10.5578
▁Ul	-10.5579
-4	-10.5579
▁flying	-10.5581
▁retained	-10.5583
py	-10.5584
▁Palace	-10.5585
eller	-10.5586
yon	-10.5587
▁praised	-10.5595
▁Beau	-10.5596
▁uniform	-10.5596
▁criticism	-10.5607
▁Local	-10.5609
▁anniversary	-10.5611
2,	-10.5615
aver	-10.5616
boat	-10.562
▁charged	-10.562
mia	-10.5623
▁interests	-10.5623
Sp	-10.5624
load	-10.5625
▁pur	-10.5625
chin	-10.5626
▁grounds	-10.5628
▁Pass	-10.5631
▁significantly	-10.5634
▁clo	-10.564
▁translated	-10.5641
▁fund	-10.5647
▁biggest	-10.5648
▁1997,	-10.5648
▁freedom	-10.5651
–6	-10.5654
▁Johann	-10.5654
▁layer	-10.5657
▁Cli	-10.5659
▁2002.	-10.5659
▁contributions	-10.566
▁didn	-10.5661
▁involving	-10.5663
▁sin	-10.5665
▁Third	-10.5665
▁Unit	-10.5668
▁hop	-10.5669
ér	-10.5671
▁reality	-10.5674
El	-10.5675
▁Auto	-10.5678
▁discussion	-10.5678
▁publishing	-10.5678
▁fresh	-10.5678
▁mouth	-10.5685
▁Bush	-10.5688
aire	-10.5691
▁showing	-10.5692
▁couples	-10.5696
▁Battalion	-10.57
zan	-10.5702
CI	-10.5703
FA	-10.5704
▁Indonesia	-10.5705
▁truck	-10.5708
ingham	-10.5708
▁damaged	-10.571
▁tre	-10.5712
▁responsibility	-10.5715
–4	-10.5716
▁resistance	-10.5717
sar	-10.572
▁routes	-10.5721
fri	-10.5725
▁Miami	-10.5732
▁Cole	-10.5734
▁Legislative	-10.5738
▁bin	-10.5742
▁Five	-10.5743
▁graphic	-10.5743
▁delivered	-10.5744
▁roads	-10.5747
▁difference	-10.5747
▁really	-10.5748
▁comment	-10.5748
▁intelligence	-10.5753
wen	-10.5753
nis	-10.5753
▁predict	-10.5757
▁lock	-10.5758
▁stayed	-10.5762
▁Trade	-10.5762
▁AC	-10.5766
SP	-10.5766
▁sections	-10.5766
rank	-10.577
▁Mission	-10.5774
▁attached	-10.5775
▁arrival	-10.5775
circ	-10.5776
▁carrying	-10.5786
▁statue	-10.5791
▁Bow	-10.5796
▁interested	-10.5803
▁decrease	-10.5806
▁Eagle	-10.5806
▁mobile	-10.5806
▁profit	-10.5809
▁NY	-10.5811
por	-10.5812
▁Week	-10.5814
▁tele	-10.5816
lap	-10.5816
MC	-10.5819
▁lap	-10.5821
▁teachers	-10.5824
▁pitch	-10.5828
final	-10.5828
▁Lane	-10.583
pra	-10.5831
▁2000.	-10.5833
▁rap	-10.5834
▁nickname	-10.5836
tivity	-10.5838
▁1906	-10.5839
▁achieve	-10.5841
▁Market	-10.5841
from	-10.5841
▁wear	-10.5841
illo	-10.5846
▁1909	-10.5847
▁Tamil	-10.5848
▁islands	-10.585
▁Cooper	-10.585
▁endemic	-10.5851
aceae	-10.5852
▁convention	-10.5856
nell	-10.5859
▁Berg	-10.5859
▁makeup	-10.5861
▁weekly	-10.5863
▁experienced	-10.5867
▁replacement	-10.5872
▁unsuccessful	-10.5874
▁covering	-10.5874
▁Sher	-10.5874
▁1996,	-10.5875
▁twin	-10.5875
▁Helen	-10.5877
▁Mari	-10.5878
ather	-10.588
▁headed	-10.5881
▁Tele	-10.5882
morph	-10.5884
▁why	-10.5884
▁handle	-10.5886
▁guitarist	-10.5894
▁perfect	-10.5896
▁meters	-10.5898
ago	-10.5901
post	-10.5903
à	-10.5904
▁sentence	-10.5905
▁meta	-10.5908
▁writers	-10.591
FM	-10.5911
▁Cleveland	-10.5912
▁Dave	-10.5917
▁lands	-10.5919
▁prepared	-10.5922
state	-10.5923
kha	-10.5923
lad	-10.5924
▁compilation	-10.5927
MP	-10.593
▁compound	-10.5935
pel	-10.5938
▁ratio	-10.5938
bia	-10.5945
▁poem	-10.5945
▁Kir	-10.5947
▁measures	-10.5949
▁Ukrainian	-10.5958
▁1904	-10.5961
▁differ	-10.5963
rous	-10.5966
▁soundtrack	-10.5966
▁Back	-10.5969
bie	-10.5978
▁Bangladesh	-10.5981
▁landing	-10.5981
▁classified	-10.5985
▁downtown	-10.5987
▁duty	-10.5992
dition	-10.5994
▁Barb	-10.5999
▁factors	-10.5999
▁Tower	-10.6002
▁Judge	-10.6005
▁owners	-10.6006
▁parent	-10.6006
▁1907	-10.6007
▁appearing	-10.6007
▁rejected	-10.6009
2)	-10.6011
sie	-10.6014
phan	-10.6018
▁circle	-10.6019
▁minute	-10.602
▁AD	-10.6023
▁Liverpool	-10.6027
▁revenue	-10.6027
▁finance	-10.6027
phone	-10.6028
cum	-10.6034
wide	-10.6034
unk	-10.6038
▁ward	-10.604
▁continuous	-10.6042
▁grass	-10.6044
▁Bear	-10.6045
▁150	-10.6045
turn	-10.6046
vian	-10.6048
▁commemorat	-10.605
▁policies	-10.605
▁highlight	-10.605
ović	-10.6051
▁retain	-10.6051
bank	-10.6052
▁DC	-10.6056
▁submarine	-10.6058
▁burn	-10.6061
▁Atlanta	-10.6066
▁Hungarian	-10.6066
bli	-10.6068
active	-10.607
▁instrument	-10.6078
ür	-10.6078
▁procedure	-10.6081
▁fishing	-10.6084
▁naval	-10.6085
▁otherwise	-10.6096
▁collapse	-10.6097
▁amateur	-10.6097
▁Chang	-10.6098
▁element	-10.6098
▁window	-10.6103
scription	-10.6104
▁perhaps	-10.6104
▁Welsh	-10.6107
▁cho	-10.6108
▁soft	-10.6109
▁rooms	-10.6109
far	-10.611
▁trace	-10.6111
▁apply	-10.6111
▁Moon	-10.6112
▁monitor	-10.6112
▁Ever	-10.6112
▁abuse	-10.6115
▁Met	-10.6115
▁Tokyo	-10.612
▁associate	-10.6122
▁charter	-10.6123
°	-10.6125
span	-10.6129
gne	-10.6131
dam	-10.6132
▁1880	-10.6133
▁criticized	-10.6138
▁Disney	-10.6138
flu	-10.6141
▁understanding	-10.6146
fish	-10.6147
▁Colonel	-10.6151
▁arranged	-10.6153
▁Villa	-10.6155
ui	-10.6159
▁Walker	-10.6159
▁wounded	-10.6161
▁Convention	-10.6161
▁Mol	-10.6162
▁boys	-10.6164
▁sit	-10.6165
5%	-10.6169
bat	-10.6169
▁wins	-10.6173
slav	-10.6173
high	-10.6174
rell	-10.6177
▁assistance	-10.6178
▁Kennedy	-10.6182
▁Hungary	-10.6182
Wa	-10.6183
▁Morgan	-10.6186
▁Standard	-10.619
ld	-10.6191
▁51	-10.6193
▁neuro	-10.6196
▁2001.	-10.6197
▁Notable	-10.62
▁bid	-10.6202
▁Oak	-10.6204
▁annually	-10.6205
▁Iron	-10.6209
▁import	-10.6214
▁Wing	-10.6218
▁Wolf	-10.6218
▁52	-10.623
▁Portugal	-10.623
▁stretch	-10.623
▁gift	-10.623
uli	-10.623
▁mental	-10.6231
ET	-10.6233
some	-10.6235
▁Electric	-10.6238
▁deputy	-10.6238
▁Islam	-10.6241
▁Pop	-10.6246
▁43	-10.625
▁die	-10.6255
▁Race	-10.6256
anna	-10.6258
▁lift	-10.6258
▁Nar	-10.6258
▁chapel	-10.6262
▁looking	-10.6262
▁signing	-10.6274
▁demo	-10.6275
▁Spi	-10.6275
▁Fel	-10.6276
▁mechanism	-10.6277
▁Vienna	-10.6277
rov	-10.6277
▁Rhode	-10.6277
▁degrees	-10.628
▁tunnel	-10.6285
▁eat	-10.6288
▁warm	-10.629
▁Note	-10.6291
ope	-10.6291
▁Hawaii	-10.6293
▁powers	-10.6294
▁Roy	-10.6295
▁ty	-10.6296
▁Here	-10.6297
hold	-10.6299
▁fur	-10.63
▁Cathedral	-10.6301
▁bands	-10.6302
▁defence	-10.6303
▁lose	-10.6305
▁completion	-10.6305
▁designs	-10.6307
▁Michel	-10.6309
▁stopped	-10.6311
▁pla	-10.6315
▁Global	-10.6317
▁Hispanic	-10.6317
▁variable	-10.6317
▁note	-10.6325
▁thousands	-10.6326
▁aspects	-10.6328
▁Fellow	-10.6332
plane	-10.6333
▁requirements	-10.6334
▁orbit	-10.6335
▁Marie	-10.6336
zen	-10.6342
▁raid	-10.6342
sville	-10.6344
cio	-10.6346
▁depend	-10.6347
▁extremely	-10.6347
▁Colombia	-10.6349
▁earning	-10.635
ensis	-10.6351
▁carbon	-10.6352
▁Mai	-10.6353
▁achievement	-10.6353
▁grown	-10.6353
▁defensive	-10.6356
▁graduating	-10.6356
▁illegal	-10.6356
▁switch	-10.6358
▁storage	-10.6364
▁Seattle	-10.6366
▁nothing	-10.6367
▁Gate	-10.637
cular	-10.6375
▁skin	-10.6375
ache	-10.6376
▁learned	-10.6377
▁protected	-10.6377
▁identify	-10.6381
▁el	-10.6384
▁diver	-10.6386
▁Dia	-10.6389
▁manner	-10.6389
▁Sport	-10.639
Par	-10.64
▁listen	-10.64
▁Hans	-10.6401
▁Know	-10.6403
▁dynasty	-10.6404
▁Thor	-10.6405
▁Agency	-10.6405
▁Vin	-10.6407
▁instruction	-10.6412
▁requires	-10.6415
lington	-10.6417
aria	-10.6419
▁Athletic	-10.6419
▁witness	-10.6421
▁justice	-10.6422
▁peaked	-10.6427
fire	-10.6428
▁manuscript	-10.6429
▁prince	-10.643
▁elder	-10.6432
▁1901	-10.6433
fl	-10.6433
▁Gulf	-10.6435
ancy	-10.6436
▁Your	-10.6436
▁ABC	-10.6437
▁output	-10.6438
▁Finland	-10.6441
▁Ry	-10.6442
General	-10.6443
▁electoral	-10.6445
▁arrest	-10.6445
▁tennis	-10.6447
▁Crown	-10.6447
▁47	-10.6448
▁Les	-10.645
▁legislation	-10.6453
▁memorial	-10.6453
▁declined	-10.6456
▁devices	-10.6457
TS	-10.6459
▁Rights	-10.6459
▁variation	-10.6461
▁Alfred	-10.6461
▁flowers	-10.6462
lane	-10.6474
▁Upper	-10.6476
HS	-10.6476
▁assault	-10.6478
ç	-10.6484
▁Zi	-10.6484
▁mining	-10.6491
▁Round	-10.6492
liga	-10.6495
▁coastal	-10.6496
▁stem	-10.6497
▁fired	-10.6498
▁fly	-10.6502
▁Chu	-10.6504
▁deposit	-10.6507
▁Gla	-10.6512
very	-10.6513
▁qualifying	-10.6515
▁Bir	-10.6515
yne	-10.6515
▁Leon	-10.6517
ket	-10.6517
▁chamber	-10.6517
▁Ryan	-10.6519
▁Gui	-10.6521
lid	-10.6522
▁goods	-10.6524
▁mod	-10.6524
▁wooden	-10.6525
▁coverage	-10.6527
Te	-10.6529
▁underground	-10.6531
▁instruments	-10.6538
fre	-10.654
▁technique	-10.6544
▁examples	-10.6547
▁passage	-10.655
▁huge	-10.6555
▁Dance	-10.6556
▁visitors	-10.6556
▁soccer	-10.6558
▁ticket	-10.6558
▁capable	-10.6558
▁Kha	-10.6558
▁Rick	-10.6564
а	-10.6566
▁den	-10.6566
▁formally	-10.6567
▁ownership	-10.6569
▁Est	-10.657
ote	-10.657
▁Kelly	-10.6574
mill	-10.6577
▁arrive	-10.6579
▁Cher	-10.6582
▁celebrated	-10.6584
such	-10.6586
▁Wind	-10.6588
▁dating	-10.659
▁concrete	-10.6591
▁medieval	-10.6591
▁description	-10.6591
Bu	-10.6597
vig	-10.6597
▁José	-10.6599
▁Bun	-10.6602
▁Adams	-10.6605
▁x	-10.6606
▁spirit	-10.6606
▁competing	-10.6607
▁weekend	-10.6611
mour	-10.6614
▁humans	-10.6615
▁athletic	-10.6615
▁institute	-10.6615
▁offensive	-10.6615
▁portrait	-10.6615
▁Alliance	-10.6615
▁cousin	-10.6615
▁Victorian	-10.6616
▁kilo	-10.6616
▁windows	-10.662
▁concentration	-10.6623
▁heritage	-10.6623
▁Wo	-10.6626
signed	-10.6629
▁spiritual	-10.6632
GA	-10.6638
▁AM	-10.6639
My	-10.664
▁Lou	-10.6642
rock	-10.6643
▁ahead	-10.6643
▁vessel	-10.6646
PC	-10.6651
▁1995,	-10.6652
▁fit	-10.6657
▁sort	-10.6666
▁audio	-10.6668
▁tries	-10.6676
▁snow	-10.6678
▁hat	-10.668
▁caught	-10.6681
▁forests	-10.6684
▁Ward	-10.6687
▁hydro	-10.6692
▁ends	-10.6693
▁Singh	-10.6696
▁Thompson	-10.6697
▁journey	-10.6697
▁Campbell	-10.6698
▁subjects	-10.6702
▁parliament	-10.6703
wel	-10.6705
ffer	-10.6705
▁filed	-10.6708
▁decline	-10.671
▁influential	-10.6714
▁roughly	-10.6714
▁streets	-10.6715
▁Peace	-10.6717
▁ste	-10.6717
▁linked	-10.6721
▁Ob	-10.6721
enburg	-10.6724
NC	-10.6727
▁deliver	-10.6727
▁suggests	-10.673
▁vision	-10.6734
▁crop	-10.6735
▁Through	-10.6737
▁Challenge	-10.6739
▁Jeff	-10.674
▁stress	-10.674
▁Swa	-10.6742
▁persons	-10.6745
▁balance	-10.6748
plan	-10.6749
▁ride	-10.6754
▁publications	-10.6755
▁choose	-10.6756
▁Lower	-10.6758
▁1902	-10.6759
▁discuss	-10.6766
▁Tam	-10.6767
▁Bruce	-10.6768
▁Studios	-10.6768
ifying	-10.6773
▁Bernard	-10.6775
▁46	-10.6776
▁objective	-10.6777
▁rebel	-10.6779
▁Nova	-10.6781
▁Authority	-10.6782
▁classification	-10.6784
▁beetle	-10.6789
▁assembly	-10.6797
▁net	-10.6798
▁agree	-10.6799
▁destroy	-10.6804
▁manufacturing	-10.6805
▁tackle	-10.6805
▁Pap	-10.6808
▁leads	-10.6811
▁existed	-10.6811
▁approval	-10.6814
▁crisis	-10.6814
▁patent	-10.6815
stall	-10.6817
▁Gill	-10.682
▁march	-10.6824
▁Py	-10.6826
▁Cardinal	-10.683
▁Neu	-10.6831
▁bri	-10.6832
ipp	-10.6833
▁Bou	-10.6837
atus	-10.6837
code	-10.6838
western	-10.6838
▁Franklin	-10.6844
▁plus	-10.6844
sson	-10.6846
▁rent	-10.6847
ô	-10.6847
▁colonial	-10.6848
▁(4	-10.685
osa	-10.6851
▁Rh	-10.6852
▁disappear	-10.6855
▁Energy	-10.6855
▁reputation	-10.6855
▁Die	-10.6856
▁Roll	-10.6856
▁Dream	-10.6856
▁Capital	-10.6864
▁Drive	-10.6867
▁1903	-10.6867
▁components	-10.6871
ode	-10.6871
▁|	-10.6871
▁Pad	-10.6875
▁Hell	-10.6879
rri	-10.688
elected	-10.688
▁Originally	-10.6882
▁Low	-10.6883
▁missing	-10.6884
game	-10.6887
▁Fra	-10.6889
▁survive	-10.6894
mul	-10.6896
urge	-10.6897
▁1870	-10.6898
rug	-10.6899
▁craft	-10.6902
▁scholars	-10.6904
▁novels	-10.6914
▁Kevin	-10.6918
▁cold	-10.6923
▁Steel	-10.6928
▁Every	-10.6929
▁vocal	-10.693
▁(15	-10.6931
▁artistic	-10.6932
▁App	-10.6932
▁boundary	-10.6934
▁Champion	-10.6939
▁Nelson	-10.694
▁possess	-10.6944
|	-10.6945
▁Labor	-10.6946
▁55	-10.6948
▁unlike	-10.695
quest	-10.695
▁Pala	-10.6952
▁replacing	-10.6956
▁entertainment	-10.6959
SE	-10.6959
HL	-10.6963
▁terminal	-10.6965
▁hosts	-10.6968
▁pain	-10.6972
▁controversial	-10.6973
rig	-10.6977
▁Brad	-10.6982
▁descendant	-10.6983
mouth	-10.6983
Pe	-10.6986
SI	-10.6987
▁patrol	-10.699
▁Call	-10.6994
mobil	-10.6997
En	-10.6998
tron	-10.7001
▁shift	-10.7002
▁debt	-10.7002
▁processes	-10.7002
▁angle	-10.7003
card	-10.7007
▁substitute	-10.7007
azi	-10.7009
▁concerns	-10.7014
▁Donald	-10.7016
▁gang	-10.702
▁Wright	-10.7021
ending	-10.7021
test	-10.7022
5,	-10.7025
▁branches	-10.7032
▁Russell	-10.7033
▁error	-10.7033
▁medals	-10.7035
▁Maha	-10.7035
▁interaction	-10.7036
ssel	-10.7036
▁Orleans	-10.7042
▁consumer	-10.7042
▁Boys	-10.7045
▁+	-10.7046
▁Orthodox	-10.705
▁entering	-10.7052
▁observation	-10.7059
▁elect	-10.7059
▁Stock	-10.7064
ush	-10.7065
▁suspect	-10.7067
▁hits	-10.707
RS	-10.7079
▁consistent	-10.7087
▁How	-10.7097
▁expect	-10.7098
▁eliminat	-10.7099
onia	-10.71
▁bringing	-10.71
ois	-10.71
▁testing	-10.7101
▁Ant	-10.7105
▁filled	-10.7106
▁Range	-10.7106
▁Austin	-10.7106
cid	-10.7109
▁1999.	-10.711
▁Associate	-10.711
▁Fleet	-10.711
arrow	-10.7113
▁surrounded	-10.7114
ii	-10.7116
▁Baltimore	-10.7119
▁orders	-10.712
▁Leader	-10.7123
▁householder	-10.7124
OC	-10.7125
▁Rich	-10.7125
▁helping	-10.7126
▁competitive	-10.7127
later	-10.7129
▁cup	-10.7129
▁flower	-10.7131
mag	-10.7132
cott	-10.7134
▁Baker	-10.7134
α	-10.7136
▁surviving	-10.7136
▁PC	-10.7136
iga	-10.7139
wich	-10.7143
▁Organization	-10.7145
how	-10.7147
▁Information	-10.7153
▁Unlike	-10.7155
▁Thailand	-10.7155
▁payment	-10.7163
▁whi	-10.7172
West	-10.7178
▁frequency	-10.7179
▁missile	-10.7179
▁Jose	-10.7181
▁Champions	-10.7182
▁Row	-10.7183
▁cook	-10.7184
ë	-10.7188
▁Then	-10.7188
▁tape	-10.7195
▁Kid	-10.7197
▁1898	-10.7198
▁McK	-10.7199
▁Morris	-10.7202
▁differences	-10.7213
▁tube	-10.7214
▁edited	-10.7214
life	-10.7215
▁charts	-10.7216
any	-10.7221
▁rush	-10.7223
▁forming	-10.7225
fit	-10.7226
▁donated	-10.7228
▁depending	-10.7231
rite	-10.7234
▁SR	-10.7234
▁studying	-10.7242
▁vessels	-10.7243
hawk	-10.725
▁bay	-10.7252
▁Anton	-10.7257
▁Pittsburgh	-10.7257
▁veteran	-10.7257
▁victims	-10.7258
jun	-10.7262
▁duo	-10.7263
▁Birmingham	-10.7266
▁Meanwhile	-10.7266
▁versus	-10.7267
▁god	-10.727
Mon	-10.7274
▁equation	-10.7275
▁venture	-10.7279
host	-10.7281
▁prop	-10.7285
▁actors	-10.7285
▁equipped	-10.7292
ception	-10.7293
▁childhood	-10.7294
▁prisoners	-10.7301
▁scholarship	-10.7303
▁enjoy	-10.7305
▁bird	-10.7305
6,	-10.7306
▁schedule	-10.7308
▁Milan	-10.7308
▁supposed	-10.731
▁Reform	-10.7311
▁distinguished	-10.7311
▁Stanley	-10.7315
wise	-10.7317
▁Baptist	-10.7319
fort	-10.7322
▁daughters	-10.7327
▁physician	-10.7328
▁architectural	-10.7328
▁struck	-10.7329
▁rates	-10.7332
uka	-10.7335
▁advertising	-10.7336
Ka	-10.7338
▁Gran	-10.7339
▁thirty	-10.7345
▁investigate	-10.7345
née	-10.7346
amo	-10.7347
▁intersection	-10.735
▁developer	-10.7351
▁Sy	-10.7352
▁Kara	-10.7352
▁kingdom	-10.7355
▁teach	-10.7359
▁electro	-10.7362
▁modified	-10.7364
▁fictional	-10.7364
▁filmed	-10.7366
rah	-10.7366
rill	-10.7368
TP	-10.7369
▁regime	-10.7371
▁Marshall	-10.7373
▁youngest	-10.7375
▁Arkansas	-10.738
▁acclaim	-10.7381
▁Dallas	-10.7381
▁construct	-10.7384
4,	-10.7385
trop	-10.7388
▁Sarah	-10.7389
▁battalion	-10.7389
▁Audi	-10.7389
▁changing	-10.7389
▁evolution	-10.7391
▁plain	-10.7395
▁drew	-10.7398
▁lasted	-10.74
▁earth	-10.7404
▁Utah	-10.7407
▁Broadway	-10.7407
▁airline	-10.7413
▁possession	-10.742
▁interpret	-10.7421
RO	-10.7421
tam	-10.7423
▁Theater	-10.7424
▁contested	-10.7424
▁cited	-10.7425
ridge	-10.7427
▁increasingly	-10.7428
▁dated	-10.7429
▁considerable	-10.7431
▁lecture	-10.7433
▁argument	-10.7434
▁visible	-10.7434
▁lit	-10.7437
▁counties	-10.7438
▁eighth	-10.744
▁moral	-10.7442
Or	-10.7442
hou	-10.7442
▁alleged	-10.7451
▁Jam	-10.7451
scale	-10.7455
▁affairs	-10.7457
▁preparation	-10.746
fully	-10.7462
▁advise	-10.7463
▁parliamentary	-10.7463
▁sto	-10.7465
▁Who	-10.7465
▁sufficient	-10.7469
▁patron	-10.747
▁stages	-10.7474
▁legend	-10.7478
Fi	-10.7479
▁cool	-10.7479
▁Care	-10.7483
▁Tel	-10.7489
▁banks	-10.7493
▁strategy	-10.7496
▁residing	-10.7496
▁portrayed	-10.7498
stream	-10.7498
▁Horn	-10.7498
astic	-10.7502
▁Historical	-10.7504
▁attorney	-10.7505
▁Defense	-10.7505
▁transmission	-10.7506
▁Latino	-10.7509
▁touch	-10.7511
▁Carter	-10.7512
▁Charlotte	-10.7514
▁frequent	-10.7522
▁participation	-10.7523
▁Greg	-10.7524
▁turns	-10.7528
ML	-10.753
person	-10.7532
▁Draft	-10.7532
logical	-10.7534
pher	-10.7536
eur	-10.7536
Au	-10.7536
▁Season	-10.7538
feld	-10.754
▁departure	-10.7541
▁junction	-10.7541
▁enhance	-10.7541
tral	-10.7542
cock	-10.7542
▁golf	-10.7543
▁falls	-10.7544
9,	-10.7547
▁Gall	-10.755
tech	-10.7551
▁Egyptian	-10.7558
▁Hampshire	-10.7559
▁threatened	-10.7559
look	-10.7563
motion	-10.7574
stead	-10.7576
emi	-10.7577
▁Along	-10.7577
▁prove	-10.758
▁DNA	-10.758
▁Yorkshire	-10.7581
▁Syn	-10.7583
▁pet	-10.7583
hon	-10.7583
ault	-10.7585
▁whilst	-10.7586
▁magic	-10.7589
▁secure	-10.7593
▁temporary	-10.7595
▁relief	-10.7595
▁Emil	-10.7595
mini	-10.7604
▁indicated	-10.7606
▁Hon	-10.7609
▁Cru	-10.761
▁adding	-10.7611
owned	-10.7612
▁corporate	-10.7613
▁involvement	-10.7615
▁rot	-10.7615
ncies	-10.7617
▁Der	-10.7621
issa	-10.7622
▁Kenya	-10.7627
▁Glasgow	-10.7631
▁alcohol	-10.7631
▁Las	-10.7633
▁Singles	-10.7633
▁1992,	-10.7639
▁resolution	-10.764
▁Bachelor	-10.764
▁happen	-10.7646
ground	-10.7647
▁ideal	-10.7648
▁Belgian	-10.7649
▁Dur	-10.7653
▁acted	-10.7658
▁shares	-10.7658
▁carrier	-10.7659
▁competitions	-10.766
other	-10.766
▁nations	-10.7661
▁rapid	-10.7663
▁Fan	-10.7664
▁Shaw	-10.7665
▁pin	-10.7666
▁cards	-10.7667
▁Stewart	-10.7667
▁spoke	-10.7669
This	-10.7673
▁Vancouver	-10.7676
▁Corn	-10.7677
▁premiere	-10.7678
▁bed	-10.7679
quin	-10.768
▁É	-10.7683
hour	-10.7684
▁recruit	-10.7691
ured	-10.7697
spec	-10.7699
vari	-10.7702
▁somewhat	-10.7704
▁wet	-10.7705
▁lease	-10.7707
real	-10.7712
▁FIFA	-10.7713
▁Venezuela	-10.7713
▁suicide	-10.7713
▁valid	-10.7714
▁PA	-10.7718
▁tools	-10.772
▁emergency	-10.7722
▁Phillip	-10.7723
▁Within	-10.7723
▁mathematics	-10.7731
▁hole	-10.7734
length	-10.7736
ME	-10.7737
OR	-10.7738
▁instrumental	-10.7739
▁fifteen	-10.774
▁upgrade	-10.7747
▁attracted	-10.7749
-10	-10.7751
nov	-10.7751
▁coat	-10.7752
▁jurisdiction	-10.7759
▁Limited	-10.7759
▁Just	-10.776
IM	-10.7763
▁printed	-10.7763
lish	-10.7764
read	-10.7764
▁diameter	-10.7768
▁Evans	-10.7769
▁creative	-10.7769
▁Flor	-10.7771
▁hearing	-10.7771
vention	-10.7773
horn	-10.7774
then	-10.7776
▁demolished	-10.7777
▁Admiral	-10.7777
▁worship	-10.7777
▁Penn	-10.7783
▁53	-10.7785
▁occasions	-10.7786
▁Guinea	-10.7787
▁uncle	-10.7787
▁Robinson	-10.7789
piece	-10.7791
▁genetic	-10.7791
▁accomplish	-10.7795
▁agriculture	-10.7795
▁adventure	-10.7796
▁Trophy	-10.7796
▁occasionally	-10.7797
▁Pin	-10.7798
▁Defence	-10.7806
▁Delhi	-10.7809
▁Fall	-10.781
▁recordings	-10.781
▁Romania	-10.7812
called	-10.7812
▁Sid	-10.7816
hom	-10.7821
▁trust	-10.7822
▁external	-10.7823
kel	-10.7827
▁Zu	-10.7829
▁Basketball	-10.7832
▁hang	-10.7833
▁cabinet	-10.7835
cene	-10.7841
▁Friend	-10.7843
thal	-10.7843
Ex	-10.7845
bow	-10.7847
ED	-10.7848
▁dialect	-10.7851
▁appropriate	-10.7851
▁denied	-10.7851
pop	-10.7854
▁curve	-10.7855
▁strongly	-10.7856
lation	-10.7859
▁widow	-10.786
▁recommended	-10.7864
▁Div	-10.7865
▁Pont	-10.7866
▁divisions	-10.7869
▁Medicine	-10.7869
▁Brooklyn	-10.7869
▁none	-10.7873
▁1998.	-10.7878
▁widespread	-10.7879
▁Canal	-10.7881
▁Dec	-10.7883
▁Beck	-10.7884
uous	-10.7885
▁Apple	-10.7885
▁installation	-10.7888
▁Cricket	-10.7889
▁Derby	-10.789
▁concern	-10.7894
Pri	-10.7895
▁cm	-10.7898
▁Jimmy	-10.7899
8,	-10.79
▁Brothers	-10.7904
MI	-10.7906
▁1993,	-10.7906
▁utiliz	-10.7907
▁Trail	-10.7911
▁Richmond	-10.7916
▁Madrid	-10.7917
alis	-10.792
▁prohibit	-10.792
▁tenure	-10.7922
▁ruler	-10.7922
▁Orange	-10.7924
▁essay	-10.7925
▁longest	-10.7927
▁Uni	-10.7931
▁Windows	-10.7935
ante	-10.7935
▁relation	-10.7937
▁workshop	-10.7937
▁Hen	-10.7945
SL	-10.7945
▁1860	-10.7946
▁Sto	-10.7946
▁Rain	-10.7948
▁Bible	-10.7948
▁tied	-10.7949
▁Finnish	-10.7953
▁liberal	-10.7954
pple	-10.7955
flow	-10.7957
▁visiting	-10.7957
▁mountains	-10.7958
iana	-10.796
▁erected	-10.7961
▁continent	-10.7962
▁Romanized	-10.7964
▁dramatic	-10.7971
▁lieutenant	-10.7972
▁disorder	-10.7974
▁quo	-10.7975
▁Commissioner	-10.7976
equen	-10.7979
▁dream	-10.7981
▁bone	-10.7984
#	-10.7986
▁Mrs	-10.7987
▁Jun	-10.799
▁Christopher	-10.8
▁Armenian	-10.8002
▁NA	-10.8003
oci	-10.8003
▁infrastructure	-10.801
▁Math	-10.801
▁gets	-10.801
▁eliminated	-10.8016
▁Hil	-10.8016
én	-10.8016
friend	-10.8017
▁exists	-10.8018
ş	-10.8019
roid	-10.8019
▁Whi	-10.8022
lash	-10.8027
▁yield	-10.8028
▁Wol	-10.803
▁Code	-10.803
▁Guy	-10.8031
▁1899	-10.8031
▁remainder	-10.8035
tine	-10.8035
▁courts	-10.8041
▁tribe	-10.8041
▁experiences	-10.8043
CD	-10.8043
▁verse	-10.8043
▁Hunter	-10.8045
▁Child	-10.8045
ophi	-10.8047
▁Blu	-10.8048
▁markets	-10.8051
▁sing	-10.8052
▁injuries	-10.8057
▁Graham	-10.8063
▁Training	-10.8066
▁practices	-10.8068
On	-10.8069
▁Princess	-10.807
▁collections	-10.807
▁noble	-10.8072
▁percentage	-10.8074
▁massive	-10.8075
▁MA	-10.8076
▁reporter	-10.8077
▁toured	-10.8078
assi	-10.8081
▁UEFA	-10.8085
▁collective	-10.8089
▁cri	-10.8091
ña	-10.8097
▁eyes	-10.8099
▁Maine	-10.8102
▁convert	-10.8109
▁Zone	-10.811
▁NBA	-10.8113
▁describe	-10.8114
▁normally	-10.8118
▁defending	-10.8118
▁proportion	-10.8123
PI	-10.8131
▁whereas	-10.8132
▁trading	-10.8136
▁salt	-10.814
▁Turk	-10.8142
▁destination	-10.8142
SU	-10.8148
▁descent	-10.8155
ör	-10.8157
last	-10.8157
▁Greater	-10.8167
▁NBC	-10.817
▁Natural	-10.8171
coming	-10.8175
▁ruling	-10.8178
-0	-10.8179
▁Rico	-10.818
▁pursue	-10.8181
ão	-10.8181
▁portray	-10.8181
PR	-10.8186
–16	-10.8187
▁Grade	-10.819
▁slope	-10.819
▁losses	-10.819
▁$4	-10.8195
▁spoken	-10.8197
Sha	-10.8198
▁magn	-10.8198
▁pot	-10.8199
▁assets	-10.82
nate	-10.8204
fur	-10.8205
▁coordinate	-10.8209
▁resident	-10.821
▁Murray	-10.8211
▁controversy	-10.8219
▁estimate	-10.8225
▁useful	-10.8227
▁predecessor	-10.8228
▁1991,	-10.823
▁CA	-10.823
▁Dev	-10.823
▁suffering	-10.823
media	-10.8231
▁agencies	-10.8232
▁rifle	-10.8238
▁extinct	-10.8239
▁Model	-10.8239
gil	-10.8239
▁What	-10.8241
▁voting	-10.8241
▁reverse	-10.8242
▁strict	-10.8245
▁Track	-10.8246
▁conservative	-10.8248
rama	-10.8248
▁contribution	-10.8253
tiv	-10.8264
▁executed	-10.8264
▁reduction	-10.8267
):	-10.8267
о	-10.8267
▁surrender	-10.8267
▁advisor	-10.8267
]]	-10.8273
▁Girl	-10.8273
ref	-10.8276
▁Petr	-10.828
Su	-10.828
▁questions	-10.8286
shore	-10.8286
▁minimum	-10.8286
main	-10.829
▁retreat	-10.8297
▁copy	-10.83
▁transportation	-10.8302
▁traveled	-10.8305
▁greatly	-10.8306
▁Movement	-10.8306
▁palace	-10.8306
▁sight	-10.8307
▁Dark	-10.8308
▁municipalities	-10.8308
▁$5	-10.8314
▁Until	-10.8317
▁posted	-10.832
▁ser	-10.832
▁Branch	-10.8321
▁characteristics	-10.8321
▁stable	-10.8321
▁treated	-10.8326
ennial	-10.8326
▁54	-10.8326
▁conclusion	-10.8328
died	-10.8332
▁Rosa	-10.8334
▁Around	-10.8334
▁Beijing	-10.8335
▁(5	-10.8335
Saxon	-10.8337
mates	-10.8339
▁defender	-10.834
nut	-10.8344
▁trouble	-10.8345
▁immediate	-10.8345
▁1897	-10.8346
▁Portland	-10.8347
pm	-10.8352
▁consequence	-10.8354
operative	-10.8355
hall	-10.8357
vic	-10.8357
▁explained	-10.8363
▁Mitchell	-10.8364
▁practical	-10.8364
▁suspended	-10.8364
II	-10.8365
▁1896	-10.8367
clo	-10.8368
▁consist	-10.837
▁Fur	-10.8371
▁constitute	-10.8374
▁phrase	-10.8374
▁solve	-10.8375
hm	-10.8376
kka	-10.8377
iano	-10.8381
▁apart	-10.8382
▁opportunities	-10.8384
▁broadcasting	-10.8386
▁Nigeria	-10.8386
▁VI	-10.8388
EA	-10.8389
▁Mediterranean	-10.8393
▁sleep	-10.8393
▁championships	-10.8394
▁Mand	-10.8394
▁argue	-10.8395
▁Rub	-10.8395
CR	-10.8395
▁CBS	-10.8397
▁1895	-10.8398
3,	-10.8399
▁Dy	-10.84
▁marry	-10.84
▁maintenance	-10.8403
▁wedding	-10.8404
▁employment	-10.8407
making	-10.8408
▁rebuilt	-10.8409
▁tell	-10.8412
▁thousand	-10.8412
▁implementation	-10.8412
▁Azerbaijan	-10.8413
▁surgery	-10.8413
▁papers	-10.8414
▁preserved	-10.8417
▁earn	-10.8421
▁exceed	-10.8423
▁1996.	-10.8425
▁NHL	-10.843
▁participants	-10.8435
ía	-10.8435
▁Side	-10.8442
uda	-10.8446
▁Bud	-10.8448
▁Tak	-10.8449
-12	-10.8449
▁unincorporated	-10.8452
▁restoration	-10.8452
▁easy	-10.8452
▁cave	-10.8452
▁•	-10.8454
▁bell	-10.8455
▁Nepal	-10.8455
▁happened	-10.8456
▁publish	-10.8458
gress	-10.8462
▁Mann	-10.8464
▁Friday	-10.8464
▁commanded	-10.8465
▁Bour	-10.8466
▁Blo	-10.847
▁operational	-10.8476
▁affiliated	-10.8476
▁skill	-10.8478
▁1997.	-10.8478
▁continuing	-10.8482
▁alternate	-10.8482
▁fled	-10.8484
▁66	-10.8485
▁Carlos	-10.8489
▁aimed	-10.849
▁component	-10.8493
▁electrical	-10.8495
▁DJ	-10.85
▁Que	-10.8501
posed	-10.8501
▁categories	-10.8502
▁recipient	-10.8502
▁snail	-10.8502
▁Falls	-10.8503
▁Lamb	-10.8509
mme	-10.8513
▁borough	-10.8515
▁mat	-10.8516
▁Fine	-10.8517
▁SS	-10.8518
▁marketing	-10.8522
▁drafted	-10.8525
word	-10.8526
▁newspapers	-10.8527
cco	-10.8528
▁liquid	-10.8531
▁accounts	-10.8532
▁encourage	-10.8532
SR	-10.8532
imp	-10.8534
▁sponsored	-10.8534
▁Girls	-10.8537
▁bright	-10.8537
▁sentenced	-10.8539
▁experimental	-10.8543
▁funded	-10.8546
-5	-10.8549
▁holiday	-10.8551
▁Construction	-10.8552
anti	-10.8553
▁reportedly	-10.8554
made	-10.8555
▁pit	-10.8557
▁Cou	-10.8558
▁merger	-10.8559
▁spending	-10.856
▁absence	-10.8561
▁1989,	-10.8562
▁characterized	-10.8563
▁businessman	-10.8565
▁1995.	-10.8569
▁charity	-10.8571
▁animated	-10.8571
▁hundreds	-10.8573
▁Dragon	-10.8573
▁Kon	-10.8574
▁desert	-10.8574
▁Instead	-10.8575
▁Shortly	-10.8578
▁Soccer	-10.8581
▁download	-10.8584
Har	-10.8584
dem	-10.8588
▁Bart	-10.8595
▁Grey	-10.8598
▁concerned	-10.8604
▁Henri	-10.8607
▁Transport	-10.8608
dé	-10.8608
▁abroad	-10.8611
▁leaf	-10.8613
▁meets	-10.8616
▁hunt	-10.8617
▁tea	-10.8617
▁Brun	-10.862
▁Peninsula	-10.8621
▁surprise	-10.8621
▁ceased	-10.8623
TE	-10.8624
▁Nord	-10.8626
RE	-10.8628
▁attending	-10.863
▁qualification	-10.8631
▁Trinity	-10.8631
ody	-10.8632
▁returns	-10.8638
hoe	-10.8639
▁enzyme	-10.8641
DC	-10.8641
▁authors	-10.8641
▁Athletics	-10.8643
▁1893	-10.8643
▁Fal	-10.8646
_2	-10.8648
▁Alaska	-10.8651
▁afterwards	-10.8653
ao	-10.8659
▁Coach	-10.8661
▁extreme	-10.8662
▁licensed	-10.8664
▁confront	-10.8664
▁Soon	-10.8666
▁define	-10.8668
▁Common	-10.867
▁customers	-10.867
▁drummer	-10.8673
rog	-10.8674
▁grey	-10.8674
▁extent	-10.8678
▁thing	-10.868
▁Treaty	-10.8681
▁Arena	-10.8681
corp	-10.8683
▁innings	-10.8686
▁Tha	-10.8686
asi	-10.8687
▁Sai	-10.8687
▁Benjamin	-10.8691
▁Communications	-10.8699
▁Gray	-10.8704
force	-10.8707
▁celebration	-10.8711
▁verb	-10.8712
▁Gary	-10.8712
▁supporters	-10.8714
▁Block	-10.8715
onne	-10.8715
AL	-10.8716
amma	-10.8722
▁discovery	-10.8726
▁dimension	-10.873
dding	-10.873
▁dominated	-10.8731
▁Broadcasting	-10.8732
▁false	-10.8732
▁Ivan	-10.8734
▁1889	-10.8736
nica	-10.8739
▁Af	-10.8741
▁Bristol	-10.8742
6.	-10.8743
▁Story	-10.8744
▁Food	-10.8747
▁Socialist	-10.8749
valu	-10.8749
▁encouraged	-10.8751
▁beautiful	-10.8752
▁penalty	-10.8752
▁Culture	-10.8752
▁roots	-10.8757
▁Section	-10.8763
▁Rangers	-10.8765
▁Barry	-10.8767
▁viewed	-10.8768
▁acquisition	-10.8772
▁Males	-10.8772
▁Scout	-10.8775
▁ocean	-10.8782
▁colleague	-10.8782
▁grandfather	-10.8782
▁understand	-10.8784
owski	-10.8786
omi	-10.8789
×	-10.8792
▁concerts	-10.8793
▁emerged	-10.8797
▁56	-10.8798
vie	-10.8798
erie	-10.8799
▁insurance	-10.8803
▁Students	-10.8804
▁volumes	-10.8807
▁implement	-10.8815
brook	-10.8822
▁Costa	-10.8824
▁Parish	-10.8825
▁Kor	-10.8827
▁Plant	-10.8828
▁Serbia	-10.8828
aro	-10.8828
▁belonging	-10.8829
▁permit	-10.8831
▁employ	-10.8833
posi	-10.8834
▁Persian	-10.8835
▁Romanian	-10.8838
▁apparently	-10.8839
▁jobs	-10.8843
▁Hur	-10.8843
▁subsidiary	-10.8843
▁attract	-10.8844
▁Shin	-10.8845
hem	-10.8848
▁57	-10.8852
disambiguation	-10.8854
▁Merc	-10.8855
smith	-10.8855
▁Syria	-10.8855
▁effectively	-10.8856
sight	-10.8856
▁Ship	-10.8857
▁58	-10.886
▁rider	-10.8863
▁missions	-10.8866
▁enjoyed	-10.887
ivity	-10.8873
families	-10.8874
té	-10.8877
▁Off	-10.8877
▁detailed	-10.8878
idi	-10.8881
▁Ice	-10.8888
iko	-10.8893
▁Lock	-10.8894
▁gradually	-10.8895
▁inaugural	-10.8895
▁Comm	-10.8897
▁Jar	-10.8897
▁Box	-10.8897
CE	-10.8897
▁Nation	-10.8904
▁Afghanistan	-10.8905
▁Muhammad	-10.8905
▁Parker	-10.891
-6	-10.8913
itarian	-10.8915
ž	-10.8915
▁loyal	-10.8916
▁particle	-10.8916
duction	-10.8917
akh	-10.8918
group	-10.892
▁voters	-10.8922
▁cult	-10.8924
3,000	-10.8924
member	-10.8924
▁Din	-10.8925
▁gear	-10.8928
eastern	-10.8928
▁Andy	-10.893
▁benefits	-10.8934
▁Kirk	-10.8936
▁gone	-10.8941
▁dual	-10.8941
lac	-10.8942
ün	-10.8944
▁Language	-10.8946
▁terminus	-10.8946
ashi	-10.8946
▁begun	-10.8947
▁Urban	-10.8947
fr	-10.8949
▁Aero	-10.8953
Mu	-10.8955
▁colony	-10.8956
hoo	-10.8956
▁conservation	-10.8957
▁wicket	-10.8957
phon	-10.8958
▁Rid	-10.8958
than	-10.8959
▁athletes	-10.896
▁clan	-10.8961
▁everything	-10.8967
▁Plu	-10.8968
▁[[	-10.8968
▁infantry	-10.897
▁writes	-10.897
▁fold	-10.8973
▁strategic	-10.8977
▁designation	-10.8978
aged	-10.8979
▁Having	-10.8981
▁Warner	-10.8982
▁researchers	-10.8984
▁Gau	-10.8985
▁integrated	-10.8986
▁friendly	-10.8987
▁wrong	-10.8988
▁Horse	-10.8989
▁respond	-10.8989
▁1892	-10.8989
▁competitor	-10.8998
▁supplies	-10.8998
▁shelter	-10.8998
▁illness	-10.9002
▁Last	-10.9004
▁alliance	-10.9009
▁nurse	-10.9009
▁1885	-10.9011
▁Springs	-10.9014
▁meetings	-10.9017
▁Jerusalem	-10.9019
▁Johnny	-10.9019
▁movies	-10.9019
hel	-10.9019
mount	-10.9024
tum	-10.9027
ching	-10.9029
▁honorary	-10.9029
▁succeed	-10.9031
▁1894	-10.9034
▁package	-10.9038
▁traded	-10.9039
▁corporation	-10.904
▁organised	-10.9042
▁touring	-10.9044
▁horses	-10.9045
▁soul	-10.9048
▁Warren	-10.9049
▁Much	-10.9049
▁#1	-10.905
▁remote	-10.905
▁rapidly	-10.9051
▁Municipality	-10.9054
self	-10.9054
▁pale	-10.9057
▁Gan	-10.9059
▁indigenous	-10.9061
▁1891	-10.9063
▁sugar	-10.9064
▁interpretation	-10.9065
▁McCa	-10.9066
gur	-10.9067
▁(6	-10.9068
▁Such	-10.9069
IF	-10.9069
front	-10.9071
▁pure	-10.9071
▁Century	-10.9071
▁artillery	-10.9071
▁relocated	-10.9071
▁serial	-10.9073
▁solar	-10.9076
titude	-10.9079
hap	-10.9079
▁Pierre	-10.908
▁Pradesh	-10.9082
▁Billy	-10.9084
▁qualify	-10.9084
▁picked	-10.9085
▁examine	-10.9087
▁1000	-10.9087
▁discipline	-10.9092
WA	-10.9095
course	-10.9095
minute	-10.9096
▁push	-10.9098
▁peer	-10.9099
rina	-10.9101
▁weapon	-10.9103
▁Kill	-10.9103
▁processing	-10.9104
city	-10.9107
Jo	-10.9108
▁Joan	-10.9117
▁distinction	-10.9117
space	-10.9118
▁mounted	-10.9119
▁Nicholas	-10.9124
▁Protestant	-10.9124
▁Nat	-10.9124
▁platforms	-10.9125
▁Borough	-10.9125
▁knew	-10.9125
▁Hope	-10.9125
▁Susan	-10.9126
mine	-10.9132
▁tribute	-10.9134
▁diverse	-10.9137
atta	-10.9138
▁Iranian	-10.9139
▁Beat	-10.9139
▁vast	-10.914
Art	-10.9145
▁cash	-10.9145
▁tip	-10.9146
▁boats	-10.9152
▁Professional	-10.9155
▁Burg	-10.9156
▁spend	-10.9156
▁poems	-10.9156
▁attributed	-10.916
–5	-10.9161
▁focuses	-10.9162
Gu	-10.9162
▁root	-10.9166
bour	-10.9167
▁Vel	-10.9169
▁farmers	-10.917
▁behalf	-10.9186
dorf	-10.9187
▁timber	-10.9187
away	-10.9195
▁Mis	-10.9196
▁sequel	-10.9197
–7	-10.9199
▁settlers	-10.9199
NS	-10.9206
zza	-10.9208
▁1,000	-10.9214
▁turning	-10.9216
lift	-10.9218
▁specimen	-10.9219
▁Clinton	-10.9219
▁Alberta	-10.9219
▁anything	-10.922
foot	-10.923
▁giant	-10.923
▁Bird	-10.923
pit	-10.9232
gam	-10.9232
▁locomotives	-10.9236
▁Hugh	-10.9243
▁remove	-10.9244
▁heir	-10.9247
▁organize	-10.9251
▁Adelaide	-10.9251
▁swimming	-10.9251
▁riding	-10.9251
▁Bosnia	-10.9251
▁Marsh	-10.9252
-17	-10.9255
▁viewers	-10.9256
▁constitution	-10.9264
▁revolution	-10.9265
▁Short	-10.9268
▁Lor	-10.9268
wy	-10.9276
▁Studio	-10.9277
▁partners	-10.9281
▁Caribbean	-10.9283
▁pastor	-10.9283
▁Leeds	-10.9284
etta	-10.9284
▁summit	-10.9284
ON	-10.9292
▁sang	-10.9292
▁gay	-10.9293
▁Charlie	-10.9295
raj	-10.9297
jar	-10.9298
▁basin	-10.9307
▁Microsoft	-10.9315
train	-10.9315
▁Kel	-10.932
▁mineral	-10.9328
▁Vic	-10.933
▁publicly	-10.9331
▁Fisher	-10.9331
rush	-10.9332
▁functional	-10.9333
▁eldest	-10.9336
▁Fen	-10.9336
▁59	-10.9336
▁internationally	-10.9338
▁kg	-10.9347
▁Argentine	-10.9347
▁1864	-10.9347
▁tribes	-10.9351
mile	-10.9352
▁premier	-10.9357
▁Rou	-10.9358
▁throne	-10.9358
anger	-10.9361
▁missed	-10.9362
▁Jason	-10.9363
▁Mala	-10.9363
▁dynamic	-10.9368
▁algorithm	-10.9368
ulating	-10.9371
▁Broad	-10.9371
▁Ring	-10.9374
▁attraction	-10.9376
▁Ian	-10.9378
▁outbreak	-10.9379
▁gross	-10.938
▁radical	-10.938
abil	-10.9381
trans	-10.9384
▁ninth	-10.939
▁thin	-10.939
▁Throughout	-10.9392
mie	-10.9394
▁exit	-10.9396
▁immigrants	-10.9399
▁involves	-10.94
▁territories	-10.9401
released	-10.9403
mili	-10.9403
▁agents	-10.9404
▁canal	-10.9405
▁1887	-10.9405
▁Mall	-10.9407
▁Our	-10.9411
▁Wayne	-10.9412
eira	-10.9412
▁anchor	-10.9414
▁Serbian	-10.9418
▁Universal	-10.9423
▁legislative	-10.9423
▁coalition	-10.9423
▁render	-10.9425
▁coaching	-10.9428
▁seeking	-10.943
ppy	-10.9431
▁claiming	-10.9431
▁perspective	-10.9433
▁Qa	-10.9433
rik	-10.9435
▁vertical	-10.9435
language	-10.9435
present	-10.9436
▁Wu	-10.9436
▁occasion	-10.9438
▁Type	-10.9439
▁ranks	-10.944
lag	-10.9442
▁emphasis	-10.9444
▁reinforce	-10.9444
▁Gabriel	-10.9444
lé	-10.9447
▁Liber	-10.9448
kie	-10.9449
▁rat	-10.9452
formerly	-10.9457
▁Abu	-10.946
▁inscription	-10.9463
▁undergo	-10.9464
▁Non	-10.9465
▁thirteen	-10.9466
▁facing	-10.9466
▁Dog	-10.9476
▁Cincinnati	-10.9477
▁intellectual	-10.9477
▁Near	-10.9477
▁Lim	-10.9477
▁advice	-10.9477
▁genera	-10.9477
▁fame	-10.9482
ected	-10.9482
▁beating	-10.9482
▁Estonia	-10.9483
phor	-10.9483
▁Slav	-10.9484
bird	-10.9484
▁identical	-10.9488
▁locally	-10.9488
vet	-10.9489
▁physics	-10.9489
▁principle	-10.949
▁Leonard	-10.9491
▁beam	-10.9492
▁Buffalo	-10.9499
▁Initially	-10.9499
▁conversion	-10.9501
▁ready	-10.9504
▁EU	-10.9504
▁Pier	-10.951
sser	-10.9511
▁Lei	-10.9512
▁Bert	-10.9515
▁romantic	-10.9521
▁representatives	-10.9522
▁reception	-10.9522
▁1850	-10.9524
▁Arabic	-10.9528
▁stake	-10.953
▁Similar	-10.9532
▁resort	-10.9532
▁Diocese	-10.9543
▁remix	-10.9543
Don	-10.9551
▁bachelor	-10.9553
ár	-10.9555
▁Collins	-10.9556
▁outdoor	-10.9556
wall	-10.9558
hai	-10.956
▁Palm	-10.9562
▁icon	-10.9564
▁Yan	-10.9564
▁negotiation	-10.9564
▁Control	-10.9565
▁wealth	-10.9565
▁secured	-10.9566
oh	-10.9567
▁contribute	-10.9569
▁Wen	-10.9571
▁sailed	-10.9575
ê	-10.9575
и	-10.9575
▁Archbishop	-10.9575
▁execution	-10.9575
▁Oliver	-10.9576
▁opt	-10.9579
bble	-10.958
rink	-10.9584
▁CO	-10.9588
▁Harrison	-10.9589
▁Virgin	-10.9591
▁Father	-10.9592
▁Craig	-10.9592
▁discussed	-10.9595
▁Wrestling	-10.9598
▁Dakota	-10.9598
▁Cass	-10.9598
teg	-10.9599
phal	-10.9602
name	-10.9604
▁principles	-10.9607
▁initiated	-10.9609
berry	-10.9609
apa	-10.961
ovich	-10.9612
▁dozen	-10.9613
inch	-10.9614
▁generated	-10.9614
▁fundamental	-10.962
Ri	-10.9626
vant	-10.9631
▁clock	-10.9632
▁99	-10.9636
▁conventional	-10.9637
▁regard	-10.9639
▁Video	-10.964
▁Attorney	-10.9642
▁fossil	-10.9642
▁exclusively	-10.9647
▁belonged	-10.9649
▁scar	-10.9652
▁Prussia	-10.9653
▁blow	-10.9653
▁Mother	-10.9653
gia	-10.9655
▁sixteen	-10.9658
four	-10.9658
▁soldier	-10.966
▁Catherine	-10.9664
▁Further	-10.9665
▁MS	-10.9665
▁Sco	-10.9667
▁Anglo	-10.9669
▁lowest	-10.967
▁cartoon	-10.9675
▁moderate	-10.9676
▁CE	-10.9677
▁Clare	-10.9681
tique	-10.9682
▁Luis	-10.9683
▁Dead	-10.9691
▁(),	-10.9692
▁assert	-10.9695
▁stamp	-10.9696
▁Tang	-10.9698
▁tram	-10.9699
▁1861	-10.9708
▁resemble	-10.9708
▁Alice	-10.9709
▁displayed	-10.9712
▁Isle	-10.9713
▁Cuba	-10.9713
▁geo	-10.9714
▁Mul	-10.9719
winning	-10.972
▁capita	-10.9723
▁cargo	-10.9725
hydr	-10.9727
▁linear	-10.9729
▁1862	-10.973
▁delegate	-10.9731
▁tissue	-10.9732
▁analog	-10.9734
May	-10.9734
▁coup	-10.9737
▁constitutional	-10.9739
▁Abbey	-10.9742
▁120	-10.9742
▁Schu	-10.9744
chel	-10.9745
▁Pictures	-10.9751
▁ear	-10.9752
▁accurate	-10.9753
▁cemetery	-10.9753
▁comparison	-10.9753
▁Hudson	-10.9753
▁recovered	-10.9754
▁fitted	-10.9756
▁Collection	-10.9764
▁mechanical	-10.9764
▁1865	-10.9766
fusion	-10.9766
etti	-10.9768
▁rocket	-10.9775
▁comprises	-10.9776
▁neck	-10.9776
uru	-10.9779
▁Cop	-10.978
▁Eight	-10.9781
▁Death	-10.9783
▁Philippine	-10.9787
phin	-10.9788
Am	-10.9791
tribu	-10.9793
▁Fun	-10.9796
▁brigade	-10.9798
▁guilty	-10.9798
300	-10.9801
lett	-10.9802
▁partially	-10.9802
▁credits	-10.9803
▁manufactured	-10.9808
plication	-10.9809
▁industries	-10.9809
▁sharp	-10.981
▁petition	-10.981
▁1888	-10.9812
▁Manhattan	-10.9821
▁monastery	-10.9821
▁Racing	-10.9821
▁shock	-10.9822
▁bull	-10.9822
▁Iceland	-10.9824
▁Commons	-10.9825
▁socio	-10.9825
▁extensively	-10.9828
▁demonstrated	-10.9831
▁eligible	-10.9832
▁fragment	-10.9832
▁inspiration	-10.9832
▁cattle	-10.9836
▁Currently	-10.9841
▁destruction	-10.9843
▁Sultan	-10.9843
▁photography	-10.9844
EP	-10.9844
▁locality	-10.9845
▁loop	-10.9848
▁profile	-10.9848
▁exposed	-10.985
▁defend	-10.9852
▁Deb	-10.9858
▁Yar	-10.986
▁breed	-10.9862
▁Wel	-10.9871
vir	-10.9872
▁Municipal	-10.9873
dell	-10.9873
para	-10.9875
free	-10.9882
▁Trump	-10.9883
▁Ny	-10.9887
▁driven	-10.9887
▁YouTube	-10.9889
phi	-10.9889
phil	-10.9891
▁sponsor	-10.9892
▁Ridge	-10.9893
▁trend	-10.9893
ulf	-10.9897
▁establishing	-10.9908
▁colon	-10.9908
tier	-10.991
▁congregation	-10.9911
▁possibility	-10.9911
▁bonus	-10.9912
▁clinical	-10.9913
▁Had	-10.9913
▁essential	-10.9915
bell	-10.9916
grave	-10.9921
▁deployed	-10.9923
▁Symphony	-10.9923
▁Jazz	-10.9927
ño	-10.9928
▁Grove	-10.9929
after	-10.993
▁corps	-10.993
▁drink	-10.9931
▁Brisbane	-10.9934
▁Together	-10.9934
▁dominant	-10.9934
▁emperor	-10.9934
▁Hebrew	-10.9934
▁Barbara	-10.9935
named	-10.9938
▁originated	-10.9947
kara	-10.995
▁specialist	-10.9954
▁implemented	-10.9956
▁speaking	-10.9956
æ	-10.9957
▁helicopter	-10.9957
▁Chen	-10.9957
EM	-10.9958
▁rated	-10.9958
▁exile	-10.9963
▁62	-10.9963
▁Bryan	-10.9971
▁exhibited	-10.9974
▁Def	-10.9976
е	-10.998
▁undergraduate	-10.9983
–10	-10.9985
▁usage	-10.9986
▁connecting	-10.9987
uga	-10.999
▁earthquake	-10.9991
▁Freedom	-10.9993
▁graph	-10.9993
▁Beth	-10.9993
▁regulations	-11
▁significance	-11.0003
▁distinctive	-11.0008
▁graduation	-11.0014
▁Turner	-11.0015
Bar	-11.0015
▁assisted	-11.0019
▁95	-11.0019
▁1886	-11.002
prov	-11.0022
▁delay	-11.0025
▁Support	-11.0026
▁Nam	-11.0026
▁Athens	-11.0027
▁72	-11.003
DE	-11.0034
▁sheet	-11.0035
▁fourteen	-11.0035
avan	-11.0038
color	-11.0038
▁Rabbi	-11.0038
lop	-11.004
▁250	-11.0045
▁1863	-11.0048
▁dancer	-11.0049
▁closer	-11.0056
▁scientists	-11.0058
▁falling	-11.0059
▁accommodate	-11.006
▁inducted	-11.0063
▁keyboard	-11.0063
come	-11.0065
▁Daily	-11.0066
▁encounter	-11.0067
▁Assistant	-11.0072
▁banned	-11.0074
▁complet	-11.0078
▁Mine	-11.0083
▁Lloyd	-11.0083
▁absorb	-11.0083
▁Mau	-11.0088
cross	-11.0092
▁personality	-11.0094
▁withdrew	-11.0095
▁Methodist	-11.0097
▁labour	-11.0097
fla	-11.0098
▁traditionally	-11.01
Time	-11.0102
▁collaborated	-11.0114
▁Owen	-11.0116
▁patient	-11.0117
▁knock	-11.0118
▁vocalist	-11.0118
▁supplement	-11.0118
▁Murphy	-11.0119
▁Rail	-11.012
▁recover	-11.0125
▁progressive	-11.0125
▁electricity	-11.0126
▁devoted	-11.0128
▁housed	-11.0131
track	-11.0137
clusion	-11.0139
▁isolated	-11.0142
month	-11.0144
▁doesn	-11.0146
agin	-11.0148
▁PhD	-11.0149
▁Barcelona	-11.0153
▁Source	-11.0153
lysis	-11.0158
witch	-11.0158
▁Mason	-11.0162
▁Jonathan	-11.0165
▁truth	-11.0165
▁clearly	-11.0169
▁Stein	-11.017
▁contributing	-11.0177
▁disaster	-11.0177
▁Vir	-11.0181
▁96	-11.0181
▁reaches	-11.0182
▁partly	-11.0184
opho	-11.0184
craft	-11.0186
▁input	-11.0187
▁enrolled	-11.0188
▁relegated	-11.0188
▁overseas	-11.0188
▁minority	-11.0191
▁internet	-11.0192
▁Chair	-11.0194
▁SC	-11.0194
▁Full	-11.0199
▁Harbor	-11.02
lax	-11.0207
▁deck	-11.0209
▁emerge	-11.021
▁Jamaica	-11.0212
▁muscle	-11.0212
▁Tigers	-11.0214
▁commented	-11.0216
▁apparent	-11.0217
▁RAF	-11.0221
▁Buddhist	-11.0223
▁boundaries	-11.0224
▁fat	-11.0228
▁pump	-11.0228
▁archive	-11.0232
LC	-11.0235
RP	-11.0236
▁Comics	-11.0236
osis	-11.0237
market	-11.0237
▁Cultural	-11.0247
▁circumstances	-11.0247
▁Technical	-11.0247
▁monarch	-11.0247
▁superior	-11.0247
guard	-11.0249
▁ongoing	-11.025
▁extract	-11.0255
standing	-11.0255
▁tune	-11.0258
▁closing	-11.0261
▁recognize	-11.0265
▁jury	-11.0269
▁Therefore	-11.0271
▁°	-11.0275
igan	-11.0279
eight	-11.0282
▁pole	-11.0289
▁teammate	-11.0291
▁accus	-11.0292
▁Leo	-11.0294
▁Munich	-11.0295
building	-11.0296
▁Clay	-11.03
▁suitable	-11.0302
central	-11.0304
▁photographer	-11.0304
▁bench	-11.0304
▁Digital	-11.0306
▁Ei	-11.0307
▁detail	-11.0309
DI	-11.0313
▁examination	-11.0318
▁jail	-11.0318
▁acres	-11.0318
▁altitude	-11.0319
▁Small	-11.0321
▁Rom	-11.0325
▁Chester	-11.0329
▁escort	-11.033
▁1881	-11.033
▁submitted	-11.0331
ffi	-11.0341
▁Liga	-11.0341
▁hyper	-11.0342
appa	-11.0344
▁provider	-11.0351
▁belongs	-11.0351
pid	-11.0351
▁pull	-11.0353
▁mistake	-11.0355
▁affiliate	-11.0361
▁index	-11.0361
▁(10	-11.0362
▁cluster	-11.0365
two	-11.0368
▁recognised	-11.0371
▁ensu	-11.0376
owiki	-11.0377
ivo	-11.0381
▁Late	-11.0386
▁infection	-11.0389
▁legislature	-11.0389
ön	-11.0389
▁fra	-11.0393
▁bombing	-11.0394
▁seal	-11.0394
▁restricted	-11.0396
BE	-11.0396
itis	-11.0397
▁Finally	-11.04
▁Java	-11.0401
▁expensive	-11.0401
ée	-11.041
▁hunting	-11.0412
▁Punjab	-11.0413
▁walking	-11.0414
▁Hai	-11.0416
▁corresponding	-11.0418
▁everyone	-11.0421
kon	-11.0422
▁Direct	-11.0424
tention	-11.0425
▁narrative	-11.0425
▁Plain	-11.0427
▁Rem	-11.0432
▁delivery	-11.0432
ppe	-11.0434
▁dismissed	-11.0436
▁measured	-11.0437
▁Nevada	-11.0437
▁managing	-11.0441
▁Crime	-11.0443
▁Vale	-11.0449
▁Macedonia	-11.0449
uter	-11.0449
▁hypo	-11.0449
▁Neo	-11.045
▁respective	-11.045
▁logo	-11.0455
▁Maz	-11.0463
▁Case	-11.0464
▁favorite	-11.0467
aux	-11.0469
▁Confederate	-11.0473
▁evolved	-11.0473
▁atmosphere	-11.0473
▁resist	-11.0477
▁loose	-11.0477
▁birthday	-11.0477
film	-11.0482
▁midfielder	-11.0485
▁funeral	-11.0485
▁compiled	-11.0485
▁Jerry	-11.0485
cover	-11.0497
comb	-11.0497
▁exposure	-11.0498
▁1884	-11.0501
▁strengthen	-11.0506
ista	-11.0508
▁Esp	-11.0509
▁shall	-11.0509
▁exploit	-11.0509
▁violent	-11.0509
▁eighteen	-11.0512
▁accessible	-11.0514
20,000	-11.0518
▁descend	-11.052
▁enterprise	-11.0521
▁participating	-11.0521
://	-11.0522
▁rising	-11.0524
▁Terry	-11.0528
Ph	-11.0528
▁ph	-11.0531
▁Industrial	-11.0534
▁Norfolk	-11.0534
stock	-11.0536
▁sitting	-11.0538
▁preserve	-11.0542
▁Slo	-11.0543
▁Xi	-11.0545
▁Appeal	-11.0546
▁Record	-11.055
▁register	-11.0554
2000	-11.0556
One	-11.0557
▁Gang	-11.0557
▁Territory	-11.0558
▁smooth	-11.0558
▁Slovenia	-11.0558
▁Ghana	-11.0558
▁Formula	-11.0559
▁belt	-11.0559
▁Bio	-11.0564
▁Herbert	-11.0565
amba	-11.0566
▁seem	-11.0566
llie	-11.0569
▁anyone	-11.0569
ulu	-11.057
▁myth	-11.0574
▁clothing	-11.0582
▁elsewhere	-11.0582
▁gallery	-11.0583
▁database	-11.0583
▁virus	-11.0585
▁Site	-11.0586
▁Guide	-11.0587
▁responded	-11.0593
oriented	-11.0593
▁monthly	-11.0596
▁€	-11.0596
▁Drama	-11.0597
▁Robin	-11.0599
▁Salt	-11.0601
▁else	-11.0605
▁precede	-11.0606
▁Hat	-11.0606
▁Antarctic	-11.0606
▁Vincent	-11.0608
music	-11.0613
▁Pot	-11.0614
▁Step	-11.0616
▁measurement	-11.0616
▁Minor	-11.0617
▁contestant	-11.0618
▁horror	-11.0619
▁adjust	-11.0619
▁gap	-11.0621
400	-11.0622
▁thereafter	-11.0624
▁pupils	-11.0626
▁administrator	-11.0631
▁repeated	-11.0633
▁farming	-11.0634
Best	-11.0634
▁Nico	-11.0637
amine	-11.0638
▁Yi	-11.0642
▁Spirit	-11.0644
▁85	-11.0644
▁framework	-11.0645
▁commitment	-11.0649
▁eggs	-11.0649
enko	-11.0655
▁convicted	-11.0657
▁dangerous	-11.0657
▁Ground	-11.0659
▁keeping	-11.066
▁pig	-11.0662
▁outstanding	-11.0662
East	-11.0666
▁mal	-11.0666
ière	-11.0671
▁Kol	-11.0676
▁Arabia	-11.0687
▁latest	-11.0688
udi	-11.069
▁topics	-11.0692
▁plastic	-11.0694
▁exact	-11.0697
▁biological	-11.0697
world	-11.07
▁LP	-11.0704
▁theatrical	-11.0705
tang	-11.0708
▁paint	-11.071
▁Saudi	-11.071
HA	-11.0711
▁Mora	-11.0711
▁Nik	-11.0714
▁Survey	-11.0717
▁crystal	-11.0717
▁Allied	-11.0719
▁Carol	-11.0719
▁Holland	-11.072
▁Cinema	-11.0721
▁powered	-11.0721
▁bath	-11.0729
▁inherited	-11.0729
▁Hit	-11.073
▁mall	-11.0732
▁ranging	-11.0733
▁oversee	-11.0736
▁signature	-11.0742
▁cancelled	-11.0742
▁zero	-11.0742
▁Dennis	-11.0742
▁permitted	-11.0744
▁Lyon	-11.0745
German	-11.075
PP	-11.0751
▁97	-11.0753
▁Pac	-11.0754
▁calendar	-11.0754
▁promoting	-11.0754
▁Political	-11.0754
▁98	-11.0755
toria	-11.0757
▁elementary	-11.0758
▁63	-11.0759
large	-11.0765
DF	-11.0766
order	-11.0767
▁wearing	-11.0769
rav	-11.0769
wai	-11.0771
▁alien	-11.0778
▁aggregate	-11.0779
▁Pedro	-11.078
▁Cruz	-11.0783
▁artwork	-11.0785
dicating	-11.0788
▁prepare	-11.0788
▁rotation	-11.079
▁placing	-11.0791
▁treaty	-11.0792
▁Bab	-11.0792
▁Lauren	-11.0794
▁McCo	-11.0802
▁Rama	-11.0803
ichi	-11.0803
▁Phoenix	-11.0804
▁Ottawa	-11.0804
▁Newcastle	-11.0804
▁receptor	-11.0804
▁permission	-11.0809
gni	-11.0814
nick	-11.0815
▁Amsterdam	-11.0816
▁Wellington	-11.0817
▁adopt	-11.0823
wald	-11.0825
▁Monday	-11.0825
▁boot	-11.0831
▁random	-11.0831
–17	-11.0838
▁wealthy	-11.084
▁Celtic	-11.0841
▁servant	-11.0841
▁closure	-11.0842
▁asks	-11.0846
▁Finance	-11.0846
▁presentation	-11.0846
▁wound	-11.0851
▁efficient	-11.0854
▁battery	-11.0854
▁Lions	-11.0854
▁Amb	-11.0862
bha	-11.0864
▁73	-11.0865
▁Aust	-11.0866
▁Gilbert	-11.0867
rift	-11.0871
▁certified	-11.0879
zzo	-11.088
▁Ruth	-11.0881
dha	-11.0882
IR	-11.0884
▁travelled	-11.0884
▁roster	-11.0884
▁Tai	-11.0889
script	-11.0893
asse	-11.0897
▁Pine	-11.0899
▁Rosen	-11.0899
chang	-11.09
Love	-11.0906
▁exam	-11.0908
▁silent	-11.091
Ru	-11.0911
ective	-11.0912
▁Ful	-11.0913
▁structural	-11.0916
▁ministry	-11.0916
▁Highland	-11.0924
▁Former	-11.0925
▁Ski	-11.0929
▁steal	-11.0929
▁Policy	-11.0929
▁telephone	-11.0929
▁distinguish	-11.0931
▁Jin	-11.0934
-16	-11.0934
▁baby	-11.0937
▁Rat	-11.0939
chlor	-11.0939
▁Franco	-11.094
▁violin	-11.0942
▁radar	-11.0944
▁São	-11.0946
pound	-11.0947
▁61	-11.0951
shaw	-11.0954
▁shopping	-11.0956
▁quarterback	-11.0957
▁10,000	-11.0959
▁Bond	-11.0961
week	-11.0962
issue	-11.0965
fight	-11.0967
base	-11.0972
▁difficulties	-11.0973
pent	-11.0974
▁vent	-11.098
strat	-11.0983
chard	-11.0985
▁rarely	-11.0987
park	-11.0988
timate	-11.0991
▁1882	-11.0992
▁Circuit	-11.0992
▁Faculty	-11.0992
▁excellent	-11.0992
▁incumbent	-11.0992
▁Vermont	-11.0995
▁Crow	-11.0995
▁Keith	-11.0995
▁600	-11.0998
▁depression	-11.0999
▁till	-11.1007
▁Denver	-11.1008
▁wider	-11.1009
▁Pic	-11.101
▁Kun	-11.1012
written	-11.1014
▁Bomb	-11.1017
▁concerning	-11.102
▁Marc	-11.1021
lite	-11.1022
▁Southeast	-11.1026
▁Sad	-11.1028
▁Chapel	-11.1033
jack	-11.1034
NT	-11.1037
▁Wang	-11.1041
▁ritual	-11.1043
▁Sheffield	-11.1043
▁meat	-11.1046
"|	-11.1048
▁specialized	-11.1048
raz	-11.1049
▁prototype	-11.1056
▁Bulgarian	-11.1061
▁Transit	-11.1068
▁Delaware	-11.1068
▁Lebanon	-11.1068
▁reducing	-11.1069
▁adapt	-11.1069
▁Arg	-11.107
4,000	-11.1074
▁Larry	-11.1077
EN	-11.108
team	-11.108
▁assignment	-11.1081
road	-11.109
▁characteristic	-11.1094
▁Industry	-11.1094
▁Action	-11.1098
hurst	-11.1106
▁ambassador	-11.1107
▁Stuart	-11.1107
Cha	-11.1114
▁ballot	-11.1116
LP	-11.1116
▁wrestling	-11.112
▁awareness	-11.112
▁Vegas	-11.112
▁prospect	-11.112
author	-11.113
▁Yale	-11.113
▁blog	-11.1131
:30	-11.1133
open	-11.1136
▁jet	-11.1141
▁usual	-11.1142
▁generate	-11.1142
▁rod	-11.1145
▁Auckland	-11.1145
▁resolve	-11.1146
▁Exchange	-11.1158
▁Napoleon	-11.1158
▁tight	-11.1159
▁knee	-11.116
▁Blood	-11.1165
▁tract	-11.1166
▁Baby	-11.1167
▁Snow	-11.1169
▁rhythm	-11.1171
▁neither	-11.1171
▁flank	-11.1172
▁mut	-11.1173
▁historically	-11.1176
▁77	-11.1179
wind	-11.1179
lang	-11.1179
▁Batt	-11.1181
Á	-11.1184
▁Nebraska	-11.1184
▁intervention	-11.1186
▁interface	-11.1186
▁steep	-11.1187
▁Perry	-11.119
▁scope	-11.119
▁Mega	-11.1191
▁Poly	-11.1197
▁Eventually	-11.1197
▁Shanghai	-11.1197
▁breast	-11.1197
▁Hau	-11.1198
▁1866	-11.1198
▁approached	-11.1199
▁humor	-11.12
▁classroom	-11.12
▁Pay	-11.1201
Du	-11.1201
▁nest	-11.1203
▁survivor	-11.121
▁kilometers	-11.121
▁Jefferson	-11.121
▁1876	-11.1212
▁celebrate	-11.122
▁1871	-11.1222
▁Sierra	-11.1223
glo	-11.1231
▁citizen	-11.1231
▁grandson	-11.1232
borg	-11.1235
▁copper	-11.1235
▁Oscar	-11.1241
▁Sony	-11.1242
▁relay	-11.1244
▁exclusive	-11.1244
lateral	-11.1247
▁Ethiopia	-11.1249
▁decorated	-11.1249
ancing	-11.1251
lick	-11.1252
▁resignation	-11.1254
▁receiver	-11.1257
▁Bulgaria	-11.1257
▁Soul	-11.1258
▁prefer	-11.126
▁Woman	-11.126
▁literacy	-11.1262
▁faction	-11.1263
▁76	-11.1268
▁Grace	-11.1271
Cl	-11.1271
▁Croatia	-11.1272
▁comprehensive	-11.1275
▁oxygen	-11.1275
▁switched	-11.1275
▁Computer	-11.1276
▁1875	-11.1282
▁songwriter	-11.1284
CL	-11.1285
What	-11.1286
▁Yang	-11.1287
▁67	-11.1295
▁Andre	-11.1299
nova	-11.13
TO	-11.13
▁victim	-11.13
▁nephew	-11.1301
▁removal	-11.1301
▁substance	-11.1301
▁beauty	-11.1301
▁crossed	-11.1305
▁flew	-11.1305
▁counsel	-11.1314
▁1878	-11.1315
▁tale	-11.1316
▁donation	-11.1317
▁reporting	-11.1325
▁cooperation	-11.1327
▁commenced	-11.1327
▁Pun	-11.1331
▁universal	-11.1341
▁emotional	-11.1341
▁doubt	-11.1341
ptic	-11.1341
▁Gregory	-11.1342
▁Magic	-11.1342
hang	-11.1342
empt	-11.1344
▁Say	-11.1344
▁Cold	-11.1346
▁breaking	-11.1347
▁USS	-11.1348
South	-11.1352
▁sung	-11.1352
▁Panama	-11.1352
▁relevant	-11.1354
▁departed	-11.1354
▁diplomatic	-11.1358
▁68	-11.1365
▁renovation	-11.1367
▁preferred	-11.1368
▁suppress	-11.137
▁Nine	-11.138
▁wait	-11.138
▁prayer	-11.138
▁coached	-11.138
kill	-11.1381
▁Petersburg	-11.1383
▁Data	-11.1385
south	-11.1386
holder	-11.1387
▁Based	-11.1393
▁arriving	-11.1393
▁buses	-11.1395
▁Fab	-11.1399
▁800	-11.14
pati	-11.1403
▁archaeological	-11.1406
▁pitcher	-11.1409
▁pitched	-11.141
▁Guild	-11.1411
▁tag	-11.1415
▁CDP	-11.1418
▁Berkeley	-11.142
▁encompass	-11.142
▁fifty	-11.142
▁Pearl	-11.1422
▁Adult	-11.1423
scope	-11.1426
▁Storm	-11.1434
▁Neil	-11.1434
▁settle	-11.1436
▁Train	-11.1438
▁Gru	-11.1438
▁Julie	-11.1441
chester	-11.1444
IL	-11.1447
▁aviation	-11.1447
▁Stanford	-11.1449
icular	-11.1449
▁Multi	-11.145
_3	-11.1457
pose	-11.1458
▁transit	-11.1459
▁cathedral	-11.1459
▁violation	-11.1462
▁Eye	-11.1464
▁choir	-11.1466
IV	-11.1467
▁Origin	-11.1471
▁1872	-11.1472
▁fabric	-11.1473
▁Protection	-11.1473
▁afford	-11.1473
▁Furthermore	-11.1473
▁annex	-11.1474
ought	-11.1474
▁1883	-11.1477
▁71	-11.1477
▁locomotive	-11.1477
▁triple	-11.1479
▁expense	-11.1486
▁retiring	-11.1486
▁Than	-11.1487
▁defended	-11.1493
▁requested	-11.1495
speed	-11.15
▁Actor	-11.1504
▁Micro	-11.1507
▁introduce	-11.1511
▁lawsuit	-11.1514
▁carries	-11.1524
▁configuration	-11.1526
▁siege	-11.1526
500	-11.1537
▁Maur	-11.1539
▁renowned	-11.1539
▁regulate	-11.154
▁Congo	-11.1541
▁Venice	-11.1543
▁Nathan	-11.1545
▁Harold	-11.1547
▁Temp	-11.1548
▁Google	-11.1553
▁Giants	-11.1556
▁Raja	-11.1557
▁2020	-11.1562
▁ridge	-11.1562
Black	-11.1565
−	-11.1566
▁taxes	-11.157
▁Mé	-11.1576
▁Clarke	-11.158
▁1867	-11.158
▁Hamburg	-11.1582
HF	-11.1583
▁Voice	-11.1589
▁1874	-11.1593
▁dissolved	-11.1593
▁Ralph	-11.1593
▁marking	-11.1597
▁Christianity	-11.1598
▁attendance	-11.1599
founded	-11.1606
▁imperial	-11.1607
▁Thai	-11.1607
▁burned	-11.1609
▁cloud	-11.161
▁HD	-11.161
▁incorporate	-11.1619
▁cavalry	-11.162
▁disbanded	-11.162
▁Wor	-11.162
▁wire	-11.1622
▁Junction	-11.1622
▁sharing	-11.1624
▁Golf	-11.1625
▁69	-11.1628
national	-11.1628
▁bow	-11.1628
▁Devon	-11.1631
mund	-11.1634
▁condemn	-11.1634
▁Ernest	-11.1634
▁Croatian	-11.1637
link	-11.1639
▁Warsaw	-11.1648
▁scrap	-11.1649
▁1879	-11.165
▁Cow	-11.1652
▁nearest	-11.1655
▁tan	-11.1657
▁Corr	-11.1658
▁Independence	-11.1659
▁neutral	-11.1661
▁Obama	-11.1661
PL	-11.1669
▁pipe	-11.1671
▁Palmer	-11.1673
▁conductor	-11.1674
▁Provincial	-11.1674
▁confused	-11.1674
▁diocese	-11.1674
▁tributary	-11.1674
▁gauge	-11.1674
▁Luke	-11.1675
▁Guardian	-11.1677
action	-11.1679
▁coaches	-11.168
▁artificial	-11.1688
▁1868	-11.1688
▁worn	-11.1688
▁Aviation	-11.1688
will	-11.1689
▁tourism	-11.1692
www	-11.1695
▁Beginning	-11.1702
▁freight	-11.1702
▁assess	-11.1706
claim	-11.1707
6,000	-11.1709
▁theories	-11.1714
ility	-11.1716
▁Mind	-11.1716
iah	-11.1722
▁recommendation	-11.1725
н	-11.1729
▁reservoir	-11.1729
▁neo	-11.1731
▁odd	-11.1734
▁hence	-11.1736
leigh	-11.1739
▁88	-11.1739
vre	-11.174
page	-11.1747
▁republic	-11.1748
▁Otto	-11.1755
▁unless	-11.1755
founder	-11.1757
▁announcement	-11.1761
▁passion	-11.1762
▁crosses	-11.1763
▁fluid	-11.1763
▁partial	-11.1764
▁accompany	-11.177
▁technologies	-11.177
▁complaint	-11.177
▁bag	-11.1774
▁Fish	-11.1775
▁Cul	-11.178
▁Primary	-11.1784
▁interchange	-11.1784
▁tenth	-11.1786
lve	-11.1787
▁mainstream	-11.1787
▁Peak	-11.1796
fasci	-11.1797
▁Palestinian	-11.1797
▁Abraham	-11.1797
▁sack	-11.1798
▁raising	-11.1799
▁lie	-11.1808
▁depicted	-11.1811
▁blind	-11.1811
patri	-11.1811
▁stroke	-11.1813
▁editorial	-11.1819
about	-11.1823
▁voyage	-11.1825
▁Secondary	-11.1825
▁Delta	-11.1831
▁Rhine	-11.1836
▁Yugoslavia	-11.1838
▁Anglican	-11.1839
▁Harvey	-11.1839
▁hardware	-11.184
▁Florence	-11.1841
▁scientist	-11.1841
▁Representative	-11.1841
▁Bavaria	-11.1842
court	-11.1843
▁weigh	-11.1848
▁(14	-11.1848
▁saint	-11.1855
▁Krist	-11.1862
▁chi	-11.1868
▁Hughes	-11.187
▁assessment	-11.1873
▁suspension	-11.188
▁Manuel	-11.188
▁Walt	-11.1881
▁vector	-11.1883
▁attitude	-11.1886
▁Ari	-11.1894
▁universe	-11.1894
▁companion	-11.1894
▁Georg	-11.1904
▁grain	-11.191
▁affair	-11.1913
izer	-11.1918
ę	-11.1922
▁demonstration	-11.1922
▁symptoms	-11.1922
▁torpedo	-11.1922
▁worst	-11.1922
Pre	-11.1923
▁flash	-11.1927
▁Bobby	-11.1927
▁warning	-11.1932
▁combine	-11.1935
▁matrix	-11.1936
▁nominee	-11.1936
▁resumed	-11.1936
▁auction	-11.1937
▁milk	-11.1938
▁costume	-11.1938
▁tension	-11.1941
▁engage	-11.1942
▁evil	-11.1943
▁Estate	-11.1948
▁elevated	-11.195
▁hybrid	-11.195
▁molecule	-11.195
▁Nashville	-11.195
▁essentially	-11.1959
▁2–1	-11.1961
logue	-11.1963
▁Ambassador	-11.1964
▁Double	-11.1964
▁Page	-11.1967
▁recruited	-11.1969
▁describing	-11.1978
▁Justin	-11.1979
▁Cork	-11.1986
▁outcome	-11.1987
▁manual	-11.1989
▁afternoon	-11.1992
establish	-11.1992
▁Kerala	-11.1993
ān	-11.1995
▁facilitate	-11.1996
▁explicit	-11.2006
▁Grammy	-11.2006
▁Nature	-11.2008
▁tested	-11.2009
▁transformation	-11.2013
▁instructor	-11.202
▁trigger	-11.2021
▁murdered	-11.2025
▁Marco	-11.2029
▁holder	-11.2031
▁Kre	-11.2032
▁embark	-11.2034
▁Interstate	-11.2035
▁93	-11.2037
▁Gaz	-11.2045
▁Secret	-11.2048
▁sketch	-11.2048
▁Watson	-11.2048
▁enforcement	-11.205
▁mandate	-11.2051
▁strain	-11.2052
▁XI	-11.2053
▁Algeria	-11.2053
▁Transportation	-11.2056
▁electron	-11.206
▁Scholar	-11.2062
▁deemed	-11.2062
▁orange	-11.2068
▁fantasy	-11.2076
▁hamlet	-11.2076
▁78	-11.2076
▁documented	-11.2078
▁Recording	-11.2079
▁plantation	-11.2082
▁server	-11.2083
▁Butler	-11.2088
▁aspect	-11.2088
▁Shakespeare	-11.209
▁slowly	-11.209
▁codice	-11.209
▁stick	-11.2091
▁laboratory	-11.2091
lude	-11.2096
▁quick	-11.2101
▁Rep	-11.2102
▁seminar	-11.2103
▁Commerce	-11.2104
▁hidden	-11.2104
▁Name	-11.2105
▁extending	-11.2105
▁1877	-11.2106
▁recalled	-11.2108
▁corn	-11.2118
▁referendum	-11.2119
▁Campaign	-11.2119
▁sensor	-11.2119
▁wage	-11.2119
▁Andrea	-11.212
▁mail	-11.2123
▁Naga	-11.2129
▁92	-11.2131
▁Isabel	-11.2147
▁Honour	-11.2148
▁81	-11.2153
▁Jet	-11.2158
▁Wilhelm	-11.2162
▁Lil	-11.2164
▁printing	-11.2166
▁74	-11.2167
▁Room	-11.2172
▁creator	-11.2172
▁Oil	-11.2173
▁recovery	-11.2173
▁1869	-11.2174
▁kidnap	-11.2175
▁looked	-11.2179
▁finger	-11.2181
opter	-11.2182
▁91	-11.2183
▁zoo	-11.2185
▁Arnold	-11.219
▁Uganda	-11.219
activate	-11.2191
▁exactly	-11.2197
▁Contemporary	-11.2204
▁abolished	-11.2204
600	-11.2205
dimensional	-11.2206
▁Sau	-11.221
▁neighboring	-11.2217
▁Syrian	-11.2218
▁Store	-11.2219
▁cricketer	-11.2225
▁thereby	-11.2228
And	-11.2229
▁footage	-11.2229
▁Marvel	-11.2232
▁syndrome	-11.2233
▁mutual	-11.2234
▁Eddie	-11.2235
▁Bloom	-11.2235
ppel	-11.2236
EL	-11.2246
▁Cabinet	-11.2247
▁supplied	-11.2247
chief	-11.2248
▁Raymond	-11.2248
▁Mou	-11.2248
▁discharge	-11.2249
▁alive	-11.2251
▁drinking	-11.2253
▁dialogue	-11.2262
▁guarantee	-11.2262
▁predominantly	-11.2262
▁academy	-11.2262
▁Article	-11.2262
▁denote	-11.2262
▁1840	-11.2268
▁breeding	-11.2268
▁morph	-11.2269
▁Metal	-11.2269
▁82	-11.2273
▁gathered	-11.2273
▁Montgomery	-11.2276
▁Wheel	-11.2276
mato	-11.2276
▁Swan	-11.2278
▁HMS	-11.2284
▁rice	-11.2286
▁automatic	-11.229
▁contributor	-11.229
▁consultant	-11.229
▁calculate	-11.229
▁attempting	-11.2291
▁interact	-11.2291
▁tier	-11.2292
scape	-11.2292
▁Stage	-11.2297
▁reward	-11.2304
▁goalkeeper	-11.2306
▁slot	-11.2314
nock	-11.2316
▁Fitz	-11.2317
▁Conservation	-11.2319
▁valuable	-11.2319
▁abstract	-11.2319
▁confess	-11.2319
▁Š	-11.2323
▁organic	-11.2325
▁shoe	-11.2325
▁stored	-11.233
▁Midland	-11.2331
fold	-11.2333
▁behaviour	-11.2334
▁familiar	-11.2334
▁communist	-11.2334
▁Patriot	-11.2334
▁scandal	-11.2335
writing	-11.2336
ienne	-11.2342
▁Morning	-11.2344
▁Deep	-11.2344
▁absolute	-11.2348
ario	-11.2348
camp	-11.2349
▁promise	-11.2349
▁Prague	-11.2351
▁Price	-11.2354
▁engagement	-11.2356
▁corruption	-11.2363
▁prestigious	-11.2363
▁Alpha	-11.2363
▁1848	-11.2364
▁robot	-11.2366
▁Northwest	-11.2377
▁runway	-11.238
▁Gay	-11.2382
▁entrepreneur	-11.2382
ovsky	-11.2385
▁101	-11.2388
▁Archive	-11.2388
▁Mit	-11.2391
▁conjunction	-11.2392
▁innovation	-11.2392
▁gaining	-11.2394
▁bacteria	-11.2394
▁Latvia	-11.2396
▁shipping	-11.2397
nomic	-11.2398
enstein	-11.2399
▁danger	-11.2407
▁difficulty	-11.2407
▁pulled	-11.2412
▁employer	-11.2416
▁terminate	-11.2417
▁burial	-11.2421
▁Future	-11.2424
▁gall	-11.2429
▁mainland	-11.243
▁Turn	-11.2433
▁Devil	-11.2434
▁1873	-11.2434
р	-11.2436
▁vol	-11.2439
▁Bach	-11.244
▁repeat	-11.2441
▁delayed	-11.2443
▁Roosevelt	-11.245
▁flee	-11.2455
▁bal	-11.2456
▁lyric	-11.246
▁Dodge	-11.246
▁ERA	-11.246
▁failing	-11.246
▁1800	-11.2464
▁Financial	-11.2465
▁wrestler	-11.2465
▁conversation	-11.2465
▁simultaneously	-11.247
▁Sudan	-11.2471
▁Lyn	-11.2472
ß	-11.248
▁proof	-11.248
▁Edition	-11.2481
▁bout	-11.2485
▁administered	-11.2486
▁Semi	-11.2486
North	-11.2487
▁discontinued	-11.2492
▁sovereign	-11.2495
▁Airlines	-11.2495
▁fail	-11.2498
▁Flight	-11.2506
▁drain	-11.2507
▁immigration	-11.2509
▁teenager	-11.2509
▁Next	-11.251
▁Mario	-11.2514
She	-11.2516
▁trio	-11.2517
▁athlete	-11.252
▁Get	-11.252
▁Tyr	-11.2521
▁Agriculture	-11.2524
▁ancestor	-11.2524
▁Cameron	-11.2524
▁intense	-11.2527
▁impossible	-11.2539
▁sweet	-11.2539
▁animation	-11.2539
pac	-11.2542
▁reject	-11.255
▁Disc	-11.2553
▁Paralympic	-11.2554
▁illustration	-11.2554
▁revised	-11.2554
▁Movie	-11.2558
third	-11.2563
▁realize	-11.2563
▁1830	-11.2563
▁Byzantine	-11.2569
▁empire	-11.2569
▁Sean	-11.2569
▁Diamond	-11.2569
▁Madison	-11.257
▁neighbouring	-11.2573
▁infect	-11.2573
2,000	-11.2574
▁fastest	-11.2574
▁saving	-11.2575
▁theorem	-11.2576
▁Facebook	-11.2583
▁precise	-11.2583
▁Indianapolis	-11.2583
▁diesel	-11.2584
▁Nikola	-11.2585
▁sword	-11.2585
▁friendship	-11.2591
▁virtual	-11.2595
▁Haz	-11.2595
▁Student	-11.2597
▁1857	-11.2598
▁consumption	-11.2598
▁understood	-11.2598
▁Scr	-11.2599
▁illustrated	-11.2611
▁Intelligence	-11.2613
▁imprisoned	-11.2613
▁ordained	-11.2613
▁Principal	-11.2613
▁Bueno	-11.2614
▁mixture	-11.2615
▁punk	-11.2618
▁Roth	-11.2623
▁Private	-11.2628
wyn	-11.2632
▁Thos	-11.2632
production	-11.2633
▁Hour	-11.2633
▁escaped	-11.2634
▁confirm	-11.2635
▁compress	-11.2636
▁diet	-11.2637
▁kit	-11.2641
▁Number	-11.2643
▁riot	-11.2645
white	-11.2646
▁landmark	-11.2651
icide	-11.2656
▁pub	-11.266
▁elite	-11.2668
▁£1	-11.2673
▁Amazon	-11.2673
▁complement	-11.2673
▁refuse	-11.2674
▁armor	-11.2675
▁Put	-11.2677
▁Malay	-11.268
▁manufacture	-11.2684
▁updated	-11.2687
▁Election	-11.2688
▁queen	-11.2689
▁parameter	-11.2689
▁divide	-11.2691
▁sprint	-11.2692
ñ	-11.2693
▁mentor	-11.2695
uki	-11.2695
▁Rule	-11.2697
▁addressed	-11.27
▁Adventure	-11.2703
▁Elementary	-11.2703
▁Gothic	-11.2703
▁horizontal	-11.2704
▁pushed	-11.2715
▁Hurricane	-11.2718
▁Nevertheless	-11.2718
▁Oblast	-11.2719
▁Lodge	-11.2719
▁demonstrate	-11.272
▁Environmental	-11.272
through	-11.2722
▁clay	-11.2727
▁Blake	-11.273
▁cutting	-11.2731
oxy	-11.2732
▁creature	-11.2733
▁Sussex	-11.2733
▁Manager	-11.2733
▁Todd	-11.2734
stad	-11.2735
▁Hitler	-11.2736
▁maintaining	-11.2738
second	-11.274
▁Baronet	-11.2744
zzi	-11.2745
▁Wallace	-11.275
▁lifetime	-11.275
▁Montana	-11.2754
▁Boulevard	-11.2763
▁Literature	-11.2763
▁metropolitan	-11.2763
▁uncertain	-11.2763
▁Circle	-11.2763
▁coffee	-11.2764
held	-11.2765
▁regulation	-11.2767
number	-11.2767
▁informed	-11.277
▁bomber	-11.2777
▁Workers	-11.2778
▁philosopher	-11.2779
▁theoretical	-11.2779
▁Concert	-11.278
ا	-11.2794
▁drove	-11.2794
800	-11.2799
▁consideration	-11.2808
▁senator	-11.2809
▁regain	-11.2809
cultural	-11.2813
John	-11.2814
▁Bau	-11.2818
pression	-11.2822
▁Still	-11.2822
▁0.0	-11.2824
▁emphasize	-11.2824
▁Institution	-11.2824
▁Maj	-11.2826
▁Ellis	-11.2829
▁Iraqi	-11.2831
▁belong	-11.2831
▁victories	-11.2839
▁remembered	-11.2842
March	-11.2843
walk	-11.2845
▁Brother	-11.285
▁Columbus	-11.2855
▁ensemble	-11.2855
▁underwent	-11.2855
▁MTV	-11.2867
▁Starting	-11.287
▁Uruguay	-11.287
▁militia	-11.287
▁comfort	-11.287
▁array	-11.2871
▁update	-11.2874
É	-11.2874
▁Letter	-11.2877
▁Grim	-11.2881
▁thinking	-11.2881
▁enemies	-11.2885
▁occupy	-11.2885
▁Fighter	-11.2885
▁Maurice	-11.2887
▁fortune	-11.2887
▁Kla	-11.2889
▁Nicola	-11.2889
▁Indonesian	-11.289
▁patch	-11.2894
mpton	-11.2894
▁1859	-11.2899
▁acoustic	-11.2901
▁module	-11.2901
▁lecturer	-11.2902
▁profession	-11.2904
▁Tommy	-11.2905
▁Abdul	-11.2907
▁trap	-11.2909
▁saved	-11.2912
▁http	-11.2916
▁Blanc	-11.2916
boro	-11.2916
rrington	-11.2917
▁modification	-11.2917
August	-11.2921
lived	-11.2922
▁Foster	-11.2925
▁Expedition	-11.2931
▁explosion	-11.2931
▁Friedrich	-11.2931
▁citing	-11.2932
▁bore	-11.2933
▁inventor	-11.294
▁rapper	-11.2941
▁bullet	-11.2943
▁negotiate	-11.2947
▁pianist	-11.2947
▁allegedly	-11.2948
▁chemistry	-11.2949
school	-11.2952
▁Brit	-11.2956
titled	-11.2956
▁approaches	-11.2959
är	-11.2961
▁Ecuador	-11.2962
▁Twenty	-11.2962
▁ordinary	-11.2962
▁Miguel	-11.2962
▁Tag	-11.2964
▁praise	-11.2964
▁flour	-11.2968
ś	-11.2978
▁Laboratory	-11.2978
League	-11.2983
▁Joint	-11.2983
▁Apart	-11.2987
Big	-11.2992
▁Leicester	-11.2993
▁Revival	-11.2993
▁Simpson	-11.2993
▁nationwide	-11.2994
▁rabbi	-11.2994
Universit	-11.2994
▁wore	-11.2999
▁feud	-11.3001
▁Serie	-11.3008
▁Sex	-11.301
▁poison	-11.3011
▁lord	-11.3012
▁fatal	-11.3012
speaking	-11.3014
▁Revolutionary	-11.3015
▁dense	-11.3019
▁gathering	-11.3021
▁Charter	-11.3021
▁gastropod	-11.3024
▁intermediate	-11.3024
▁Somerset	-11.3024
▁barrier	-11.3025
▁dependent	-11.3026
English	-11.3029
World	-11.3029
produced	-11.303
▁emission	-11.3032
▁statistics	-11.304
▁Besides	-11.3041
child	-11.3042
▁André	-11.3042
ør	-11.3046
grand	-11.3048
▁divorced	-11.3052
▁clinic	-11.3053
▁certificate	-11.3055
▁revival	-11.3055
▁1855	-11.3057
▁trustee	-11.3058
▁bearing	-11.306
▁Essex	-11.3071
saur	-11.3073
▁doctorate	-11.3074
▁dock	-11.308
▁Palestine	-11.3087
▁governing	-11.3087
▁renewed	-11.3087
▁Basin	-11.3089
▁Liu	-11.3089
▁Durham	-11.3089
▁Wool	-11.309
▁requirement	-11.3092
▁Manila	-11.3092
asso	-11.3099
▁Ferdinand	-11.3102
▁telling	-11.3102
▁psychology	-11.3103
▁counterpart	-11.3104
▁skate	-11.3105
designated	-11.3108
▁specification	-11.311
▁Pakistani	-11.3113
ifies	-11.3116
▁Forum	-11.3118
▁Mumbai	-11.3118
▁Presbyterian	-11.3118
▁efficiency	-11.3118
▁Brunswick	-11.3118
▁coincide	-11.3118
▁Foot	-11.3118
▁compact	-11.312
ça	-11.312
▁Oakland	-11.3124
▁Tree	-11.3127
▁View	-11.3128
▁fairly	-11.3129
▁Kumar	-11.3132
▁thanks	-11.3133
▁Belarus	-11.3134
▁casualties	-11.3134
▁Machine	-11.3134
▁destroyer	-11.314
8,000	-11.3146
▁1854	-11.3148
general	-11.3149
▁criteria	-11.3149
▁temporarily	-11.3149
▁filter	-11.3149
▁mount	-11.315
▁transaction	-11.315
▁Stefan	-11.315
cup	-11.3153
▁waiting	-11.3165
▁Gloucester	-11.3165
▁protagonist	-11.3165
▁rebellion	-11.3165
▁empty	-11.3165
▁1856	-11.3165
▁Stockholm	-11.3165
▁Walk	-11.3166
▁storyline	-11.3167
writer	-11.3168
▁Reading	-11.3173
▁restrict	-11.3181
▁motorcycle	-11.3181
▁decoration	-11.3181
▁Legend	-11.3181
▁2,000	-11.3181
▁mansion	-11.3185
uku	-11.319
▁Twin	-11.3193
▁Performance	-11.3197
▁Ronald	-11.3197
▁bottle	-11.3199
▁punishment	-11.32
ppen	-11.32
▁hometown	-11.3203
▁firing	-11.3204
five	-11.321
▁Vladimir	-11.3212
▁borrow	-11.3212
▁diversity	-11.3213
▁councillor	-11.3215
▁employee	-11.3216
▁Cub	-11.3217
▁permanently	-11.3221
yama	-11.3223
ș	-11.3224
▁Mack	-11.3226
▁horn	-11.3227
▁Left	-11.3228
▁welcome	-11.3228
vice	-11.3229
▁fault	-11.3233
credit	-11.3234
complete	-11.3235
lastic	-11.3236
▁sick	-11.3238
Music	-11.324
▁magnetic	-11.3244
▁relating	-11.3244
▁neighbourhood	-11.3244
▁Legion	-11.3244
▁fraud	-11.3247
▁varies	-11.3252
▁therapy	-11.3257
▁manifest	-11.326
▁Scotia	-11.326
▁arc	-11.3275
▁Lancashire	-11.3276
▁Lucas	-11.328
▁Rah	-11.3287
▁marsh	-11.3289
▁doctrine	-11.3292
▁enlisted	-11.3292
▁Editor	-11.3293
▁faster	-11.3298
▁seemed	-11.3302
▁Sabha	-11.3308
▁Formation	-11.3308
▁Indies	-11.3311
keeper	-11.3311
▁drill	-11.3311
▁southeastern	-11.3312
▁Shore	-11.3319
▁ferry	-11.332
▁Dominican	-11.3324
▁larvae	-11.3324
▁Cornwall	-11.3324
▁defect	-11.3327
▁Contest	-11.3329
▁cylinder	-11.3331
If	-11.3339
brand	-11.334
▁Nottingham	-11.334
▁circulation	-11.334
▁obvious	-11.334
▁carriage	-11.334
▁shrub	-11.334
▁Stakes	-11.3343
▁restore	-11.3343
▁divorce	-11.3343
fair	-11.335
▁shifted	-11.3351
▁110	-11.3353
▁Gmin	-11.3362
Super	-11.3368
▁mirror	-11.3372
▁Surrey	-11.3372
▁massacre	-11.3372
▁knight	-11.3375
▁inhabited	-11.3384
▁cow	-11.3386
▁Renaissance	-11.3388
▁encountered	-11.3396
▁stereo	-11.34
▁taste	-11.3402
▁regulator	-11.3404
▁Heights	-11.3404
▁collector	-11.341
structure	-11.3417
▁societies	-11.342
▁fortress	-11.3421
▁shallow	-11.3423
text	-11.3429
▁promised	-11.3436
▁correspond	-11.3441
▁Mali	-11.3446
▁Chal	-11.3449
▁commissioner	-11.3452
covered	-11.3453
▁violat	-11.3454
▁Travel	-11.3457
▁ruins	-11.346
pronounced	-11.3473
▁hub	-11.3473
▁amendment	-11.3485
▁explanation	-11.3485
▁unanimous	-11.3485
▁terrorist	-11.3485
▁minimal	-11.3487
▁resource	-11.349
▁halt	-11.3495
▁Olympia	-11.3502
▁exploration	-11.3502
▁treasure	-11.3502
▁lens	-11.3502
▁Where	-11.3502
▁Vietnamese	-11.3503
fest	-11.3504
▁followers	-11.3508
▁succession	-11.3514
phen	-11.3516
▁Speaker	-11.3518
▁soap	-11.3519
▁challenged	-11.352
▁persist	-11.3524
▁Right	-11.3526
▁Rovers	-11.3529
▁referee	-11.3534
▁Jacques	-11.3534
▁Albanian	-11.3535
▁Electronic	-11.3536
▁colonies	-11.3537
green	-11.3539
father	-11.3539
▁eventual	-11.3542
source	-11.3549
▁Sullivan	-11.3551
▁reconstruction	-11.3551
▁Quarter	-11.3551
▁Thunder	-11.3553
▁Founded	-11.3553
▁acquire	-11.3555
▁Sparta	-11.3558
▁assume	-11.356
▁Danny	-11.356
UN	-11.356
selling	-11.3561
▁Link	-11.3564
hof	-11.3565
▁magnitude	-11.3567
▁requiring	-11.3567
▁Writing	-11.3567
▁Tasmania	-11.3567
▁Constant	-11.3568
▁automatically	-11.3569
▁sustained	-11.3569
▁Enterprise	-11.3576
▁Giovanni	-11.3583
▁integration	-11.3583
lord	-11.3585
▁1–0	-11.3589
▁convinced	-11.3589
▁wake	-11.3592
lumin	-11.3607
nagar	-11.3611
zhou	-11.3616
▁Copenhagen	-11.3616
▁Ahmed	-11.3617
Located	-11.362
▁Georgian	-11.3621
▁Reich	-11.3623
▁Campus	-11.3623
▁Bonn	-11.3626
▁Fourth	-11.3627
just	-11.3631
▁Legislature	-11.3633
▁comedian	-11.3633
▁Falcon	-11.3636
▁Epi	-11.364
screen	-11.3644
▁Raven	-11.3645
XX	-11.3646
▁50%	-11.3646
▁authorized	-11.3649
endra	-11.3649
▁martial	-11.3649
▁restrictions	-11.3651
▁invented	-11.3653
▁barrel	-11.3654
▁Laura	-11.3656
volution	-11.3666
▁Bang	-11.3667
▁trick	-11.367
taining	-11.3672
▁Cox	-11.3672
▁Word	-11.3673
psych	-11.3674
▁beaten	-11.3676
▁Ober	-11.3681
▁aesthetic	-11.3683
▁garrison	-11.3683
▁Sym	-11.3683
▁Desert	-11.3685
▁Shri	-11.3689
▁mask	-11.3691
▁abandon	-11.3693
still	-11.3697
▁Yama	-11.3698
▁perceived	-11.3699
▁separation	-11.3699
▁psychological	-11.3699
▁happy	-11.37
▁varied	-11.3701
▁commit	-11.3701
▁involve	-11.3702
▁hydrogen	-11.3702
▁inhibit	-11.3709
▁filmmaker	-11.3712
shima	-11.3714
▁realized	-11.3715
onlyinclude	-11.3716
▁Krishna	-11.3716
▁discrimination	-11.3716
▁Spencer	-11.3716
escu	-11.3717
ło	-11.3717
▁screenplay	-11.3719
illon	-11.372
▁Torre	-11.3723
▁habit	-11.3724
▁Corp	-11.3729
▁Milwaukee	-11.3732
▁sculptor	-11.3732
▁protocol	-11.3732
▁Ancient	-11.3732
▁smoke	-11.3733
▁Edmund	-11.3733
▁Cuban	-11.3737
▁geographical	-11.3742
▁VII	-11.3743
▁upcoming	-11.3744
ğ	-11.3749
▁Continental	-11.3749
▁fulfill	-11.3749
▁grid	-11.3761
logist	-11.3762
bacter	-11.3762
▁Geneva	-11.3765
▁customer	-11.3765
▁automobile	-11.3766
▁shield	-11.3766
▁Isaac	-11.3766
▁Prison	-11.3769
songwriter	-11.3775
▁Return	-11.3775
Char	-11.3778
urban	-11.3779
▁Poll	-11.378
▁Volunteer	-11.3783
▁circular	-11.3783
III	-11.3784
▁Read	-11.3795
▁announce	-11.3798
▁Canton	-11.3798
▁1849	-11.3798
▁threw	-11.3799
▁releasing	-11.3799
▁clerk	-11.3799
▁Libya	-11.3808
▁successive	-11.381
▁interval	-11.3811
▁Watch	-11.3811
▁exclude	-11.3816
▁molecular	-11.3816
▁improving	-11.3816
▁migration	-11.3816
▁Yellow	-11.3817
▁rainfall	-11.3817
▁Pick	-11.3817
▁clip	-11.3817
▁Hull	-11.3825
▁Using	-11.3826
cellular	-11.3827
▁volleyball	-11.3833
▁Maxim	-11.384
▁closest	-11.3841
▁Stoke	-11.3844
▁Organ	-11.3845
▁Armenia	-11.3846
▁Rice	-11.385
Ö	-11.385
▁ibn	-11.3851
▁Consul	-11.386
▁bike	-11.386
ucci	-11.3861
connect	-11.3862
pala	-11.3862
▁terror	-11.3867
▁Physics	-11.3867
▁disagree	-11.3867
▁Brussels	-11.3867
▁Franz	-11.3868
▁Break	-11.387
▁manga	-11.3872
▁repeatedly	-11.3876
▁Advisory	-11.3884
▁PlayStation	-11.3884
▁bicycle	-11.3884
▁Outstanding	-11.3885
▁admission	-11.3885
▁quoted	-11.3888
▁$6	-11.3888
▁Rank	-11.3891
7,000	-11.3893
▁psycho	-11.3896
▁Newport	-11.3897
▁Tiger	-11.3898
ο	-11.3901
▁streak	-11.3901
▁admit	-11.3902
▁Dale	-11.3902
▁Mix	-11.3904
posing	-11.3905
note	-11.3911
▁Artillery	-11.3918
▁Universe	-11.3918
▁freestyle	-11.3921
electric	-11.3927
▁Sox	-11.3929
▁Morocco	-11.3935
▁Official	-11.3935
▁bold	-11.3937
▁secular	-11.3937
▁2.5	-11.3937
▁Rapid	-11.3938
▁seventeen	-11.3939
▁southwestern	-11.394
▁scout	-11.3944
eiro	-11.3945
▁algebra	-11.3952
▁headquartered	-11.3952
▁putting	-11.3952
▁drag	-11.3955
▁blame	-11.3962
▁Khal	-11.3963
▁elaborate	-11.3969
▁registration	-11.3969
▁Westminster	-11.3969
▁Albany	-11.3969
▁Credit	-11.3969
▁Prof	-11.3972
▁quadr	-11.3973
▁Julian	-11.3973
▁Oslo	-11.3985
▁Saskatchewan	-11.3986
▁quiet	-11.3986
▁crack	-11.3986
▁entertain	-11.3989
▁0.1	-11.3995
Cycl	-11.3997
▁strange	-11.3998
▁vital	-11.4
built	-11.4003
▁curriculum	-11.4003
▁mathematical	-11.4003
▁persuade	-11.4003
▁fence	-11.4008
published	-11.4013
▁pine	-11.4013
▁suddenly	-11.4017
▁Competition	-11.402
▁dubbed	-11.402
▁Chapter	-11.402
▁slip	-11.4036
▁Sylv	-11.4037
▁Solomon	-11.4037
▁abilities	-11.4037
▁NATO	-11.4038
▁NASA	-11.4038
▁infant	-11.4039
▁decree	-11.4048
▁Filipino	-11.4055
▁Santiago	-11.4055
▁clergy	-11.4055
▁Bennett	-11.4055
▁Tun	-11.4061
▁Princeton	-11.4067
▁specified	-11.4075
▁journalism	-11.4081
▁plum	-11.4086
▁Lutheran	-11.4089
▁memoir	-11.4089
▁cheap	-11.4089
▁cabin	-11.409
▁Curtis	-11.4091
▁layout	-11.4092
▁aerial	-11.4095
natural	-11.41
▁diplomat	-11.41
▁Saf	-11.4101
▁Casa	-11.4106
▁navigation	-11.4106
▁François	-11.4106
▁comprising	-11.4106
▁parade	-11.4109
▁consent	-11.4109
▁fiber	-11.4111
▁commentator	-11.4119
▁teeth	-11.4125
▁irre	-11.4126
udge	-11.4127
▁fallen	-11.4127
▁Richardson	-11.4137
corn	-11.4139
▁1858	-11.414
▁Zimbabwe	-11.4141
▁radiation	-11.4141
▁routine	-11.4141
▁striking	-11.4141
▁revolt	-11.4141
stadt	-11.4143
cyclo	-11.4143
▁biography	-11.4146
▁Liberty	-11.4146
▁disrupt	-11.4151
wheel	-11.4152
▁judicial	-11.4158
▁peninsula	-11.4158
▁Doug	-11.4159
▁Emmy	-11.4161
▁favourite	-11.4166
▁Rush	-11.4166
Connor	-11.4172
▁seriously	-11.4175
ń	-11.4175
▁pursued	-11.4176
▁identification	-11.4176
▁integral	-11.4176
▁circum	-11.4176
▁Ahmad	-11.4176
▁dancing	-11.4178
▁Denis	-11.418
▁Tampa	-11.418
▁Bradley	-11.4182
January	-11.4187
June	-11.4187
▁travelling	-11.4193
▁impressive	-11.4193
▁Wonder	-11.4193
▁Annual	-11.4196
▁northeastern	-11.4199
▁Abd	-11.42
▁Gren	-11.4202
▁forcing	-11.4209
▁apprentice	-11.4211
▁exterior	-11.4211
▁seized	-11.4211
▁Holmes	-11.4215
▁lover	-11.4218
▁1853	-11.4227
▁assembled	-11.4228
▁quantum	-11.4228
▁pursuit	-11.4228
▁Shadow	-11.4228
specific	-11.4228
▁width	-11.4228
▁entity	-11.4229
▁showcase	-11.4229
▁indeed	-11.423
▁Trent	-11.423
▁airfield	-11.4231
▁Dynasty	-11.4246
▁autumn	-11.4246
▁Worcester	-11.4246
▁sediment	-11.4246
▁snake	-11.4246
▁merely	-11.4246
woman	-11.4246
▁cotton	-11.4246
▁Wildlife	-11.4246
▁mosque	-11.4247
▁Pitt	-11.4248
▁Duncan	-11.425
helm	-11.425
▁instant	-11.4251
▁Nancy	-11.4257
▁noise	-11.426
▁Episcopal	-11.4263
▁marble	-11.4265
▁contend	-11.4276
▁implicat	-11.4281
▁nineteenth	-11.4281
▁leak	-11.4283
▁Aaron	-11.4283
▁Bran	-11.4286
factor	-11.4291
▁Relations	-11.4293
▁1.5	-11.4294
USA	-11.4297
▁Publishing	-11.4299
▁membrane	-11.4299
▁spark	-11.4303
▁100,000	-11.4304
▁duration	-11.4305
first	-11.431
▁golden	-11.4312
▁Citizen	-11.4316
▁Luxembourg	-11.4316
▁audition	-11.4327
▁logic	-11.4327
▁Take	-11.4329
▁Environment	-11.4331
▁quit	-11.4332
▁Cyprus	-11.4334
▁Progressive	-11.4334
▁Idaho	-11.4334
▁replica	-11.4342
▁handling	-11.4342
▁libraries	-11.4352
▁mollusk	-11.4352
▁emerging	-11.4352
Category	-11.4352
▁commentary	-11.4358
▁Drum	-11.4359
October	-11.4363
▁1851	-11.4368
▁Thur	-11.4371
▁pond	-11.4376
▁Weekly	-11.4378
wave	-11.438
▁guidance	-11.4387
▁educator	-11.4387
▁innovative	-11.4387
▁beneath	-11.4387
▁batting	-11.4395
▁copyright	-11.4406
▁chorus	-11.4406
▁binding	-11.4408
▁chest	-11.4415
▁suffer	-11.4416
▁Programme	-11.4423
▁Armstrong	-11.4423
▁exhaust	-11.4423
▁depot	-11.4429
▁BCE	-11.4438
▁Fernando	-11.4441
▁sacrifice	-11.4441
▁IBM	-11.4441
▁Complex	-11.4441
▁Gamb	-11.4443
fund	-11.445
▁assassin	-11.4452
immer	-11.4454
▁Advanced	-11.4459
▁Lithuania	-11.4459
▁warfare	-11.4459
▁Hindi	-11.4459
▁Nun	-11.446
▁Lynn	-11.4465
▁trait	-11.4465
▁observer	-11.4469
ð	-11.4477
▁Tennis	-11.4478
▁virtually	-11.4481
▁occasional	-11.4484
▁Triple	-11.4494
▁Additional	-11.4494
μ	-11.4495
▁confidence	-11.4495
▁scan	-11.4496
▁oak	-11.4499
▁altar	-11.4503
▁advertisement	-11.4513
▁aggressive	-11.4513
▁bankruptcy	-11.4513
▁survival	-11.4513
pole	-11.4513
▁worse	-11.4514
methyl	-11.4524
▁boss	-11.4527
▁withdrawn	-11.4529
▁terrain	-11.4531
▁Globe	-11.4531
▁Davies	-11.4531
▁ghost	-11.4533
▁Clement	-11.4548
▁Chelsea	-11.4549
▁Gerald	-11.455
▁Malta	-11.4552
▁HIV	-11.4554
▁rough	-11.4554
▁Franc	-11.4564
▁harvest	-11.4567
▁Animal	-11.4567
▁bulk	-11.4568
▁valve	-11.4569
▁severely	-11.4577
November	-11.458
Ireland	-11.458
▁bassist	-11.4582
ław	-11.4583
▁Johan	-11.4585
▁Distinguish	-11.4585
▁alphabet	-11.4585
▁limestone	-11.4585
▁Brighton	-11.4585
▁vinyl	-11.4585
section	-11.4596
▁cream	-11.4597
clusive	-11.4602
▁breath	-11.4604
▁antenna	-11.4604
▁rebounds	-11.4604
▁Planning	-11.4607
▁hide	-11.4618
▁renovated	-11.4622
▁Calgary	-11.4622
▁convoy	-11.4622
▁Explo	-11.4624
▁enthusiast	-11.464
▁Twitter	-11.464
▁stability	-11.464
▁offense	-11.4646
▁lessons	-11.4648
▁Webb	-11.4657
▁Scientific	-11.4658
▁democracy	-11.4658
▁measuring	-11.4658
▁transmitter	-11.4658
▁irregular	-11.4658
▁conclude	-11.4666
Life	-11.4668
▁Ranch	-11.4669
heart	-11.4672
▁Haiti	-11.4674
▁recall	-11.4674
▁Academic	-11.4676
eater	-11.4678
▁clash	-11.4681
▁Marcel	-11.4682
▁withdraw	-11.4682
▁Nigerian	-11.469
▁Salvador	-11.4695
▁twentieth	-11.4695
▁Cardiff	-11.4695
▁ramp	-11.4698
onym	-11.4702
district	-11.4711
▁surgeon	-11.4713
▁Study	-11.4713
▁Course	-11.4714
▁pounds	-11.4715
▁novelist	-11.4717
▁resign	-11.4719
öl	-11.4721
mura	-11.4725
▁turbine	-11.4732
▁Windsor	-11.4732
▁Leslie	-11.4733
▁regardless	-11.4734
▁occurring	-11.4736
▁confusion	-11.4737
></	-11.475
▁subspecies	-11.475
▁relegation	-11.475
▁pension	-11.4752
▁Cran	-11.4752
science	-11.4765
▁egg	-11.4767
▁Kingston	-11.4768
▁preliminary	-11.4768
▁welfare	-11.4768
▁allegations	-11.4768
▁Mira	-11.4769
▁boost	-11.4773
▁Folk	-11.4775
▁Steam	-11.4775
version	-11.4783
▁Worth	-11.4791
government	-11.4801
grove	-11.4803
▁Powell	-11.4805
▁McDonald	-11.4806
▁evaluation	-11.4806
▁varieties	-11.4806
▁compensation	-11.4806
▁ESPN	-11.4806
▁cyclist	-11.4806
▁citizenship	-11.4808
hausen	-11.4809
▁revolutionary	-11.481
▁Found	-11.4814
▁Philosophy	-11.4824
▁wreck	-11.4824
▁Gustav	-11.4825
sexual	-11.4825
▁torture	-11.4829
Phil	-11.4831
album	-11.4834
▁Clear	-11.4835
▁upset	-11.4839
▁remember	-11.484
▁enforce	-11.4842
▁Frankfurt	-11.4843
▁authentic	-11.4843
khan	-11.4843
▁subfamily	-11.4844
▁onwards	-11.4845
▁Bradford	-11.4846
▁dying	-11.4847
▁Subsequently	-11.4849
▁assassination	-11.485
▁colonel	-11.4852
▁missionary	-11.4857
▁Viking	-11.4861
▁Guatemala	-11.4861
▁accommodation	-11.4861
▁Edmonton	-11.4861
▁governed	-11.4861
▁Traditional	-11.4861
▁ornament	-11.4862
▁concentrated	-11.4863
▁armour	-11.4865
▁polar	-11.4867
▁Preston	-11.4867
▁Kho	-11.4873
original	-11.4875
▁remnant	-11.488
▁easier	-11.488
plex	-11.4881
▁Cecil	-11.4881
▁gig	-11.4891
▁sustain	-11.4894
▁crush	-11.4894
holm	-11.4897
▁ceiling	-11.4899
▁Benedict	-11.4899
▁Mongolia	-11.4899
▁Safety	-11.4899
▁diploma	-11.4899
▁Champ	-11.4899
▁distant	-11.4899
▁Valentin	-11.4901
▁lifestyle	-11.4905
▁northwestern	-11.4905
▁currency	-11.4918
▁Henderson	-11.4918
▁endangered	-11.4918
▁ultra	-11.4918
▁vowel	-11.4918
▁girlfriend	-11.4918
▁chip	-11.4918
▁suburban	-11.4924
▁LGBT	-11.4936
▁preservation	-11.4936
▁Actress	-11.4937
▁1852	-11.4953
▁fixture	-11.4955
▁Cavalry	-11.4955
▁revived	-11.4955
▁Monument	-11.4955
▁1846	-11.4955
▁Crystal	-11.4955
▁swimmer	-11.4956
▁nerve	-11.4956
▁sustainable	-11.4959
▁boom	-11.496
▁rally	-11.497
▁Albania	-11.4973
▁Manitoba	-11.4974
▁ammunition	-11.4974
▁Resources	-11.4974
▁facade	-11.4976
▁referr	-11.4986
When	-11.4987
▁Chronicle	-11.4993
▁Memphis	-11.4993
▁consort	-11.4993
▁dinner	-11.4993
▁Ultimate	-11.4993
▁blend	-11.4993
▁console	-11.4994
▁trademark	-11.4997
▁Strait	-11.5008
▁pink	-11.5011
▁excavation	-11.5012
▁siblings	-11.5012
▁thriller	-11.5012
▁Gospel	-11.5012
▁Fuji	-11.5018
▁conquest	-11.5019
–15	-11.5021
half	-11.5023
▁tire	-11.5025
▁Martha	-11.5025
▁excess	-11.5028
▁Shak	-11.5034
▁Caroline	-11.5037
▁systematic	-11.5039
▁hung	-11.5039
▁ballet	-11.5044
▁Lisa	-11.5047
▁pregnant	-11.505
▁probability	-11.505
▁prompted	-11.505
▁Gibson	-11.505
▁undertaken	-11.505
▁Mobile	-11.505
▁Rifle	-11.505
▁wildlife	-11.5051
▁rational	-11.5055
▁conceived	-11.5069
▁democratic	-11.5069
▁privilege	-11.5069
▁preparing	-11.5069
▁optical	-11.5069
▁stint	-11.5069
▁imposed	-11.507
▁Johnston	-11.5088
▁Lithuanian	-11.5088
▁capabilities	-11.5088
▁invitation	-11.5088
▁Canyon	-11.5091
▁Photo	-11.5091
▁Harper	-11.5095
▁Southwest	-11.5095
▁sup	-11.5096
graduate	-11.5098
▁vine	-11.51
▁digit	-11.5102
▁Marcus	-11.5103
▁Raw	-11.5104
▁Mull	-11.5106
▁Chancellor	-11.5107
▁Commercial	-11.5107
▁statistical	-11.5107
▁vegetable	-11.5107
symmetric	-11.5107
▁villain	-11.5107
_4	-11.5111
prop	-11.5111
▁Gibb	-11.5118
aternity	-11.5122
▁Flag	-11.5123
▁Hammer	-11.5123
▁withdrawal	-11.5124
▁laser	-11.5125
▁Individual	-11.5126
▁Seminary	-11.5126
▁Apollo	-11.5127
▁Account	-11.5128
▁Adrian	-11.5133
▁Again	-11.514
tribution	-11.5141
National	-11.5143
в	-11.5146
▁Mercury	-11.5146
▁Shield	-11.5146
▁Flower	-11.5146
▁impression	-11.5146
▁pace	-11.5146
▁Sheriff	-11.5147
▁Fraser	-11.5147
▁Border	-11.5151
▁1500	-11.5156
▁grandmother	-11.5165
▁delegation	-11.5165
▁Comedy	-11.5165
▁Claude	-11.5166
▁2–0	-11.5167
▁Winner	-11.5174
▁detective	-11.5175
▁Canterbury	-11.5184
▁Nintendo	-11.5184
▁impressed	-11.5184
▁cruiser	-11.5197
▁licence	-11.5203
▁FBI	-11.5203
▁shrine	-11.5203
burgh	-11.5223
▁Tunisia	-11.5223
▁plaque	-11.5227
Note	-11.5227
▁foster	-11.5234
▁linguistic	-11.5242
▁finite	-11.5242
▁kitchen	-11.5243
▁Herald	-11.5246
▁Reynolds	-11.5261
▁voltage	-11.5261
▁Plymouth	-11.5261
▁wagon	-11.5265
▁Josh	-11.5266
▁Hugo	-11.5276
▁communicate	-11.5281
▁derivative	-11.5281
▁phenomenon	-11.5281
▁Interior	-11.5281
▁Fellowship	-11.5285
▁Single	-11.5287
bourne	-11.5291
▁Brent	-11.5298
April	-11.5298
▁peasant	-11.53
▁Jesuit	-11.53
▁carved	-11.5308
▁phosph	-11.5312
▁mature	-11.5313
▁acknowledged	-11.532
▁inaugurated	-11.532
▁presidency	-11.532
▁thorough	-11.532
▁literally	-11.532
▁intensity	-11.532
▁preference	-11.5322
▁supervision	-11.5322
▁underlying	-11.5324
▁perception	-11.5326
▁conviction	-11.5327
▁Alternative	-11.534
▁expelled	-11.534
▁Bedford	-11.534
▁unclear	-11.5351
▁0.2	-11.5352
▁trim	-11.5352
▁ranch	-11.5357
responsibilities	-11.5359
▁homosexual	-11.5359
▁Kenneth	-11.5359
stroke	-11.536
▁Bolivia	-11.536
▁$7	-11.5361
▁tribal	-11.5361
▁Index	-11.5362
▁suggestion	-11.5363
1,000	-11.537
▁Fiji	-11.5377
β	-11.5379
▁furniture	-11.5379
▁vicinity	-11.5379
ą	-11.5379
▁tobacco	-11.5379
▁NH	-11.5382
disc	-11.5382
charge	-11.5383
▁naming	-11.5384
▁cruise	-11.5384
▁Watt	-11.5388
engine	-11.5391
dress	-11.5393
▁axis	-11.5397
с	-11.5398
▁portfolio	-11.5398
▁lobby	-11.5398
▁arbitr	-11.5398
▁Bailey	-11.5399
▁crater	-11.5399
▁thermal	-11.5403
▁vault	-11.5403
▁relocat	-11.5407
▁Prefecture	-11.5418
▁trophy	-11.5419
▁Zhang	-11.5421
▁mild	-11.5427
▁informal	-11.5428
▁Planet	-11.5436
lough	-11.5437
▁judgment	-11.5438
▁denomination	-11.5438
▁Female	-11.5438
▁Glass	-11.5439
▁deployment	-11.5441
▁Nadu	-11.5445
▁Agricultural	-11.5458
▁imprisonment	-11.5458
▁diamond	-11.5458
▁dwelling	-11.5458
▁legendary	-11.5464
▁Witt	-11.5466
partisan	-11.5467
December	-11.5476
▁emigrated	-11.5478
▁autonomous	-11.5478
40,000	-11.5487
Port	-11.5491
construct	-11.5496
▁Kazakhstan	-11.5497
▁vegetation	-11.5497
▁Headquarters	-11.5497
▁utility	-11.5497
▁Amateur	-11.5498
▁Julia	-11.5501
Rock	-11.5508
▁Mich	-11.5508
▁lying	-11.551
drome	-11.551
▁woodland	-11.551
bahn	-11.5512
▁Ellen	-11.5514
▁spectrum	-11.5517
▁revenge	-11.5517
▁warrior	-11.5518
▁accordance	-11.5519
▁Morrison	-11.5534
▁proximity	-11.5537
▁stolen	-11.5539
▁frog	-11.5542
▁1,0	-11.5556
ï	-11.5557
▁Statistics	-11.5557
▁evaluate	-11.5558
▁Aboriginal	-11.5558
▁Present	-11.5559
▁scattered	-11.5577
▁Coalition	-11.5577
▁Monroe	-11.5578
▁navy	-11.558
flex	-11.5586
September	-11.5596
▁Large	-11.5597
▁Examples	-11.5597
▁Colonial	-11.5597
▁RBI	-11.5598
▁clothes	-11.5598
▁Rochester	-11.56
▁flagship	-11.5603
▁attractive	-11.5604
▁enrollment	-11.5618
▁dispatch	-11.5618
▁Testament	-11.5618
▁remarkable	-11.5618
▁sacred	-11.5618
▁NSW	-11.5618
–12	-11.563
▁Graduate	-11.5638
▁Pool	-11.5644
▁chess	-11.565
▁Level	-11.5656
▁consensus	-11.5658
▁allocated	-11.5658
▁Portsmouth	-11.5658
generation	-11.566
▁1838	-11.5662
▁Edgar	-11.5665
▁Title	-11.5668
▁Jamie	-11.5672
▁Author	-11.5674
▁Emma	-11.5676
▁Amendment	-11.5678
▁Software	-11.5678
▁analyst	-11.5678
▁Critics	-11.568
▁Erik	-11.5681
▁joke	-11.5681
▁Presidential	-11.5684
capacit	-11.5689
▁attribute	-11.569
▁neighbor	-11.5699
▁Thursday	-11.5719
▁cottage	-11.5719
▁Wesley	-11.572
▁legacy	-11.572
▁María	-11.5724
▁recreational	-11.5725
▁bush	-11.5732
▁populated	-11.5739
▁Wyoming	-11.5739
▁disabled	-11.5739
▁wingspan	-11.5741
▁peaceful	-11.5742
▁favorable	-11.575
▁Yemen	-11.575
▁hull	-11.5757
▁romance	-11.576
▁shareholder	-11.576
▁criticised	-11.5762
▁retire	-11.5769
▁USSR	-11.5771
▁Agreement	-11.578
▁Wednesday	-11.578
▁territorial	-11.578
▁Alexandria	-11.578
▁Belfast	-11.578
▁gymnast	-11.578
▁recurring	-11.578
▁evident	-11.578
evich	-11.578
▁sphere	-11.578
▁Shiva	-11.5785
▁brake	-11.5791
▁slavery	-11.5795
▁explosive	-11.5801
▁statute	-11.5801
▁reopened	-11.5801
▁absent	-11.5801
▁opposing	-11.5801
▁creek	-11.5804
▁2.0	-11.5805
▁Strike	-11.581
▁wheat	-11.5821
▁orientation	-11.5821
▁1847	-11.5824
▁audit	-11.583
▁Cohen	-11.5836
▁Congregation	-11.5842
▁mysterious	-11.5842
▁harbour	-11.5842
▁entries	-11.5842
▁intercept	-11.5846
▁Plaza	-11.5848
▁Edge	-11.5849
▁armies	-11.5849
▁Liberation	-11.5852
while	-11.5862
▁Halifax	-11.5862
▁monster	-11.5863
▁hitting	-11.5864
▁stepped	-11.5868
▁Jew	-11.5871
▁Pink	-11.5879
model	-11.5881
▁Sugar	-11.5881
▁unofficial	-11.5885
▁chronicle	-11.5886
▁pathway	-11.5888
ν	-11.5904
к	-11.5904
▁sandstone	-11.5906
February	-11.5924
ř	-11.5924
▁convey	-11.5925
clar	-11.5939
ý	-11.5945
▁Ludwig	-11.5945
▁necessarily	-11.5945
▁subtropical	-11.5945
▁Qatar	-11.5947
▁Faith	-11.5952
ceded	-11.5956
▁tear	-11.5957
culture	-11.5961
disciplinary	-11.5966
▁Sebastian	-11.5966
▁luxury	-11.5966
▁Capitol	-11.5966
▁grammar	-11.5966
president	-11.5966
dynamic	-11.5966
▁Exhibition	-11.5967
▁Moreover	-11.5971
▁salary	-11.5975
earn	-11.5976
▁adoption	-11.5977
▁biology	-11.5981
ι	-11.5987
▁Gujarat	-11.5987
▁censor	-11.5987
▁Learning	-11.5987
▁interception	-11.5989
▁predator	-11.5991
▁textile	-11.5995
▁VIII	-11.5996
▁McCl	-11.5997
▁grape	-11.5998
▁lung	-11.6003
drop	-11.6003
▁slate	-11.6004
▁Klein	-11.6012
▁Chuck	-11.6025
▁Winnipeg	-11.6029
▁feminist	-11.6029
▁ingredient	-11.6029
▁Tanzania	-11.6029
▁Slovakia	-11.6047
▁Without	-11.6048
▁overcome	-11.6065
▁Half	-11.6066
▁rivalry	-11.6067
▁asteroid	-11.6071
▁considerably	-11.6073
▁dismiss	-11.6073
▁Integr	-11.6079
▁banner	-11.608
▁Against	-11.608
▁chase	-11.6081
▁appoint	-11.6088
▁ceremonies	-11.6092
▁Built	-11.6093
▁mural	-11.61
▁Potter	-11.6101
▁Ballet	-11.6105
▁chronic	-11.611
▁Merit	-11.6113
▁playwright	-11.6113
▁plural	-11.6113
▁Nichols	-11.6113
▁ballad	-11.6115
▁Carroll	-11.6118
▁convince	-11.6127
▁Meyer	-11.6127
firm	-11.613
Đ	-11.6134
▁synonym	-11.6135
▁1832	-11.6136
▁Sharp	-11.6138
▁Helm	-11.6148
ρ	-11.6155
▁Hopkins	-11.6155
▁spite	-11.6159
▁dys	-11.616
▁bread	-11.616
▁submit	-11.6169
▁Industries	-11.6177
▁Access	-11.6177
▁analyze	-11.6177
▁Istanbul	-11.6198
▁corridor	-11.6198
▁Belgrade	-11.6198
▁Nobel	-11.6216
▁sweep	-11.622
▁Janeiro	-11.622
correct	-11.6221
▁sponsorship	-11.6222
▁hook	-11.6229
▁basal	-11.6231
▁Lynch	-11.6236
▁activated	-11.6241
▁drainage	-11.6245
▁boiler	-11.6263
▁Population	-11.6263
▁Thames	-11.6264
▁Harbour	-11.6264
▁mutation	-11.6274
▁hurricane	-11.6284
▁practitioner	-11.6284
▁strategies	-11.6284
▁unveiled	-11.6284
▁preceding	-11.6284
▁Orlando	-11.6284
▁alumni	-11.6284
▁pupil	-11.6292
▁Jesse	-11.6295
▁Carnegie	-11.6305
▁Herzegovina	-11.6305
▁Jennifer	-11.6305
▁certification	-11.6305
′	-11.6305
▁motif	-11.6305
▁lodge	-11.6306
▁Brewer	-11.6312
▁shaft	-11.6312
▁Walsh	-11.6323
т	-11.6327
▁pollution	-11.6327
▁twist	-11.6327
▁abortion	-11.6327
▁tumor	-11.633
▁repris	-11.6332
▁adhere	-11.6334
▁Blair	-11.6348
▁cycling	-11.6349
▁catalogue	-11.635
▁exempt	-11.6351
▁Counties	-11.6358
▁unexpected	-11.637
▁equity	-11.637
▁aftermath	-11.6371
▁intact	-11.6375
▁Kosovo	-11.6392
▁clause	-11.6392
▁Fifth	-11.6392
▁congressional	-11.6392
modern	-11.6394
▁mythology	-11.6395
▁tonnes	-11.6396
▁Springfield	-11.6397
fiction	-11.6406
▁Given	-11.6408
▁Pip	-11.6412
▁Diploma	-11.6414
▁hectares	-11.6414
▁Establish	-11.6414
▁humid	-11.6415
▁ease	-11.6415
continent	-11.6416
▁warrant	-11.6422
▁dragon	-11.6428
▁pyr	-11.6434
▁Mathematics	-11.6436
▁adequate	-11.6436
▁Task	-11.644
frame	-11.644
▁Depression	-11.644
rigg	-11.644
▁Abbot	-11.6442
▁palm	-11.645
▁declaration	-11.6458
▁spider	-11.6458
▁physio	-11.646
▁Cornell	-11.6465
▁Louisville	-11.647
▁Investment	-11.6479
▁achieving	-11.6479
▁Lombard	-11.6479
▁bureau	-11.6479
▁outlets	-11.6482
▁correspondent	-11.6484
▁Ulster	-11.6485
▁congress	-11.6486
▁hind	-11.6491
▁Aberdeen	-11.6501
▁Buddhism	-11.6501
▁accredited	-11.6501
▁Naples	-11.6502
▁rectangular	-11.6523
▁proclaimed	-11.6523
▁translator	-11.6523
▁Arsenal	-11.6524
▁blast	-11.6529
▁factories	-11.6531
Old	-11.6544
▁Southampton	-11.6546
▁vacant	-11.6546
▁breach	-11.6546
▁Edwin	-11.6556
▁gather	-11.6563
Brien	-11.6564
▁erect	-11.6567
▁Cambodia	-11.6568
▁virtue	-11.6568
л	-11.6568
▁maternal	-11.6568
▁warehouse	-11.6568
▁Uttar	-11.6569
▁Rachel	-11.6572
▁Newfoundland	-11.659
▁Nacional	-11.659
▁trunk	-11.659
▁harsh	-11.659
wrote	-11.6593
▁Crawford	-11.6612
▁subdivision	-11.6612
İ	-11.6612
▁Siege	-11.6614
Č	-11.6634
▁prominence	-11.6634
▁mystery	-11.6634
franc	-11.6635
▁Negro	-11.664
wolf	-11.6645
▁intersect	-11.6648
▁Architecture	-11.6657
▁constituencies	-11.6657
▁velocity	-11.6657
▁Summit	-11.6657
▁entities	-11.6657
▁Document	-11.6679
▁inspection	-11.6679
▁Heaven	-11.668
▁tutor	-11.6685
Various	-11.6692
▁rubber	-11.6701
▁reactor	-11.6702
Neill	-11.6724
▁healthcare	-11.6724
▁chassis	-11.6724
▁Eurovision	-11.6725
▁kids	-11.6725
▁crucial	-11.6725
▁gentle	-11.6727
▁División	-11.6746
▁Malcolm	-11.6746
▁ancestry	-11.6746
1⁄2	-11.6747
▁truly	-11.6747
▁fiscal	-11.6748
▁Maritime	-11.6752
lithic	-11.6755
▁Lancaster	-11.6769
▁Statistical	-11.6769
▁Trinidad	-11.6769
▁Screen	-11.677
▁blade	-11.677
▁concurrent	-11.6772
President	-11.6773
▁excessive	-11.6773
▁watershed	-11.6778
▁cement	-11.678
▁badge	-11.6784
▁prosecution	-11.6792
▁endorsed	-11.6792
▁robber	-11.6792
▁surpass	-11.6793
developed	-11.6795
▁Salem	-11.6798
runner	-11.6805
▁Sacramento	-11.6814
▁custody	-11.6814
▁anthology	-11.6815
▁sudden	-11.6818
▁Jorge	-11.6819
▁merit	-11.6834
▁melt	-11.6836
τ	-11.6837
▁alignment	-11.6837
▁Ernst	-11.6837
▁Lebanese	-11.686
▁ceramic	-11.686
▁Picture	-11.6866
▁flame	-11.6871
▁defendant	-11.6879
▁militant	-11.6883
▁Yankees	-11.6883
▁Gaelic	-11.6883
▁lunch	-11.6887
function	-11.6887
French	-11.6887
▁accidentally	-11.6889
▁astronomer	-11.6906
▁scenario	-11.6906
▁Insurance	-11.6906
▁Superior	-11.6906
▁whale	-11.6907
▁flora	-11.6908
▁pocket	-11.6908
▁Communication	-11.6912
▁LLC	-11.6914
Donnell	-11.6914
▁granite	-11.6929
▁allied	-11.694
▁rope	-11.6949
▁batteries	-11.6951
▁Dubai	-11.6952
▁reliable	-11.6952
▁propose	-11.6953
▁Tyler	-11.696
▁hatch	-11.6973
▁Confederation	-11.6975
▁Wagner	-11.6975
▁accent	-11.6976
▁Current	-11.6979
▁remind	-11.6982
▁Merri	-11.6995
▁assumption	-11.6998
▁butterfly	-11.6998
▁philosophical	-11.6998
▁Tuesday	-11.6998
▁Grammar	-11.6998
▁generator	-11.7
▁Tunnel	-11.7004
Little	-11.7005
▁slight	-11.7013
▁Jenkins	-11.7021
▁inhabit	-11.7027
▁Spider	-11.703
girl	-11.7035
▁Suffolk	-11.7044
▁Julius	-11.7044
▁pageant	-11.7046
▁clad	-11.7058
▁geometry	-11.7067
▁mammals	-11.7067
▁electorate	-11.7067
▁Custom	-11.7067
▁Criminal	-11.7091
▁hazard	-11.7091
▁shadow	-11.7091
▁substrate	-11.7091
▁Housing	-11.7091
▁Linux	-11.7092
▁interactive	-11.7099
static	-11.7101
▁prosecutor	-11.7114
▁Adolf	-11.7114
▁Popular	-11.7115
▁Betty	-11.7123
▁Stalin	-11.7126
▁Observatory	-11.7137
▁tornado	-11.7137
▁compromise	-11.7137
▁Meadow	-11.7153
▁abundant	-11.7161
▁screenwriter	-11.7162
▁Aviv	-11.7166
Blue	-11.7167
▁civilization	-11.7169
▁Clinic	-11.7171
ε	-11.7184
▁economist	-11.7184
▁Samoa	-11.7199
▁rookie	-11.7208
▁invaded	-11.7208
skaya	-11.7213
▁fitness	-11.7213
▁amino	-11.7222
▁Previously	-11.7232
▁artifacts	-11.7232
▁vulnerable	-11.7232
▁goddess	-11.7232
▁skating	-11.7232
mplified	-11.7232
Institut	-11.7235
▁computation	-11.7255
▁harbor	-11.7255
▁computing	-11.7255
▁recess	-11.7257
▁polymer	-11.7261
▁volcanic	-11.7279
▁Speedway	-11.7279
▁Partners	-11.7279
▁plague	-11.7283
system	-11.7288
▁Cerambycidae	-11.7303
▁Griffith	-11.7303
▁Holocaust	-11.7303
▁enclosed	-11.7303
▁obligation	-11.7303
▁Griffin	-11.7303
▁Deutsche	-11.7303
▁sitcom	-11.7308
glyc	-11.7314
▁cease	-11.7322
▁iTunes	-11.7327
▁Dorothy	-11.7327
▁punch	-11.7328
▁feather	-11.7328
United	-11.7333
▁Cameroon	-11.7351
▁enormous	-11.7351
▁propaganda	-11.7351
▁Glacier	-11.7351
▁removing	-11.7351
▁Heinrich	-11.7351
▁Bronze	-11.7351
▁Caesar	-11.7352
▁correspondence	-11.7353
▁Combat	-11.7354
▁Colony	-11.7354
▁Madagascar	-11.7375
▁autobiography	-11.7375
▁availability	-11.7375
▁powder	-11.7375
▁Gandhi	-11.7375
▁email	-11.7375
fjord	-11.7375
▁Serv	-11.7378
footballer	-11.7381
▁conspiracy	-11.7399
▁mathematician	-11.7399
▁Seoul	-11.7399
▁Drake	-11.74
▁leather	-11.7401
▁Dylan	-11.7402
▁Chandra	-11.7402
▁Hydro	-11.7403
▁batted	-11.7407
▁recreation	-11.7415
▁Jeremy	-11.7423
▁consecrated	-11.7423
▁maritime	-11.7423
▁nursing	-11.7423
▁Darwin	-11.7426
▁generic	-11.7429
▁geographic	-11.7435
▁affiliation	-11.7447
▁hypothesis	-11.7447
▁cognitive	-11.7447
▁Papua	-11.7449
“	-11.7454
▁Maharashtra	-11.7471
▁charitable	-11.7471
▁deceased	-11.7471
▁Volume	-11.7471
▁rebuild	-11.7479
▁Mohammad	-11.7495
▁consciousness	-11.7495
▁frigate	-11.7495
ová	-11.7496
2008	-11.7498
▁rip	-11.7501
▁elephant	-11.752
▁uprising	-11.752
▁declare	-11.7541
▁pseudonym	-11.7544
▁reconnaissance	-11.7544
▁thread	-11.7544
▁inquiry	-11.7546
family	-11.755
▁Minneapolis	-11.7569
▁challenging	-11.7569
▁Baldwin	-11.7569
▁Pirates	-11.7569
▁Resident	-11.7569
▁Reagan	-11.7571
▁Slovak	-11.7572
▁Creative	-11.7576
▁arrange	-11.7579
effect	-11.7592
▁extraordinary	-11.7593
▁cuisine	-11.7593
▁neglect	-11.7593
▁Feature	-11.7593
▁Knox	-11.7593
▁insisted	-11.7595
▁merge	-11.7596
Journal	-11.7601
current	-11.7616
▁terrestrial	-11.7618
▁Valencia	-11.7618
▁hymn	-11.7618
▁Cairo	-11.7619
▁immigrant	-11.7623
dependent	-11.7631
▁Kashmir	-11.7642
▁celebrity	-11.7642
▁quantity	-11.7642
▁proceedings	-11.7647
▁capability	-11.7647
▁Budapest	-11.7667
▁civic	-11.7667
▁Chemical	-11.7667
▁purple	-11.7669
▁Boeing	-11.767
America	-11.7673
▁observe	-11.7674
ς	-11.7692
▁Unfortunately	-11.7692
▁arguing	-11.7692
▁extant	-11.7692
▁knockout	-11.7694
▁pipeline	-11.7695
▁UNESCO	-11.7716
▁testimony	-11.7716
▁Marathon	-11.7716
▁triangle	-11.7716
public	-11.7736
▁2012–13	-11.7741
▁Constantinople	-11.7741
▁introducing	-11.7741
▁Lisbon	-11.7742
▁Bombay	-11.7743
▁paved	-11.7746
league	-11.7755
▁maxim	-11.7763
▁catalog	-11.7765
▁pseudo	-11.7766
▁brutal	-11.7766
▁Clyde	-11.7767
▁Angola	-11.7773
▁(2006)	-11.7791
▁sentiment	-11.7791
▁Hampton	-11.7795
▁Scots	-11.7796
▁Yoshi	-11.7808
▁punish	-11.7811
▁percussion	-11.7816
▁supplier	-11.7816
▁Paraguay	-11.7816
▁investigator	-11.7816
▁memories	-11.7816
▁default	-11.7817
▁Telegraph	-11.7818
purpose	-11.7823
European	-11.7825
White	-11.7825
ा	-11.7841
▁struggling	-11.7841
▁voluntary	-11.7841
▁Kuwait	-11.7842
▁Czechoslovakia	-11.7848
▁3.0	-11.7853
▁occurrence	-11.7867
▁prolific	-11.7867
▁commuter	-11.7868
▁Emergency	-11.7892
▁accumulate	-11.7892
▁coordinator	-11.7892
▁lesbian	-11.7892
▁Sicily	-11.7892
▁promising	-11.7892
▁enacted	-11.7892
▁remake	-11.7892
▁accuracy	-11.7917
▁collaborator	-11.7917
▁surveillance	-11.7917
▁trumpet	-11.7917
▁Joshua	-11.7918
▁freshwater	-11.7919
▁Aircraft	-11.7921
strict	-11.7938
▁2013–14	-11.7943
▁Fantasy	-11.7943
▁coefficient	-11.7943
▁reluctant	-11.7943
▁Terminal	-11.7943
▁Vatican	-11.7943
▁garage	-11.7943
▁swamp	-11.7947
▁Beatles	-11.7947
Saint	-11.7957
λ	-11.7968
ż	-11.7968
▁Karnataka	-11.7968
▁cardinal	-11.7968
▁decay	-11.7969
▁divine	-11.797
▁trapped	-11.7972
▁Treasury	-11.7994
▁suffix	-11.7994
▁depiction	-11.7994
▁commerce	-11.7994
▁cheese	-11.7994
▁Cotton	-11.7994
▁spacecraft	-11.7996
▁Visual	-11.7998
therapy	-11.8004
▁technological	-11.8019
▁Recreation	-11.8019
▁Cologne	-11.8019
▁Jeffrey	-11.8019
▁Crusade	-11.802
▁Sometimes	-11.802
▁nominal	-11.8022
famous	-11.8029
▁García	-11.8045
▁Leipzig	-11.8045
▁Species	-11.8045
▁Omaha	-11.8045
▁applies	-11.8048
▁chord	-11.8051
▁Normal	-11.8052
Great	-11.8056
▁Inspector	-11.807
▁qualities	-11.8071
▁pistol	-11.8071
▁MLB	-11.8071
▁alert	-11.8073
▁Maxwell	-11.8074
▁pirate	-11.8084
▁advancing	-11.8096
▁juvenile	-11.8096
▁2011–12	-11.8098
▁arcade	-11.8098
▁plateau	-11.8099
quarter	-11.8106
▁qualifier	-11.8122
▁Thomson	-11.8122
▁enabling	-11.8122
▁Myanmar	-11.8122
▁volcano	-11.8122
▁Bohemia	-11.8123
▁Yugoslav	-11.8124
▁livestock	-11.8125
lecommunications	-11.8133
60,000	-11.8145
▁marathon	-11.8148
▁gravity	-11.8148
▁(2005)	-11.8148
▁turbo	-11.8148
▁Sofia	-11.8149
▁2016–17	-11.815
▁Downtown	-11.8151
▁organizing	-11.8152
▁invite	-11.8156
▁Collegiate	-11.8174
▁Gibraltar	-11.8174
▁Providence	-11.8174
▁Scandinavia	-11.8174
▁combining	-11.8174
▁subordinate	-11.8174
▁Physical	-11.8174
▁repeal	-11.8174
usually	-11.8175
▁slide	-11.8177
▁missionaries	-11.8178
▁ultimate	-11.8181
▁transmitted	-11.82
▁meteor	-11.8201
▁Nixon	-11.8226
▁Derek	-11.823
▁Employ	-11.8252
▁Sanskrit	-11.8252
▁constituent	-11.8252
▁UCLA	-11.8252
▁radius	-11.8252
▁Organisation	-11.8253
▁telescope	-11.8253
▁Winchester	-11.8253
Psych	-11.8253
▁textbook	-11.8255
▁Weather	-11.8256
▁Consequently	-11.8279
▁investigating	-11.8279
ě	-11.8331
Ž	-11.8331
Å	-11.8384
~	-11.8518
ل	-11.8708
ț	-11.8819
Ś	-11.8958
Ō	-11.8986
}	-11.9157
ć	-11.9179
σ	-11.9215
{	-11.9627
κ	-11.9687
î	-11.9748
Ó	-11.9932
π	-12.0026
ò	-12.012
‘	-12.0206
ē	-12.0215
्	-12.0344
ن	-12.0474
õ	-12.0706
д	-12.0773
م	-12.0841
\	-12.0909
ə	-12.0977
·	-12.1081
Ł	-12.1221
Ç	-12.1257
Ø	-12.1292
ر	-12.1471
र	-12.158
м	-12.1953
ő	-12.1991
و	-12.1991
đ	-12.2029
η	-12.2067
ي	-12.2144
у	-12.2222
»	-12.2261
ė	-12.2499
→	-12.2539
ʻ	-12.2701
«	-12.2742
ì	-12.2825
γ	-12.3119
ã	-12.3494
Ş	-12.3555
Ż	-12.3644
ω	-12.3871
@	-12.3871
υ	-12.4104
ب	-12.4151
Ü	-12.4246
δ	-12.4294
்	-12.4586
ư	-12.4635
`	-12.4636
د	-12.4836
Î	-12.4938
й	-12.4989
г	-12.5092
י	-12.5517
ί	-12.5571
я	-12.5792
⁄	-12.5847
ơ	-12.5848
ʼ	-12.5904
ệ	-12.5904
ù	-12.596
ו	-12.6074
ά	-12.6189
†	-12.6248
θ	-12.6365
म	-12.6484
́	-12.6604
п	-12.6664
Æ	-12.6848
û	-12.6848
б	-12.691
ḥ	-12.6973
ʿ	-12.6973
ạ	-12.7291
±	-12.7356
न	-12.7356
Ā	-12.7356
س	-12.7422
§	-12.7554
त	-12.7688
з	-12.7688
ы	-12.803
ь	-12.817
‐	-12.817
Ú	-12.817
φ	-12.8241
क	-12.8241
ŏ	-12.8313
С	-12.8313
Í	-12.8457
ی	-12.8604
ि	-12.8678
ό	-12.8828
ṭ	-12.8903
ả	-12.9057
ه	-12.9212
ṣ	-12.9291
स	-12.9291
£	-12.9329
า	-12.937
中	-12.937
व	-12.937
ţ	-12.945
ṇ	-12.9612
Δ	-12.9944
ч	-13.0029
М	-13.0288
ň	-13.0375
大	-13.0734
ה	-13.0918
া	-13.0918
Σ	-13.1012
ร	-13.1106
ц	-13.1298
ר	-13.1298
ầ	-13.1298
ź	-13.1395
य	-13.1493
œ	-13.1592
ح	-13.1592
ु	-13.1692
ं	-13.1692
ت	-13.1793
ी	-13.1895
Ä	-13.1998
प	-13.2102
ή	-13.2102
द	-13.2102
ů	-13.2207
χ	-13.2207
^	-13.2314
Þ	-13.2314
В	-13.2314
ị	-13.2314
Π	-13.2421
ύ	-13.253
Κ	-13.264
Б	-13.264
ế	-13.264
≤	-13.264
К	-13.264
ع	-13.2751
ह	-13.2977
ồ	-13.2977
Α	-13.3208
े	-13.3208
ल	-13.3326
த	-13.3445
க	-13.3565
ḩ	-13.3565
א	-13.3565
х	-13.3565
ל	-13.3687
®	-13.3811
έ	-13.3811
ர	-13.3936
ி	-13.3936
А	-13.4062
ב	-13.4191
ش	-13.4191
ա	-13.4191
ш	-13.432
ņ	-13.4452
П	-13.4452
ж	-13.4452
ف	-13.4452
Ș	-13.4585
ग	-13.4585
„	-13.4585
ज	-13.472
ד	-13.4857
Ω	-13.528
Т	-13.528
¥	-13.5425
ת	-13.5425
王	-13.5572
ك	-13.5721
Ε	-13.5873
Р	-13.5873
ọ	-13.5873
্	-13.5873
ン	-13.5873
น	-13.6027
Ć	-13.6027
ṃ	-13.6027
Ḥ	-13.6183
ா	-13.6183
村	-13.634
ǎ	-13.6342
і	-13.6342
Н	-13.6342
ج	-13.6342
َ	-13.6342
、	-13.6665
Д	-13.6667
þ	-13.6667
ש	-13.6667
子	-13.6834
Š	-13.6961
ม	-13.7003
Γ	-13.7003
州	-13.7003
ز	-13.7003
อ	-13.7175
南	-13.7351
ง	-13.7351
מ	-13.7351
ũ	-13.7351
李	-13.7351
Г	-13.7351
ờ	-13.7529
天	-13.7529
À	-13.7529
ு	-13.7529
Μ	-13.7711
文	-13.7711
≈	-13.7711
נ	-13.7711
്	-13.7896
ق	-13.7896
ส	-13.8085
ע	-13.8085
ो	-13.8085
ậ	-13.8085
خ	-13.8277
ộ	-13.8277
ன	-13.8277
ק	-13.8277
ḍ	-13.8474
ъ	-13.8474
ն	-13.8474
ة	-13.8474
∞	-13.8474
ĩ	-13.8474
≥	-13.8474
人	-13.8474
เ	-13.8673
ố	-13.8674
∈	-13.8674
ľ	-13.8674
ー	-13.8674
山	-13.8674
一	-13.8878
أ	-13.8878
金	-13.9086
Φ	-13.9086
வ	-13.9086
ک	-13.9086
ɛ	-13.9299
ब	-13.9299
ध	-13.9516
公	-13.9516
生	-13.9516
ώ	-13.9516
太	-13.9516
ம	-13.9516
の	-13.9738
ј	-13.9738
ח	-13.9738
ן	-13.9738
€	-13.9924
《	-13.9966
新	-13.9966
ก	-13.9966
ა	-13.9966
》	-13.9966
ম	-13.9966
ص	-13.9966
学	-13.9966
和	-14.0198
श	-14.0198
ล	-14.0198
이	-14.0198
ո	-14.0198
भ	-14.0198
ิ	-14.0198
镇	-14.0198
平	-14.0198
西	-14.0436
ю	-14.0436
ŋ	-14.0436
Λ	-14.0436
三	-14.0436
ი	-14.068
И	-14.068
Л	-14.068
日	-14.068
¡	-14.093
Ο	-14.093
ว	-14.1187
ť	-14.1187
ξ	-14.1187
ÿ	-14.1187
ր	-14.1187
•	-14.1408
國	-14.145
ั	-14.145
̀	-14.145
О	-14.145
ф	-14.145
च	-14.145
র	-14.145
ை	-14.145
ứ	-14.145
安	-14.145
¢	-14.145
ட	-14.145
ல	-14.145
ப	-14.145
้	-14.145
พ	-14.172
щ	-14.172
ζ	-14.172
張	-14.172
的	-14.172
ǫ	-14.172
道	-14.172
ṅ	-14.1998
Τ	-14.1998
ắ	-14.1998
ļ	-14.1998
国	-14.1998
小	-14.2283
ห	-14.2283
ṛ	-14.2283
書	-14.2283
ի	-14.2283
ħ	-14.2283
ћ	-14.2283
ি	-14.2283
江	-14.2283
家	-14.2578
Θ	-14.2578
Â	-14.2578
ŭ	-14.2578
ǐ	-14.2578
У	-14.2578
ण	-14.2578
Ț	-14.2578
़	-14.2578
イ	-14.2881
ψ	-14.2881
ề	-14.2881
₹	-14.2881
گ	-14.2881
ব	-14.2881
บ	-14.3193
ự	-14.3193
য	-14.3193
ย	-14.3193
北	-14.3516
Χ	-14.3516
ত	-14.3516
כ	-14.3516
פ	-14.3516
劉	-14.3516
ւ	-14.3516
अ	-14.3516
林	-14.3516
ค	-14.3849
ル	-14.3849
ụ	-14.3849
★	-14.3849
城	-14.3849
ǔ	-14.3849
Ι	-14.3849
Β	-14.3849
غ	-14.3849
本	-14.3849
ท	-14.4194
์	-14.4194
ġ	-14.4194
э	-14.4194
‡	-14.4194
Ñ	-14.4194
ё	-14.4194
ỹ	-14.4194
ス	-14.4194
馬	-14.4194
사	-14.4194
明	-14.4194
්	-14.4194
ख	-14.4551
ต	-14.4551
ớ	-14.4551
ủ	-14.4551
上	-14.4551
司	-14.4551
郎	-14.4551
ס	-14.4551
ُ	-14.4551
民	-14.4921
ল	-14.4921
ấ	-14.4921
ử	-14.4921
Ţ	-14.4921
ג	-14.4921
ם	-14.4921
ّ	-14.4921
প	-14.4921
原	-14.4921
門	-14.4921
社	-14.5306
白	-14.5306
ะ	-14.5306
̲	-14.5306
ச	-14.5306
川	-14.5306
್	-14.5306
武	-14.5306
神	-14.5306
ุ	-14.5306
下	-14.5306
高	-14.5306
河	-14.5706
十	-14.5706
่	-14.5706
年	-14.5706
Ц	-14.5706
ः	-14.5706
।	-14.5706
ợ	-14.5706
ỳ	-14.5706
ἀ	-14.5706
二	-14.5706
ط	-14.5706
ड	-14.5706
ন	-14.5706
ে	-14.5706
ḷ	-14.5706
事	-14.5706
石	-14.5706
의	-14.5706
氏	-14.5706
美	-14.5706
軍	-14.5706
기	-14.5706
ய	-14.6123
ี	-14.6123
部	-14.6123
ų	-14.6123
ե	-14.6123
ッ	-14.6123
ɔ	-14.6123
З	-14.6123
田	-14.6123
Ρ	-14.6123
學	-14.6557
・	-14.6557
Ν	-14.6557
ந	-14.6557
Ṣ	-14.6557
≠	-14.6557
ア	-14.6557
我	-14.6557
星	-14.6557
ɣ	-14.6557
Ш	-14.6557
ள	-14.6557
Ī	-14.6557
校	-14.6557
第	-14.6557
ى	-14.6558
ண	-14.6558
ด	-14.7012
­	-14.7012
จ	-14.7012
Х	-14.7012
₱	-14.7012
ラ	-14.7012
ŵ	-14.7012
Η	-14.7012
ט	-14.7012
ष	-14.7012
レ	-14.7012
会	-14.7012
春	-14.7012
海	-14.7012
郡	-14.7012
都	-14.7012
리	-14.7012
ː	-14.7012
ু	-14.7012
東	-14.7012
野	-14.7012
ď	-14.7012
ˈ	-14.7012
ْ	-14.7012
স	-14.7012
之	-14.7488
行	-14.7488
ű	-14.7488
Ἀ	-14.7488
ʾ	-14.7488
ہ	-14.7488
ক	-14.7488
ẓ	-14.7488
ῦ	-14.7488
木	-14.7488
대	-14.7488
侯	-14.7488
士	-14.7488
水	-14.7488
Ф	-14.7488
ช	-14.7988
్	-14.7988
ƒ	-14.7988
ू	-14.7988
ు	-14.7988
京	-14.7988
有	-14.7988
ɑ	-14.7988
կ	-14.7988
ै	-14.7988
ḵ	-14.7988
ổ	-14.7988
⋅	-14.7988
德	-14.7988
華	-14.7988
ꞌ	-14.7988
̃	-14.7988
ḫ	-14.7988
ẕ	-14.7988
ク	-14.7988
ા	-14.7988
る	-14.8514
院	-14.8514
་	-14.8514
。	-14.8514
ศ	-14.8514
ट	-14.8514
地	-14.8514
গ	-14.8514
ὶ	-14.8514
₤	-14.8514
皇	-14.8514
縣	-14.8514
藤	-14.8514
陽	-14.8514
지	-14.8514
ॆ	-14.8515
ḳ	-14.8515
省	-14.8515
い	-14.8515
不	-14.8515
同	-14.8515
ര	-14.8515
利	-14.9069
曲	-14.907
ற	-14.907
長	-14.907
మ	-14.907
ῶ	-14.907
世	-14.907
Œ	-14.907
ẩ	-14.907
≡	-14.907
●	-14.907
乡	-14.907
宮	-14.907
ʔ	-14.907
മ	-14.907
元	-14.907
四	-14.907
玉	-14.907
義	-14.907
도	-14.907
ト	-14.907
ാ	-14.907
Е	-14.907
合	-14.907
东	-14.9658
五	-14.9658
市	-14.9658
한	-14.9658
ἰ	-14.9658
ʃ	-14.9658
জ	-14.9658
ਾ	-14.9658
成	-14.9658
松	-14.9658
시	-14.9658
ِ	-14.9658
চ	-14.9658
ಾ	-14.9658
ロ	-14.9658
ರ	-14.9658
光	-14.9658
ئ	-14.9658
ো	-14.9658
ా	-15.0283
得	-15.0283
Ľ	-15.0283
љ	-15.0283
়	-15.0283
ָ	-15.0283
ਰ	-15.0283
ừ	-15.0283
ド	-15.0283
仁	-15.0283
歌	-15.0283
가	-15.0283
인	-15.0283
إ	-15.0283
হ	-15.0283
基	-15.0283
女	-15.0283
昌	-15.0283
花	-15.0283
記	-15.0283
동	-15.0283
ು	-15.0283
報	-15.0283
ന	-15.0283
ɩ	-15.0283
湖	-15.0949
宗	-15.095
業	-15.095
￼	-15.095
̄	-15.095
愛	-15.095
ക	-15.095
多	-15.095
溪	-15.095
ŷ	-15.095
̊	-15.095
आ	-15.095
॥	-15.095
ర	-15.095
Ṭ	-15.095
ể	-15.095
ữ	-15.095
英	-15.095
集	-15.095
ோ	-15.095
ం	-15.095
ട	-15.095
ි	-15.095
八	-15.095
建	-15.095
ז	-15.095
ە	-15.095
দ	-15.095
ി	-15.095
∂	-15.095
路	-15.095
Ч	-15.095
្	-15.095
章	-15.095
經	-15.095
龙	-15.1664
は	-15.1664
鬼	-15.1664
แ	-15.1664
カ	-15.1664
シ	-15.1664
լ	-15.1664
յ	-15.1664
پ	-15.1664
ನ	-15.1664
侍	-15.1664
화	-15.1664
ẹ	-15.1664
全	-15.1664
后	-15.1664
周	-15.1664
府	-15.1664
志	-15.1664
羅	-15.1664
Ê	-15.1664
į	-15.1664
ķ	-15.1664
ǒ	-15.1664
̈	-15.1664
Ψ	-15.1664
ী	-15.1664
ỗ	-15.1664
你	-15.1664
吉	-15.1664
忠	-15.1664
方	-15.1664
雄	-15.1664
音	-15.1664
다	-15.1664
È	-15.1664
Υ	-15.1664
ּ	-15.1664
ಿ	-15.1664
―	-15.1664
島	-15.1664
ර	-15.1664
教	-15.1664
サ	-15.1664
福	-15.2433
漢	-15.2433
რ	-15.2433
ო	-15.2433
Ж	-15.2433
ַ	-15.2433
ల	-15.2433
ְ	-15.2433
Ə	-15.2433
थ	-15.2433
∴	-15.2433
工	-15.2433
清	-15.2433
정	-15.2433
제	-15.2433
ಮ	-15.2433
吳	-15.2433
心	-15.2433
서	-15.2433
ํ	-15.2434
♭	-15.2434
六	-15.2434
兵	-15.2434
ض	-15.2434
古	-15.3267
里	-15.3267
ლ	-15.3267
ს	-15.3267
ֹ	-15.3267
〈	-15.3267
是	-15.3267
ަ	-15.3267
り	-15.3267
క	-15.3267
ნ	-15.3267
〉	-15.3267
法	-15.3267
چ	-15.3267
ே	-15.3267
ウ	-15.3267
タ	-15.3267
マ	-15.3267
青	-15.3267
ǃ	-15.3267
झ	-15.3267
ृ	-15.3267
শ	-15.3267
ⴰ	-15.3267
『	-15.3267
守	-15.3267
香	-15.3267
국	-15.3267
문	-15.3267
～	-15.3267
¤	-15.3267
Ġ	-15.3267
ք	-15.3267
ා	-15.3267
ු	-15.3267
ḗ	-15.3267
‰	-15.3267
』	-15.3267
オ	-15.3267
井	-15.3267
手	-15.3267
曹	-15.3267
月	-15.3267
次	-15.3267
無	-15.3267
通	-15.3267
重	-15.3267
⁠	-15.3267
体	-15.3267
常	-15.3267
Ј	-15.3267
衛	-15.3267
̧	-15.3267
ു	-15.3267
リ	-15.3267
அ	-15.3267
ိ	-15.3267
プ	-15.3267
ء	-15.3267
港	-15.4175
区	-15.4175
度	-15.4176
ვ	-15.4176
か	-15.4176
相	-15.4176
聖	-15.4176
ஸ	-15.4176
տ	-15.4176
િ	-15.4176
ి	-15.4176
ല	-15.4176
コ	-15.4176
ビ	-15.4176
车	-15.4176
風	-15.4176
민	-15.4176
వ	-15.4176
〜	-15.4176
ģ	-15.4176
ʕ	-15.4176
آ	-15.4176
घ	-15.4176
ん	-15.4176
代	-15.4176
可	-15.4176
戦	-15.4176
부	-15.4176
¿	-15.4176
Ð	-15.4176
Ř	-15.4176
ɗ	-15.4176
ា	-15.4176
ṁ	-15.4176
ἐ	-15.4176
‚	-15.4176
⊗	-15.4176
エ	-15.4176
史	-15.4176
堂	-15.4176
定	-15.4176
寶	-15.4176
獎	-15.4176
科	-15.4176
门	-15.4176
մ	-15.4176
▲	-15.4176
台	-15.4176
广	-15.4176
陳	-15.4176
연	-15.4176
ھ	-15.4176
త	-15.4176
化	-15.4176
育	-15.4176
萬	-15.4176
ಗ	-15.4176
ガ	-15.4176
博	-15.4176
將	-15.4176
治	-15.4176
전	-15.4176
主	-15.5176
百	-15.5176
永	-15.5176
云	-15.5176
土	-15.5176
正	-15.5176
阳	-15.5176
く	-15.5176
語	-15.5176
立	-15.5176
黄	-15.5176
আ	-15.5176
္	-15.5176
შ	-15.5176
技	-15.5176
Э	-15.5176
న	-15.5176
陵	-15.5176
Ħ	-15.5176
ս	-15.5176
ց	-15.5176
ಂ	-15.5176
ằ	-15.5176
动	-15.5176
沙	-15.5176
物	-15.5176
空	-15.5176
龍	-15.5176
ڠ	-15.5176
ெ	-15.5176
ව	-15.5176
⊆	-15.5176
⟩	-15.5176
丸	-15.5176
名	-15.5176
彦	-15.5176
所	-15.5176
限	-15.5176
韓	-15.5176
무	-15.5176
어	-15.5176
여	-15.5176
ʽ	-15.5176
̤	-15.5176
ٹ	-15.5176
പ	-15.5176
Ṛ	-15.5176
ẫ	-15.5176
ᾶ	-15.5176
∧	-15.5176
し	-15.5176
信	-15.5176
君	-15.5176
敬	-15.5176
朱	-15.5176
洋	-15.5176
趙	-15.5176
성	-15.5176
왕	-15.5176
ظ	-15.5176
ँ	-15.5176
ත	-15.5176
ὐ	-15.5176
尚	-15.5176
紀	-15.5176
신	-15.5176
원	-15.5176
하	-15.5176
ɪ	-15.5176
̱	-15.5176
ම	-15.5176
ᓂ	-15.5176
▪	-15.5176
聯	-15.5176
보	-15.5176
𐤍	-15.5176
യ	-15.5176
ක	-15.5176
共	-15.5176
帝	-15.5176
黃	-15.5176
族	-15.5176
祖	-15.5176
વ	-15.5176
七	-15.6287
な	-15.6287
う	-15.6287
დ	-15.6287
色	-15.6287
ས	-15.6287
უ	-15.6287
ธ	-15.6287
「	-15.6287
Ē	-15.6287
ї	-15.6287
加	-15.6287
ặ	-15.6287
必	-15.6287
ĭ	-15.6287
ீ	-15.6287
ொ	-15.6287
ಬ	-15.6287
მ	-15.6287
包	-15.6287
強	-15.6287
÷	-15.6287
ċ	-15.6287
̂	-15.6287
ठ	-15.6287
ṯ	-15.6287
ち	-15.6287
ズ	-15.6287
ミ	-15.6287
良	-15.6287
越	-15.6287
麻	-15.6287
나	-15.6287
비	-15.6287
Ò	-15.6287
ʀ	-15.6287
ך	-15.6287
ੇ	-15.6287
വ	-15.6287
ე	-15.6287
ὸ	-15.6287
↑	-15.6287
到	-15.6287
威	-15.6287
梁	-15.6287
로	-15.6287
스	-15.6287
자	-15.6287
ौ	-15.6287
⊕	-15.6287
」	-15.6287
貴	-15.6287
조	-15.6287
학	-15.6287
Ù	-15.6287
̣	-15.6287
Ա	-15.6287
ई	-15.6287
ള	-15.6287
ය	-15.6287
哈	-15.6287
說	-15.6287
阿	-15.6287
飛	-15.6287
內	-15.6287
鎮	-15.6287
フ	-15.6287
向	-15.7536
を	-15.7537
み	-15.7537
候	-15.7537
乐	-15.7537
在	-15.7537
ู	-15.7537
ป	-15.7537
ナ	-15.7537
ৰ	-15.7537
真	-15.7537
Я	-15.7537
ງ	-15.7537
ក	-15.7537
ュ	-15.7537
好	-15.7537
會	-15.7537
ও	-15.7537
ੁ	-15.7537
出	-15.7537
צ	-15.7537
ذ	-15.7537
あ	-15.7537
左	-15.7537
政	-15.7537
理	-15.7537
究	-15.7537
自	-15.7537
ǁ	-15.7537
ਹ	-15.7537
இ	-15.7537
ỉ	-15.7537
♯	-15.7537
⟨	-15.7537
樂	-15.7537
等	-15.7537
마	-15.7537
은	-15.7537
¬	-15.7537
ǀ	-15.7537
̨	-15.7537
،	-15.7537
ـ	-15.7537
ം	-15.7537
න	-15.7537
∗	-15.7537
万	-15.7537
令	-15.7537
勇	-15.7537
口	-15.7537
局	-15.7537
康	-15.7537
情	-15.7537
應	-15.7537
蘭	-15.7537
靜	-15.7537
공	-15.7537
김	-15.7537
선	-15.7537
요	-15.7537
천	-15.7537
̓	-15.7537
उ	-15.7537
ブ	-15.7537
九	-15.7537
伯	-15.7537
先	-15.7537
园	-15.7537
智	-15.7537
楊	-15.7537
洪	-15.7537
玄	-15.7537
超	-15.7537
구	-15.7537
세	-15.7537
မ	-15.7537
倉	-15.7537
孫	-15.7537
朝	-15.7537
維	-15.7537
铁	-15.7537
꞉	-15.7537
소	-15.7537
ି	-15.7537
រ	-15.7537
宇	-15.7537
親	-15.7537
խ	-15.7537
ප	-15.7537
်	-15.7537
ジ	-15.7537
ಸ	-15.7537
င	-15.7537
Ọ	-15.7537
դ	-15.7537
景	-15.7537
உ	-15.7537
ေ	-15.7537
に	-15.8965
き	-15.8965
ོ	-15.8965
式	-15.8965
模	-15.8965
ང	-15.8965
身	-15.8965
ケ	-15.8966
ბ	-15.8966
თ	-15.8966
ニ	-15.8966
メ	-15.8966
程	-15.8966
ট	-15.8966
ื	-15.8966
ស	-15.8966
फ	-15.8966
ळ	-15.8966
ই	-15.8966
ା	-15.8966
了	-15.8966
研	-15.8966
ॊ	-15.8966
ਕ	-15.8966
ἄ	-15.8966
チ	-15.8966
魚	-15.8966
ঙ	-15.8966
থ	-15.8966
ষ	-15.8966
ದ	-15.8966
ᐃ	-15.8966
∩	-15.8966
唐	-15.8966
妙	-15.8966
尔	-15.8966
支	-15.8966
竹	-15.8966
者	-15.8966
黎	-15.8966
법	-15.8966
에	-15.8966
ĝ	-15.8966
Ķ	-15.8966
њ	-15.8966
ے	-15.8966
ਿ	-15.8966
ੀ	-15.8966
ન	-15.8966
୍	-15.8966
ூ	-15.8966
గ	-15.8966
ာ	-15.8966
ễ	-15.8966
ἱ	-15.8966
ὁ	-15.8966
∆	-15.8966
∇	-15.8966
∨	-15.8966
♥	-15.8966
ツ	-15.8966
デ	-15.8966
保	-15.8966
寺	-15.8966
形	-15.8966
承	-15.8966
故	-15.8966
杜	-15.8966
池	-15.8966
沈	-15.8966
珠	-15.8966
禮	-15.8966
秀	-15.8966
興	-15.8966
訓	-15.8966
貞	-15.8966
陈	-15.8966
雲	-15.8966
頭	-15.8966
내	-15.8966
당	-15.8966
랑	-15.8966
씨	-15.8966
아	-15.8966
우	-15.8966
주	-15.8966
𐤌	-15.8966
ǣ	-15.8966
ʒ	-15.8966
ਸ	-15.8966
₩	-15.8966
分	-15.8966
列	-15.8966
品	-15.8966
角	-15.8966
麗	-15.8966
희	-15.8966
ө	-15.8966
Մ	-15.8966
ए	-15.8966
ढ	-15.8966
స	-15.8966
ವ	-15.8966
ῖ	-15.8966
↔	-15.8966
グ	-15.8966
友	-15.8966
姜	-15.8966
尉	-15.8966
提	-15.8966
早	-15.8966
昭	-15.8966
段	-15.8966
知	-15.8966
老	-15.8966
開	-15.8966
陶	-15.8966
難	-15.8966
강	-15.8966
고	-15.8966
Ū	-15.8966
ɡ	-15.8966
ղ	-15.8966
સ	-15.8966
ங	-15.8966
ṷ	-15.8966
だ	-15.8966
も	-15.8966
命	-15.8966
園	-15.8966
官	-15.8966
少	-15.8966
蘇	-15.8966
호	-15.8966
ִ	-15.8966
ধ	-15.8966
ල	-15.8966
今	-15.8966
千	-15.8966
館	-15.8966
𐤁	-15.8966
ස	-15.8966
华	-15.8966
斯	-15.8966
机	-15.8966
ક	-15.8966
右	-15.8966
團	-15.8966
後	-15.8966
時	-15.8966
ฟ	-15.8966
โ	-15.8966
ダ	-15.8966
洲	-16.0631
富	-16.0632
と	-16.0632
去	-16.0632
選	-16.0632
ษ	-16.0632
ន	-16.0632
航	-16.0632
ກ	-16.0632
バ	-16.0632
死	-16.0632
甲	-16.0632
Ô	-16.0632
މ	-16.0632
ਪ	-16.0632
ਮ	-16.0632
ਲ	-16.0632
எ	-16.0632
ప	-16.0632
య	-16.0632
ತ	-16.0632
ັ	-16.0632
າ	-16.0632
ở	-16.0632
ὀ	-16.0632
モ	-16.0632
ワ	-16.0632
作	-16.0632
傳	-16.0632
团	-16.0632
夢	-16.0632
报	-16.0632
条	-16.0632
甘	-16.0632
男	-16.0632
草	-16.0632
그	-16.0632
애	-16.0632
양	-16.0632
Õ	-16.0632
ɓ	-16.0632
Ζ	-16.0632
Ξ	-16.0632
३	-16.0632
ೆ	-16.0632
ᐊ	-16.0632
Ḫ	-16.0632
ἡ	-16.0632
‒	-16.0632
↓	-16.0632
ィ	-16.0632
パ	-16.0632
仲	-16.0632
兰	-16.0632
切	-16.0632
別	-16.0632
剛	-16.0632
勝	-16.0632
呂	-16.0632
嘉	-16.0632
場	-16.0632
妃	-16.0632
婆	-16.0632
居	-16.0632
峰	-16.0632
弘	-16.0632
微	-16.0632
思	-16.0632
曾	-16.0632
桑	-16.0632
氣	-16.0632
洞	-16.0632
流	-16.0632
熊	-16.0632
特	-16.0632
胡	-16.0632
舞	-16.0632
葉	-16.0632
蔡	-16.0632
裴	-16.0632
許	-16.0632
護	-16.0632
谷	-16.0632
那	-16.0632
關	-16.0632
阮	-16.0632
駅	-16.0632
马	-16.0632
魏	-16.0632
글	-16.0632
라	-16.0632
미	-16.0632
중	-16.0632
집	-16.0632
ђ	-16.0632
թ	-16.0632
ద	-16.0632
Ḳ	-16.0632
ẻ	-16.0632
ὑ	-16.0632
√	-16.0632
仙	-16.0632
力	-16.0632
夏	-16.0632
外	-16.0632
宋	-16.0632
尼	-16.0632
希	-16.0632
師	-16.0632
御	-16.0632
拳	-16.0632
梅	-16.0632
画	-16.0632
缘	-16.0632
苏	-16.0632
莊	-16.0632
襄	-16.0632
話	-16.0632
豆	-16.0632
鄉	-16.0632
隆	-16.0632
雅	-16.0632
박	-16.0632
유	-16.0632
현	-16.0632
ञ	-16.0632
庄	-16.0632
藝	-16.0632
鄭	-16.0632
韩	-16.0632
장	-16.0632
快	-16.0632
斗	-16.0632
毛	-16.0632
ェ	-16.0632
戲	-16.0632
ァ	-16.0632
无	-16.0632
夜	-16.0632
字	-16.2632
丰	-16.2632
編	-16.2632
裕	-16.2632
็	-16.2632
器	-16.2632
期	-16.2632
麥	-16.2632
ິ	-16.2632
举	-16.2632
ら	-16.2632
界	-16.2632
ത	-16.2632
が	-16.2632
Ս	-16.2632
ް	-16.2632
ฒ	-16.2632
ⵜ	-16.2632
こ	-16.2632
伝	-16.2632
术	-16.2632
ڤ	-16.2632
উ	-16.2632
ਗ	-16.2632
ਵ	-16.2632
ழ	-16.2632
ൂ	-16.2632
ព	-16.2632
ヤ	-16.2632
克	-16.2632
影	-16.2632
戸	-16.2632
拉	-16.2632
浦	-16.2632
班	-16.2632
盟	-16.2632
談	-16.2632
니	-16.2632
청	-16.2632
Հ	-16.2632
ը	-16.2632
ਡ	-16.2632
ੰ	-16.2632
း	-16.2632
ត	-16.2632
Ἄ	-16.2632
Ἐ	-16.2632
ἴ	-16.2632
叶	-16.2632
最	-16.2632
未	-16.2632
柔	-16.2632
矢	-16.2632
雙	-16.2632
馮	-16.2632
鴻	-16.2632
거	-16.2632
운	-16.2632
ȟ	-16.2632
Ɂ	-16.2632
ɒ	-16.2632
ɕ	-16.2632
ɯ	-16.2632
ʊ	-16.2632
Ю	-16.2632
ў	-16.2632
ҫ	-16.2632
ә	-16.2632
վ	-16.2632
ں	-16.2632
ર	-16.2632
ે	-16.2632
ో	-16.2632
ಣ	-16.2632
ಯ	-16.2632
ද	-16.2632
ข	-16.2632
ར	-16.2632
သ	-16.2632
ង	-16.2632
ḻ	-16.2632
ṟ	-16.2632
ỏ	-16.2632
ἕ	-16.2632
ὰ	-16.2632
ὲ	-16.2632
←	-16.2632
↦	-16.2632
⇒	-16.2632
∑	-16.2632
∪	-16.2632
よ	-16.2632
ハ	-16.2632
亞	-16.2632
任	-16.2632
佛	-16.2632
偉	-16.2632
儿	-16.2632
入	-16.2632
再	-16.2632
刺	-16.2632
半	-16.2632
協	-16.2632
卿	-16.2632
吴	-16.2632
唱	-16.2632
嗣	-16.2632
奈	-16.2632
奖	-16.2632
實	-16.2632
寧	-16.2632
岐	-16.2632
干	-16.2632
店	-16.2632
廣	-16.2632
廳	-16.2632
從	-16.2632
徳	-16.2632
恭	-16.2632
房	-16.2632
施	-16.2632
普	-16.2632
望	-16.2632
汝	-16.2632
泉	-16.2632
波	-16.2632
深	-16.2632
满	-16.2632
為	-16.2632
烈	-16.2632
燕	-16.2632
父	-16.2632
片	-16.2632
琴	-16.2632
甥	-16.2632
發	-16.2632
督	-16.2632
童	-16.2632
系	-16.2632
續	-16.2632
臣	-16.2632
融	-16.2632
解	-16.2632
赤	-16.2632
車	-16.2632
農	-16.2632
造	-16.2632
酒	-16.2632
陸	-16.2632
隊	-16.2632
雪	-16.2632
體	-16.2632
魔	-16.2632
교	-16.2632
금	-16.2632
년	-16.2632
를	-16.2632
산	-16.2632
수	-16.2632
야	-16.2632
영	-16.2632
진	-16.2632
해	-16.2632
	-16.2632
𐏁	-16.2632
ʑ	-16.2632
ү	-16.2632
ফ	-16.2632
ஜ	-16.2632
డ	-16.2632
ే	-16.2632
ങ	-16.2632
ദ	-16.2632
Ἰ	-16.2632
ὕ	-16.2632
キ	-16.2632
丁	-16.2632
内	-16.2632
又	-16.2632
娘	-16.2632
密	-16.2632
尾	-16.2632
登	-16.2632
目	-16.2632
米	-16.2632
紅	-16.2632
邑	-16.2632
雨	-16.2632
ಚ	-16.2632
ಪ	-16.2632
ณ	-16.2632
岡	-16.2632
爱	-16.2632
𐤏	-16.2632
հ	-16.2632
ី	-16.2632
ペ	-16.2632
劇	-16.2632
滨	-16.2632
ঁ	-16.2632
ภ	-16.2632
足	-16.2632
ට	-16.2632
ယ	-16.2632
ث	-16.2633
兴	-16.5131
つ	-16.5131
泥	-16.5131
や	-16.5132
量	-16.5132
宝	-16.5132
ວ	-16.5132
意	-16.5132
愿	-16.5132
ถ	-16.5132
ບ	-16.5132
营	-16.5132
ର	-16.5132
ผ	-16.5132
何	-16.5132
如	-16.5132
ު	-16.5132
హ	-16.5132
ະ	-16.5132
ិ	-16.5132
ែ	-16.5132
む	-16.5132
ろ	-16.5132
ベ	-16.5132
ョ	-16.5132
創	-16.5132
坡	-16.5132
ୁ	-16.5132
ె	-16.5132
ტ	-16.5132
個	-16.5132
牌	-16.5132
˧	-16.5132
˩	-16.5132
Ե	-16.5132
ާ	-16.5132
ഗ	-16.5132
ഞ	-16.5132
റ	-16.5132
က	-16.5132
ⵉ	-16.5132
て	-16.5132
兆	-16.5132
勉	-16.5132
実	-16.5132
察	-16.5132
念	-16.5132
최	-16.5132
ˌ	-16.5132
ӧ	-16.5132
Ք	-16.5132
ދ	-16.5132
ড	-16.5132
ণ	-16.5132
ভ	-16.5132
ਚ	-16.5132
శ	-16.5132
ജ	-16.5132
ോ	-16.5132
ᐧ	-16.5132
ḱ	-16.5132
ἵ	-16.5132
ⵍ	-16.5132
亚	-16.5132
佐	-16.5132
功	-16.5132
屋	-16.5132
幸	-16.5132
徐	-16.5132
易	-16.5132
然	-16.5132
與	-16.5132
落	-16.5132
謙	-16.5132
謝	-16.5132
长	-16.5132
태	-16.5132
	-16.5132
©	-16.5132
ɦ	-16.5132
অ	-16.5132
↵	-16.5132
│	-16.5132
双	-16.5132
欧	-16.5132
渡	-16.5132
漳	-16.5132
盧	-16.5132
突	-16.5132
陰	-16.5132
노	-16.5132
북	-16.5132
	-16.5132
Ì	-16.5132
Ý	-16.5132
Ď	-16.5132
ǵ	-16.5132
ʹ	-16.5132
̔	-16.5132
̥	-16.5132
Ά	-16.5132
є	-16.5132
ң	-16.5132
պ	-16.5132
ֿ	-16.5132
ץ	-16.5132
ژ	-16.5132
ܐ	-16.5132
ލ	-16.5132
ਟ	-16.5132
ੈ	-16.5132
ઠ	-16.5132
ધ	-16.5132
બ	-16.5132
ભ	-16.5132
କ	-16.5132
ବ	-16.5132
ସ	-16.5132
ಟ	-16.5132
ု	-16.5132
ሰ	-16.5132
ᐢ	-16.5132
ᑲ	-16.5132
ṉ	-16.5132
ἶ	-16.5132
ῆ	-16.5132
ῥ	-16.5132
‹	-16.5132
›	-16.5132
※	-16.5132
₣	-16.5132
₫	-16.5132
∀	-16.5132
ⵓ	-16.5132
け	-16.5132
ゐ	-16.5132
セ	-16.5132
余	-16.5132
使	-16.5132
俊	-16.5132
修	-16.5132
军	-16.5132
助	-16.5132
務	-16.5132
卓	-16.5132
号	-16.5132
問	-16.5132
喜	-16.5132
嚴	-16.5132
坪	-16.5132
壽	-16.5132
妹	-16.5132
姊	-16.5132
姚	-16.5132
将	-16.5132
崇	-16.5132
底	-16.5132
廚	-16.5132
廷	-16.5132
慶	-16.5132
枝	-16.5132
柳	-16.5132
格	-16.5132
桂	-16.5132
梦	-16.5132
楽	-16.5132
榮	-16.5132
母	-16.5132
気	-16.5132
瑞	-16.5132
略	-16.5132
站	-16.5132
能	-16.5132
舍	-16.5132
艦	-16.5132
莉	-16.5132
術	-16.5132
言	-16.5132
講	-16.5132
警	-16.5132
邦	-16.5132
郭	-16.5132
鄧	-16.5132
銅	-16.5132
錦	-16.5132
鐘	-16.5132
队	-16.5132
靺	-16.5132
顧	-16.5132
馆	-16.5132
각	-16.5132
간	-16.5132
빙	-16.5132
준	-16.5132
철	-16.5132
토	-16.5132
트	-16.5132
프	-16.5132
행	-16.5132
형	-16.5132
𐎡	-16.5132
𐤋	-16.5132
🇺	-16.5132
ĉ	-16.5132
Ċ	-16.5132
ϊ	-16.5132
ѣ	-16.5132
ި	-16.5132
ଗ	-16.5132
ଜ	-16.5132
ಎ	-16.5132
ಲ	-16.5132
ං	-16.5132
ེ	-16.5132
ჰ	-16.5132
ን	-16.5132
ᓄ	-16.5132
ご	-16.5132
さ	-16.5132
依	-16.5132
具	-16.5132
圖	-16.5132
夫	-16.5132
完	-16.5132
客	-16.5132
宣	-16.5132
尸	-16.5132
布	-16.5132
摩	-16.5132
果	-16.5132
橋	-16.5132
毅	-16.5132
泰	-16.5132
津	-16.5132
灘	-16.5132
灣	-16.5132
火	-16.5132
牛	-16.5132
獻	-16.5132
红	-16.5132
艺	-16.5132
茶	-16.5132
蓮	-16.5132
藏	-16.5132
街	-16.5132
走	-16.5132
達	-16.5132
錄	-16.5132
韻	-16.5132
食	-16.5132
ꞑ	-16.5132
릉	-16.5132
림	-16.5132
설	-16.5132
예	-16.5132
처	-16.5132
포	-16.5132
ɨ	-16.5132
І	-16.5132
բ	-16.5132
գ	-16.5132
ੱ	-16.5132
ମ	-16.5132
ഹ	-16.5132
す	-16.5132
ノ	-16.5132
ム	-16.5132
久	-16.5132
勤	-16.5132
室	-16.5132
延	-16.5132
棋	-16.5132
極	-16.5132
爾	-16.5132
电	-16.5132
賢	-16.5132
승	-16.5132
안	-16.5132
͡	-16.5132
छ	-16.5132
খ	-16.5132
ନ	-16.5132
ヴ	-16.5132
溫	-16.5132
補	-16.5132
շ	-16.5132
ં	-16.5132
ീ	-16.5132
ぎ	-16.5132
尊	-16.5132
组	-16.5132
電	-16.5132
ャ	-16.5132
ใ	-16.5132
စ	-16.5132
တ	-16.5132
厚	-16.8464
莲	-16.8465
論	-16.8465
ま	-16.8465
れ	-16.8465
叢	-16.8465
罗	-16.8465
著	-16.8465
へ	-16.8465
ད	-16.8465
བ	-16.8465
企	-16.8465
汽	-16.8465
滝	-16.8465
着	-16.8465
至	-16.8465
齐	-16.8465
އ	-16.8465
ຣ	-16.8465
კ	-16.8465
ხ	-16.8465
ଦ	-16.8465
ຄ	-16.8465
ລ	-16.8465
ဗ	-16.8465
လ	-16.8465
ქ	-16.8465
ც	-16.8465
ុ	-16.8465
发	-16.8465
斬	-16.8465
杉	-16.8465
ል	-16.8465
ደ	-16.8465
₦	-16.8465
制	-16.8465
岁	-16.8465
Ί	-16.8466
ৃ	-16.8466
ష	-16.8466
ആ	-16.8466
ན	-16.8466
ྒ	-16.8466
[...]
