<pad>,	0
<unk>,	0
<s>,	0
</s>,	0
<mask>	0
、	-3.10208
。	-3.41394
の	-3.52723
▁	-3.8923
は	-4.00356
が	-4.29553
を	-4.40967
に	-4.47536
・	-4.50519
)	-4.5573
年	-4.63827
(	-4.64299
で	-4.83232
と	-4.93515
」	-5.31804
「	-5.36776
月	-5.38106
した	-5.55445
2	-5.72289
1	-5.72611
し	-5.72795
から	-5.74415
である	-5.75222
や	-5.76431
も	-5.85299
日	-5.90198
する	-5.92204
3	-5.93994
として	-6.03633
た	-6.15997
では	-6.19323
4	-6.20528
』	-6.24979
『	-6.29496
ス	-6.38605
5	-6.4733
された	-6.50064
には	-6.51559
る	-6.52266
な	-6.55443
大	-6.57414
この	-6.59309
6	-6.59758
年に	-6.63447
人	-6.6757
という	-6.69493
7	-6.69539
して	-6.70928
また	-6.71006
10	-6.71121
している	-6.71356
その	-6.73881
など	-6.73897
8	-6.75819
て	-6.76165
ト	-6.80392
第	-6.82719
9	-6.84133
ア	-6.86792
ク	-6.91572
▁-	-6.91598
-	-6.92714
ている	-6.92732
市	-6.94184
ド	-6.9596
い	-6.98486
一	-6.99477
され	-6.9967
12	-7.00074
山	-7.00209
"	-7.00437
り	-7.00691
ラ	-7.01087
日に	-7.02783
本	-7.03042
中	-7.04955
.	-7.08527
11	-7.09494
となった	-7.11507
く	-7.11779
川	-7.12204
国	-7.12339
日本	-7.12395
か	-7.13463
によって	-7.14771
による	-7.15037
マ	-7.16729
田	-7.19035
される	-7.19052
:	-7.19192
上	-7.19267
カ	-7.19642
であった	-7.1974
により	-7.20012
町	-7.2026
であり	-7.21205
ズ	-7.21385
▁(	-7.2209
リ	-7.22134
,	-7.22658
名	-7.26359
されている	-7.2824
部	-7.28441
同	-7.29234
長	-7.29548
へ	-7.29999
ナ	-7.30587
ロ	-7.31243
タ	-7.31869
子	-7.32199
ル	-7.32939
回	-7.33092
後	-7.33183
法	-7.34701
者	-7.34855
18	-7.35568
コ	-7.35724
駅	-7.35796
がある	-7.36279
となる	-7.38005
き	-7.3841
新	-7.38689
家	-7.39523
地	-7.3958
水	-7.40677
線	-7.41298
より	-7.41441
内	-7.42671
、「	-7.43256
った	-7.43597
シ	-7.44308
への	-7.4469
ら	-7.45498
サ	-7.45604
高	-7.45967
つ	-7.4598
み	-7.46288
イ	-7.46496
s	-7.46517
島	-7.46805
していた	-7.46905
化	-7.47061
戦	-7.47494
17	-7.48732
フ	-7.49638
まで	-7.49929
的な	-7.50076
分	-7.50258
道	-7.50542
生	-7.50769
ため	-7.50946
バ	-7.51086
S	-7.51201
20	-7.51294
B	-7.51328
A	-7.52104
大学	-7.52891
性	-7.53236
15	-7.53408
だった	-7.53957
ム	-7.54052
三	-7.54084
昭和	-7.54307
レ	-7.54534
エ	-7.54786
的	-7.5508
C	-7.55119
州	-7.56114
東	-7.56271
オ	-7.56381
ミ	-7.5644
前	-7.56872
原	-7.57777
西	-7.58105
下	-7.58221
リー	-7.58988
手	-7.59527
元	-7.59684
にも	-7.6018
デ	-7.60345
ン	-7.60488
数	-7.60801
16	-7.6121
ていた	-7.61453
村	-7.61515
郡	-7.617
ノ	-7.62674
ダ	-7.62728
号	-7.64119
m	-7.64693
ジ	-7.65065
月に	-7.65277
南	-7.65492
小	-7.65614
北	-7.65853
M	-7.65939
などの	-7.66025
しかし	-7.66799
会	-7.6709
でも	-7.67821
野	-7.6862
において	-7.68692
位	-7.69224
/	-7.70666
ブ	-7.70915
D	-7.71304
さ	-7.71352
30	-7.72097
す	-7.72575
お	-7.7288
時	-7.72896
P	-7.73146
型	-7.73317
F	-7.74192
ニ	-7.75382
出	-7.75838
金	-7.75928
体	-7.76163
所	-7.76355
見	-7.76748
および	-7.7681
キ	-7.77377
王	-7.77462
14	-7.78433
車	-7.78807
う	-7.79127
城	-7.79155
等	-7.79241
ツ	-7.79304
にある	-7.7961
13	-7.80094
面	-7.80619
って	-7.80756
全	-7.80771
石	-7.81071
となり	-7.81817
グ	-7.81981
正	-7.82454
事	-7.83098
マン	-7.83246
物	-7.83298
用	-7.83307
神	-7.83358
ウ	-7.83931
モ	-7.8414
外	-7.84298
点	-7.843
チ	-7.84326
学	-7.84447
その後	-7.8448
ネ	-7.84545
語	-7.84868
形	-7.85336
ハ	-7.85725
平	-7.85778
代	-7.86011
目	-7.86231
映画	-7.86675
約	-7.87698
文	-7.87886
公	-7.87995
軍	-7.88297
』(	-7.89167
社	-7.89212
イン	-7.89341
ティ	-7.89678
ビ	-7.90131
機	-7.90228
世界	-7.90939
行	-7.91313
ガ	-7.91339
東京	-7.9143
パ	-7.91449
年には	-7.91778
日本の	-7.91835
プ	-7.91974
立	-7.92653
海	-7.92722
後に	-7.93036
木	-7.93648
平成	-7.93879
区	-7.93897
系	-7.94052
場	-7.9413
同年	-7.94145
R	-7.94362
発	-7.94477
ない	-7.94798
メ	-7.95213
K	-7.95324
光	-7.95512
テ	-7.9565
ター	-7.95797
放送	-7.95949
T	-7.96097
式	-7.96309
年の	-7.96518
G	-7.96653
との	-7.97258
さらに	-7.9727
ディ	-7.97653
L	-7.97676
における	-7.98003
19	-7.9891
二	-7.98946
作	-7.99477
ザ	-7.9998
こと	-8.00552
ラー	-8.00765
バー	-8.00845
=	-8.0185
作品	-8.02128
アン	-8.02862
となっている	-8.03054
力	-8.03471
重	-8.0384
番組	-8.03928
ま	-8.04063
セ	-8.04798
方	-8.04803
ゲーム	-8.04806
いた	-8.04984
天	-8.05021
勝	-8.05366
とは	-8.05625
書	-8.05715
N	-8.05748
的に	-8.06021
25	-8.06174
▁『	-8.06324
ッ	-8.0678
曲	-8.07568
年から	-8.07838
ット	-8.08418
間	-8.08573
明	-8.093
旧	-8.09331
活動	-8.09366
J	-8.09967
E	-8.10158
和	-8.10645
V	-8.10859
アル	-8.10925
こ	-8.11531
通	-8.1183
め	-8.12007
地域	-8.12191
鉄道	-8.127
度	-8.128
寺	-8.13054
られた	-8.13118
馬	-8.13272
カー	-8.13289
W	-8.13392
局	-8.13611
ており	-8.13891
について	-8.14142
役	-8.14465
世	-8.14643
人の	-8.14685
流	-8.14773
スト	-8.15112
ケ	-8.15355
だ	-8.15374
不	-8.15552
両	-8.15589
H	-8.15812
とする	-8.16019
話	-8.16074
口	-8.16325
21	-8.16345
U	-8.16965
時間	-8.17022
にて	-8.17033
があり	-8.17525
美	-8.17898
現	-8.17947
無	-8.18103
e	-8.18286
これは	-8.18314
ゴ	-8.1839
シュ	-8.18752
24	-8.18814
初	-8.18954
ボ	-8.19225
安	-8.19234
主	-8.19448
気	-8.19562
各	-8.19965
万	-8.20331
着	-8.20369
o	-8.2089
入	-8.21217
アメリカ	-8.2123
ロー	-8.21573
」(	-8.21779
直	-8.22019
宮	-8.2205
O	-8.22196
なお	-8.22245
船	-8.23112
ヒ	-8.23502
開発	-8.23751
白	-8.24301
橋	-8.24366
とも	-8.24546
ワ	-8.24571
ヤ	-8.2481
あ	-8.24897
ラン	-8.24916
明治	-8.25094
頭	-8.25137
t	-8.25268
音楽	-8.25536
台	-8.25908
22	-8.25975
シリーズ	-8.2625
多くの	-8.26982
県	-8.27186
次	-8.27693
義	-8.27794
23	-8.27823
官	-8.27876
研究	-8.27959
期	-8.28157
合	-8.28197
のみ	-8.28719
になった	-8.28917
現在の	-8.29029
じ	-8.29105
選手	-8.29149
版	-8.29152
色	-8.29583
バス	-8.29799
屋	-8.30044
▁"	-8.30168
有	-8.30212
できる	-8.30453
成	-8.30481
え	-8.30499
級	-8.30527
0	-8.30623
チーム	-8.30725
50	-8.30741
派	-8.31056
自	-8.31161
科	-8.31249
コン	-8.31376
当時	-8.31405
プロ	-8.31421
花	-8.31684
っている	-8.32014
学校	-8.32783
信	-8.32983
そして	-8.3305
トン	-8.33067
制	-8.3311
別	-8.33144
門	-8.33145
ー	-8.33356
風	-8.3336
問題	-8.33517
サン	-8.33699
真	-8.33733
種	-8.33936
ん	-8.34178
実	-8.34214
ある	-8.34281
国際	-8.34359
多	-8.34492
での	-8.34623
知	-8.34717
ベ	-8.34931
事業	-8.3515
谷	-8.3518
i	-8.35221
n	-8.35359
れ	-8.35508
氏	-8.35577
すると	-8.35583
わ	-8.3577
I	-8.35902
つの	-8.35976
賞	-8.36049
兵	-8.36176
計画	-8.36374
特に	-8.36542
都市	-8.36866
歌	-8.37501
に対して	-8.3769
になる	-8.37782
それ	-8.37852
されていた	-8.37911
28	-8.3805
関係	-8.38137
心	-8.38192
y	-8.38325
井	-8.38445
▁S	-8.38552
室	-8.38717
フランス	-8.38723
音	-8.39135
しており	-8.39142
権	-8.39339
他の	-8.39466
及び	-8.39515
27	-8.39518
26	-8.39668
を持つ	-8.39892
アルバム	-8.40035
ック	-8.40059
む	-8.40094
教育	-8.40191
ソ	-8.40239
監督	-8.40643
総	-8.40819
省	-8.40864
古	-8.41005
院	-8.41316
シーズン	-8.416
文化	-8.42286
」「	-8.42372
武	-8.42502
中国	-8.4255
試合	-8.42616
al	-8.42641
星	-8.42758
党	-8.42873
リーグ	-8.42881
マー	-8.42902
29	-8.4301
論	-8.4318
番	-8.43276
ポ	-8.43515
例	-8.43634
対	-8.43871
代表	-8.44017
er	-8.44193
組	-8.44194
テレビ	-8.44344
だが	-8.44659
もの	-8.44976
中央	-8.45155
大会	-8.45204
定	-8.4529
女	-8.45355
ず	-8.45811
政	-8.46007
社会	-8.46124
ち	-8.4617
とともに	-8.46562
リン	-8.46575
と呼ばれる	-8.46629
四	-8.46827
X	-8.46827
ダー	-8.46829
男	-8.47525
ソン	-8.47747
ば	-8.48007
館	-8.48038
戦争	-8.48099
ホ	-8.48182
u	-8.48208
ドイツ	-8.48613
シー	-8.49039
尾	-8.49067
レン	-8.49084
当	-8.49495
もある	-8.495
松	-8.4957
業	-8.49589
100	-8.50318
40	-8.50449
地方	-8.505
隊	-8.50649
愛	-8.50732
については	-8.50863
、『	-8.51519
朝	-8.51613
ヴィ	-8.51735
ことから	-8.51816
ギ	-8.51952
年間	-8.52311
グループ	-8.52543
システム	-8.5293
からの	-8.53174
ピ	-8.53286
情報	-8.5339
んだ	-8.54169
▁また	-8.5418
日の	-8.54256
空	-8.54378
と共に	-8.54823
a	-8.54961
員	-8.5547
会社	-8.55583
身	-8.55597
ことを	-8.55602
校	-8.55899
艦	-8.55915
清	-8.56097
いる	-8.56432
江	-8.56533
女性	-8.56643
アー	-8.56736
集	-8.56749
開	-8.56879
座	-8.57136
教	-8.57168
31	-8.57487
地区	-8.57511
先	-8.57528
!	-8.57599
イギリス	-8.5803
を行う	-8.58046
としては	-8.58244
領	-8.58252
久	-8.58323
ただし	-8.58788
吉	-8.58863
に対する	-8.58916
")	-8.58935
動	-8.58957
in	-8.59117
店	-8.59208
死	-8.59226
場合	-8.59309
ナー	-8.59357
c	-8.59462
h	-8.5947
ヌ	-8.597
条	-8.59989
ニー	-8.60001
反	-8.60093
記	-8.60308
相	-8.60609
ペ	-8.60778
に関する	-8.60903
々	-8.60958
施設	-8.61153
これ	-8.61369
民	-8.61383
出身	-8.61458
半	-8.61506
路線	-8.61619
車両	-8.62051
モデル	-8.62166
販売	-8.62183
通り	-8.62685
スター	-8.62827
来	-8.6283
母	-8.62961
進	-8.63101
r	-8.63125
があった	-8.63141
丸	-8.63336
後の	-8.63493
治	-8.63626
なかった	-8.6363
巻	-8.63747
事件	-8.63814
津	-8.63827
または	-8.63926
岩	-8.63984
制作	-8.64024
といった	-8.64164
当時の	-8.64236
技術	-8.6436
カル	-8.64393
電	-8.64522
すること	-8.6459
団	-8.65071
同じ	-8.65349
っていた	-8.65405
en	-8.65481
リング	-8.65565
日から	-8.6599
土	-8.66245
理	-8.66371
量	-8.66376
組織	-8.66563
運動	-8.66587
夫	-8.66877
シャ	-8.66903
部分	-8.66949
英	-8.66993
歳	-8.67014
沢	-8.67062
八	-8.67154
を受け	-8.67334
f	-8.67562
広	-8.67573
翌	-8.67579
品	-8.67581
群	-8.6775
器	-8.67822
だけ	-8.67843
とした	-8.67901
企業	-8.68482
とされる	-8.68552
攻撃	-8.68577
職	-8.68639
ぶ	-8.68669
楽	-8.6869
ことが	-8.687
守	-8.68716
ベル	-8.68956
Y	-8.69094
再	-8.69125
時代	-8.6914
ファ	-8.69526
全国	-8.69594
ジャ	-8.69777
足	-8.69844
ar	-8.70058
波	-8.70197
太	-8.70239
km	-8.70358
連	-8.70393
製	-8.70395
円	-8.70399
史	-8.70435
したが	-8.70805
▁B	-8.70917
センター	-8.70973
機能	-8.7123
類	-8.71291
an	-8.71367
他	-8.71412
記録	-8.71464
生活	-8.71533
葉	-8.71772
親	-8.71778
時に	-8.71783
字	-8.71816
k	-8.71836
エル	-8.7185
ほど	-8.72074
られる	-8.72096
ように	-8.7213
黒	-8.72224
タイ	-8.72416
質	-8.72517
ひ	-8.72647
ゲ	-8.73257
構造	-8.73562
クラブ	-8.7362
▁この	-8.73777
ほか	-8.73847
のため	-8.73878
調	-8.7404
フィ	-8.74092
▁P	-8.74152
on	-8.74275
火	-8.74419
オー	-8.74581
レー	-8.74755
五	-8.74839
所属	-8.74906
経済	-8.75043
岡	-8.75098
基	-8.75099
状態	-8.75191
こう	-8.75239
ぎ	-8.75273
今	-8.75297
宗	-8.75527
表	-8.75552
以降	-8.75648
ライ	-8.75703
食	-8.75733
協会	-8.75858
の一部	-8.75962
なく	-8.76038
港	-8.76268
管理	-8.76316
ビル	-8.76347
||	-8.76356
っ	-8.76427
'	-8.76471
カン	-8.76575
せ	-8.76686
良	-8.76895
ロン	-8.76923
よ	-8.77006
～	-8.77118
を経て	-8.77161
リア	-8.77392
彼は	-8.7743
米	-8.77566
のために	-8.77728
l	-8.78073
ファン	-8.78148
or	-8.78176
大阪	-8.78235
け	-8.78263
千	-8.78496
ーン	-8.7861
00	-8.78614
シングル	-8.7863
ではなく	-8.78884
ジュ	-8.78982
士	-8.79092
エン	-8.79216
b	-8.79431
d	-8.79441
ること	-8.79443
〜	-8.79502
説	-8.79668
させる	-8.79697
させた	-8.79743
ガー	-8.79821
属	-8.79853
ために	-8.79878
女子	-8.7995
キャラクター	-8.8001
エンジン	-8.80082
父	-8.80107
御	-8.80402
生まれ	-8.80469
パー	-8.80488
赤	-8.80632
林	-8.80633
弾	-8.80664
永	-8.80672
ものの	-8.80724
雄	-8.80814
年まで	-8.80835
師	-8.80856
増	-8.80873
p	-8.80898
デビュー	-8.80954
ヴァ	-8.80954
ながら	-8.81043
フェ	-8.8106
伝	-8.8112
機関	-8.81173
60	-8.81345
砲	-8.81555
使用	-8.81625
生産	-8.81941
聖	-8.82136
経	-8.82225
大きな	-8.82538
ね	-8.82916
株式会社	-8.82999
ジェ	-8.83143
ルー	-8.83204
ジョン	-8.83523
へと	-8.83645
病	-8.83699
出場	-8.83896
委員会	-8.83928
テン	-8.83966
モン	-8.84091
ing	-8.84108
発売	-8.84169
感	-8.84326
高等学校	-8.84332
春	-8.84335
ハイ	-8.84375
一般	-8.84569
ヘ	-8.84784
志	-8.8479
製造	-8.84803
政府	-8.84821
is	-8.84918
選	-8.84954
優勝	-8.85053
付	-8.85158
部隊	-8.85167
ヨーロッパ	-8.85367
予定	-8.85374
小学校	-8.85613
のうち	-8.85621
命	-8.85759
人が	-8.8582
産	-8.86093
根	-8.8617
側	-8.86229
を行った	-8.86305
年度	-8.86375
られ	-8.86434
変	-8.86447
▁C	-8.86505
画	-8.86594
よう	-8.86692
結果	-8.86709
これらの	-8.86787
を受けた	-8.86791
戸	-8.86872
達	-8.86882
設置	-8.86944
角	-8.86962
▁A	-8.87018
夜	-8.87321
び	-8.8737
高校	-8.87479
ビー	-8.8771
在	-8.8773
以上	-8.87933
路	-8.87934
開催	-8.87945
調査	-8.88117
レイ	-8.88311
中に	-8.8834
変更	-8.8844
ホーム	-8.88467
)」	-8.88699
国家	-8.88809
右	-8.88896
非	-8.8925
されており	-8.89259
渡	-8.89381
のような	-8.89724
主に	-8.89791
言	-8.90055
ような	-8.90276
▁F	-8.9043
ものである	-8.90808
人物	-8.90814
ことで	-8.90844
造	-8.90925
鉄	-8.91008
バンド	-8.91071
中学校	-8.91072
藤	-8.91094
任	-8.91194
海軍	-8.91195
そう	-8.91216
させ	-8.91293
よりも	-8.91329
異	-8.91362
アメリカ合衆国	-8.91409
前に	-8.91478
強	-8.9152
河	-8.91772
敵	-8.91812
利	-8.91821
列車	-8.91841
▁M	-8.91841
re	-8.91937
左	-8.92034
藩	-8.92038
現在	-8.92136
たち	-8.92211
ユ	-8.92239
を含む	-8.92261
g	-8.92282
道路	-8.92354
好	-8.92373
加	-8.92412
サー	-8.9245
ぐ	-8.92595
様々な	-8.93036
取り	-8.93073
悪	-8.93188
▁L	-8.93263
あるいは	-8.93308
ると	-8.93438
月には	-8.93586
族	-8.93662
越	-8.93662
航空	-8.93791
公開	-8.9393
最	-8.93944
それぞれ	-8.94059
ランド	-8.94127
サービス	-8.94244
湖	-8.9428
されて	-8.94323
いて	-8.94376
里	-8.9441
層	-8.94621
ゼ	-8.94776
▁なお	-8.94812
▁「	-8.94928
タン	-8.9506
ヴ	-8.95092
敗	-8.95124
薬	-8.95147
ガン	-8.95195
第一	-8.95234
ふ	-8.95459
スポーツ	-8.956
建設	-8.95875
球	-8.95904
特	-8.95944
団体	-8.96035
マル	-8.96057
森	-8.9611
ど	-8.96112
図	-8.96227
素	-8.96248
声	-8.96404
差	-8.96422
ロシア	-8.96461
チャ	-8.96556
製作	-8.96624
走	-8.96744
さん	-8.9682
都	-8.96839
転	-8.96879
北海道	-8.96964
神社	-8.96968
値	-8.97059
内の	-8.97062
ール	-8.97133
政治	-8.97194
副	-8.97562
交通	-8.97578
日には	-8.97579
契約	-8.97619
であったが	-8.9767
独立	-8.97679
保	-8.97731
堂	-8.9785
環境	-8.97968
解	-8.97978
80	-8.98113
誌	-8.98329
開始	-8.98344
草	-8.98588
運転	-8.98657
th	-8.98735
計	-8.98947
ブル	-8.98985
Z	-8.99033
アイ	-8.99099
教会	-8.99192
以来	-8.99213
界	-8.99285
初めて	-8.99322
公園	-8.99378
初の	-8.99481
場所	-8.99521
中の	-8.99781
超	-8.99818
インド	-8.99844
スタ	-8.99988
メンバー	-9.0008
打	-9.00209
世紀	-9.00286
常	-9.00374
青	-9.00379
血	-9.00608
熱	-9.00683
le	-9.00737
年代	-9.00773
彼の	-9.00795
カード	-9.00805
のように	-9.00821
関	-9.00855
蔵	-9.00935
られている	-9.01017
上の	-9.0105
運営	-9.01065
豊	-9.01093
においては	-9.01207
工	-9.01252
徳	-9.01259
率	-9.01266
総合	-9.01404
出演	-9.01474
最初の	-9.01515
京都	-9.01563
横	-9.0166
参加	-9.01687
再び	-9.01698
段	-9.01733
商	-9.01849
-1	-9.01982
一部	-9.02277
満	-9.02316
デン	-9.02334
大正	-9.0234
章	-9.0238
崎	-9.02406
最も	-9.02458
最高	-9.02483
パン	-9.02618
コー	-9.02701
工業	-9.02758
低	-9.02826
たい	-9.03055
未	-9.03105
の中で	-9.03221
ところ	-9.03236
を務めた	-9.03341
英語	-9.03368
文字	-9.03377
速	-9.03386
になっている	-9.03409
そ	-9.03471
落	-9.03516
六	-9.03547
cm	-9.03581
利用	-9.03598
にあった	-9.03611
レース	-9.0365
節	-9.03883
戦闘	-9.03937
ノー	-9.04055
忠	-9.04085
mm	-9.04104
急	-9.04147
ザー	-9.04265
司	-9.04287
残	-9.04342
人間	-9.04377
配	-9.04403
取	-9.04507
経営	-9.04672
自動車	-9.04751
入り	-9.05066
アニメ	-9.05089
現在は	-9.05138
ch	-9.05157
之	-9.05162
祭	-9.05169
▁of	-9.05358
自然	-9.05409
街	-9.05434
京	-9.05455
小説	-9.05461
編成	-9.0548
紙	-9.05535
特別	-9.05546
列	-9.05549
主義	-9.05557
以下の	-9.0595
シン	-9.05963
しない	-9.0609
夏	-9.06126
そのため	-9.06272
レス	-9.06352
格	-9.06426
バル	-9.06456
郷	-9.06612
ハン	-9.06682
ご	-9.069
断	-9.06923
近	-9.07025
共	-9.07149
になり	-9.07204
乗	-9.07208
一方	-9.07229
者の	-9.07295
園	-9.07347
会議	-9.07356
&	-9.07425
キー	-9.075
ラジオ	-9.07574
あり	-9.07581
評価	-9.07677
よく	-9.07782
設計	-9.08249
諸	-9.08299
月から	-9.08322
議会	-9.08469
ックス	-9.08626
韓国	-9.08632
方法	-9.08689
関連	-9.08703
z	-9.08772
向	-9.08889
登録	-9.08912
銀行	-9.08954
%	-9.08967
構成	-9.08998
ジー	-9.09
CD	-9.09086
などが	-9.0929
端	-9.09294
ニュー	-9.09303
サイ	-9.09492
の一つ	-9.09702
帝国	-9.09717
FC	-9.09803
七	-9.09808
時代の	-9.09818
デザイン	-9.09856
案	-9.0986
輸送	-9.09883
70	-9.101
板	-9.10113
羽	-9.10272
JR	-9.10298
制度	-9.10303
作戦	-9.10372
状況	-9.10423
家の	-9.10472
坂	-9.10645
宝	-9.10687
it	-9.10812
ライブ	-9.11005
居	-9.11108
のある	-9.11181
形式	-9.11369
佐	-9.11445
庁	-9.11594
国民	-9.11775
スーパー	-9.1181
ろ	-9.11904
トリ	-9.11927
フリー	-9.11952
何	-9.11972
企画	-9.12055
からは	-9.12085
学者	-9.12228
名は	-9.12298
▁D	-9.12301
張	-9.12388
タイトル	-9.12424
at	-9.12428
決定	-9.125
ハー	-9.12794
産業	-9.12814
妻	-9.12818
大統領	-9.12841
イタリア	-9.1287
源	-9.1291
かつて	-9.12924
ドル	-9.12982
などで	-9.13141
階	-9.13188
能力	-9.1341
ではない	-9.13411
▁T	-9.13561
et	-9.13586
十	-9.13643
運行	-9.13686
新しい	-9.13712
ドラマ	-9.13772
送	-9.1423
単	-9.14242
90	-9.14394
などを	-9.14444
終了	-9.14622
日まで	-9.14654
バン	-9.14659
表現	-9.14709
自由	-9.14822
”	-9.14848
人気	-9.15017
秋	-9.15116
破	-9.15126
スペイン	-9.15143
陸軍	-9.15196
ネット	-9.15273
ライン	-9.15338
とし	-9.15358
区間	-9.15831
陽	-9.15871
首	-9.15932
el	-9.16096
を中心に	-9.16162
ローマ	-9.16208
装置	-9.16226
絵	-9.16297
に伴い	-9.16341
当初は	-9.16375
紀	-9.16383
ダン	-9.16413
客	-9.16557
私	-9.16564
宇宙	-9.16624
布	-9.16649
言語	-9.16764
市の	-9.16775
連続	-9.16777
▁H	-9.16817
等の	-9.16853
以後	-9.16922
設定	-9.16999
運用	-9.17016
写真	-9.17039
35	-9.17059
帯	-9.17077
工場	-9.17102
教授	-9.17108
浜	-9.17195
片	-9.17239
セル	-9.17276
クロ	-9.17371
キャ	-9.17415
試験	-9.17441
これを	-9.17486
とき	-9.17487
かった	-9.17516
便	-9.17618
枠	-9.17621
選挙	-9.17634
建	-9.17643
としている	-9.17772
遠	-9.17937
極	-9.17977
玉	-9.18121
イベント	-9.18123
結	-9.18168
府	-9.18219
核	-9.18228
+	-9.18356
演奏	-9.18531
▁G	-9.18602
データ	-9.1861
経験	-9.18924
末	-9.19008
科学	-9.19125
200	-9.19237
通信	-9.19416
ロック	-9.19442
歴史	-9.19487
勝利	-9.19745
指定	-9.19748
us	-9.19865
男性	-9.19942
発表	-9.19972
裏	-9.20139
しか	-9.20207
トラ	-9.20236
人口	-9.20246
に位置する	-9.20318
事故	-9.2036
ic	-9.20435
を行い	-9.20481
▁W	-9.20483
部門	-9.20592
香	-9.20662
売	-9.20665
修	-9.20688
病院	-9.20801
行動	-9.20853
個人	-9.20973
輪	-9.21017
視	-9.21056
東京都	-9.21082
条件	-9.21177
オン	-9.21292
展開	-9.21299
装	-9.2135
込み	-9.2137
ダム	-9.21459
専門	-9.21754
全体	-9.21758
ッド	-9.21867
ニア	-9.21911
チャー	-9.21984
市立	-9.21986
選手権	-9.22044
周	-9.22097
報	-9.22118
45	-9.22213
方式	-9.22313
野球	-9.22476
将軍	-9.22477
洋	-9.22529
太郎	-9.22599
支援	-9.22794
サッカー	-9.22875
だったが	-9.22877
上で	-9.23029
撮影	-9.23121
観	-9.23159
ウス	-9.23179
訳	-9.23189
骨	-9.23193
以下	-9.23198
ウィ	-9.23212
500	-9.23237
個	-9.23281
ようになった	-9.23362
出版	-9.23462
対応	-9.23548
物語	-9.23577
拡大	-9.23821
付け	-9.23845
漫画	-9.23847
担当	-9.23876
("	-9.23944
軽	-9.24102
表記	-9.24121
2000	-9.24158
学生	-9.24172
ジョ	-9.24199
管	-9.24341
w	-9.24365
によると	-9.24483
どう	-9.24576
保護	-9.24608
従	-9.24635
48	-9.24778
できない	-9.2495
合併	-9.25032
殺	-9.25051
歩	-9.25051
製品	-9.25105
戦で	-9.2518
受	-9.25299
メートル	-9.25598
細	-9.25626
税	-9.25637
パリ	-9.25664
アジア	-9.25701
トル	-9.25799
によれば	-9.25869
遊	-9.25872
しい	-9.25921
ブラ	-9.25935
像	-9.26024
政策	-9.26107
ur	-9.26285
務	-9.26329
以上の	-9.26383
方面	-9.26465
比	-9.26609
フル	-9.26649
子供	-9.26829
秀	-9.26836
内容	-9.26837
切	-9.26892
収録	-9.26932
植物	-9.26934
最大	-9.26944
政権	-9.26944
樹	-9.26989
」、「	-9.27012
状	-9.27096
べ	-9.27258
引	-9.27292
地球	-9.27417
に対し	-9.27486
意	-9.2752
作曲	-9.2755
出身の	-9.27571
例えば	-9.27669
頃	-9.27686
していたが	-9.27694
ッチ	-9.27698
秒	-9.27719
宿	-9.27827
なる	-9.27839
効果	-9.2796
味	-9.28013
減	-9.28017
編	-9.28022
クラス	-9.28164
陣	-9.28178
こともある	-9.28196
考え	-9.28205
退	-9.28233
天皇	-9.28271
廃	-9.28278
高い	-9.28317
異なる	-9.28342
ッツ	-9.28596
時の	-9.28742
ていない	-9.28748
帝	-9.2877
賀	-9.28863
IC	-9.28899
若	-9.28906
農	-9.28908
最終	-9.2901
頼	-9.29058
作家	-9.29165
ゆ	-9.29187
初代	-9.29237
数は	-9.29286
発見	-9.29325
協力	-9.2937
富	-9.2938
するために	-9.29406
服	-9.29558
応	-9.29631
であるが	-9.29668
本作	-9.29677
能	-9.29687
竹	-9.29866
工事	-9.29993
提供	-9.30113
席	-9.30126
持	-9.30148
様	-9.30218
ミー	-9.30231
者が	-9.30263
密	-9.30273
技	-9.30288
興	-9.30308
者は	-9.30362
切り	-9.30424
難	-9.3049
劇場	-9.30503
ロンドン	-9.30517
直接	-9.30639
クラ	-9.30701
警察	-9.30768
ダイ	-9.3085
幸	-9.30855
塩	-9.30924
百	-9.30937
周辺	-9.30995
最後の	-9.31114
営	-9.31243
壁	-9.31699
使	-9.31703
公式	-9.31743
龍	-9.31776
軍の	-9.31784
セン	-9.31918
なり	-9.31922
と同じ	-9.31955
跡	-9.32028
を受けて	-9.32183
幅	-9.32277
内で	-9.32281
キン	-9.32327
霊	-9.32446
雑誌	-9.32453
浦	-9.32481
岸	-9.32536
映像	-9.32548
北部	-9.32595
費	-9.32617
交	-9.32704
▁the	-9.32715
▁第	-9.32823
ガス	-9.32832
向け	-9.32851
クス	-9.32913
ヴェ	-9.32953
仏	-9.32984
が行われた	-9.33004
留	-9.33149
重要な	-9.33154
住民	-9.33155
国道	-9.33186
ベン	-9.33278
大臣	-9.33311
ステ	-9.33355
艦隊	-9.33442
チェ	-9.33498
会長	-9.33546
細胞	-9.33682
が多い	-9.33845
>	-9.33867
までの	-9.33891
期間	-9.33934
オリンピック	-9.34058
ホール	-9.34063
圧	-9.34156
グラ	-9.34226
翌年	-9.34254
縁	-9.34256
Q	-9.34368
目的	-9.34405
示	-9.34405
鳥	-9.34482
酸	-9.34519
“	-9.34522
批判	-9.34527
倉	-9.34561
移動	-9.34575
接	-9.34575
毛	-9.34686
▁R	-9.34702
トップ	-9.34707
完成	-9.34715
設立	-9.34748
える	-9.34779
国の	-9.34789
が多く	-9.34821
流れ	-9.34903
飛行	-9.34907
動物	-9.34916
戦後	-9.34953
前の	-9.35131
大きく	-9.35132
南部	-9.35154
帰	-9.35171
銃	-9.35265
軍事	-9.35431
望	-9.3546
舞台	-9.35475
順	-9.3549
▁2010	-9.35499
オリジナル	-9.35507
ホー	-9.35543
決	-9.35552
x	-9.35567
内に	-9.35602
用の	-9.35649
マイ	-9.3578
NHK	-9.35805
てきた	-9.35845
卒業	-9.35928
2010	-9.35977
にかけて	-9.36008
第二	-9.36142
バイ	-9.36163
起	-9.36171
としても	-9.36202
ろう	-9.36302
為	-9.36325
人々	-9.36376
九州	-9.36475
積	-9.36475
自身の	-9.36511
戻	-9.36549
記念	-9.36642
ed	-9.36736
福	-9.3675
ブリ	-9.36821
採用	-9.36847
ワン	-9.3689
元年	-9.36938
するため	-9.37
台湾	-9.37026
移	-9.37038
条約	-9.37125
深	-9.37208
にあたる	-9.37449
▁2012	-9.37467
整備	-9.37563
児	-9.37598
土地	-9.37632
トゥ	-9.37701
報告	-9.37724
ことは	-9.37764
建築	-9.37778
勢	-9.37903
st	-9.38041
彦	-9.38135
池	-9.38276
リスト	-9.38319
たが	-9.38391
系統	-9.38422
登場	-9.38522
幕	-9.38623
行われた	-9.38649
国内	-9.38735
術	-9.38758
華	-9.38759
ほぼ	-9.38787
ニューヨーク	-9.38822
雲	-9.38894
瀬	-9.38941
市民	-9.39011
メン	-9.39069
程度	-9.39089
36	-9.3913
ヨ	-9.39157
対象	-9.39162
il	-9.39166
研究所	-9.39181
称	-9.39181
としての	-9.39209
参	-9.3923
カップ	-9.39276
▁2014	-9.39284
代目	-9.39296
32	-9.39299
距離	-9.39352
家族	-9.39364
▁2016	-9.3948
圏	-9.39539
弘	-9.39588
▁2015	-9.39632
シェ	-9.39665
枚	-9.39713
ことがある	-9.39741
酒	-9.39803
友	-9.39804
少年	-9.39857
発行	-9.39927
助	-9.39953
▁2011	-9.40005
はこの	-9.40118
新聞	-9.40195
電気	-9.4023
モー	-9.4028
規定	-9.40298
メーカー	-9.40306
要	-9.40359
孫	-9.40375
ていたが	-9.40382
議	-9.40384
奥	-9.40631
料	-9.40718
ッシュ	-9.40728
隻	-9.40751
ボン	-9.40757
精	-9.40877
表示	-9.40902
ピー	-9.40911
出し	-9.40979
乱	-9.41021
令	-9.41073
せん	-9.41212
バック	-9.41218
仁	-9.4123
銀	-9.41372
れば	-9.41394
額	-9.41398
離	-9.41545
かつ	-9.41585
んで	-9.4169
雨	-9.41693
文学	-9.4176
公演	-9.41785
はない	-9.4184
分野	-9.41859
のための	-9.41863
定義	-9.4198
スキー	-9.42
▁2009	-9.42012
俳優	-9.42065
理論	-9.42075
漢	-9.42184
持ち	-9.42191
ディー	-9.42197
かい	-9.422
雪	-9.42264
したため	-9.42271
シャー	-9.42271
38	-9.42278
店舗	-9.42309
兄	-9.4232
▁2013	-9.42337
市場	-9.42391
業務	-9.42402
割	-9.42421
そこで	-9.42499
の大	-9.42509
ol	-9.42511
線の	-9.42532
弁	-9.42555
そのまま	-9.42651
大型	-9.42681
▁2017	-9.42718
もあり	-9.42813
▁E	-9.43013
→	-9.43094
隆	-9.43108
55	-9.43124
グル	-9.43162
ベスト	-9.43178
メディア	-9.43199
ri	-9.43224
多く	-9.43339
とう	-9.43359
防	-9.43382
時期	-9.43388
空港	-9.43407
ント	-9.43423
プラ	-9.43472
スタン	-9.4359
九	-9.4361
げ	-9.43674
アップ	-9.43743
配信	-9.43796
以外の	-9.43883
議員	-9.43938
トー	-9.4406
基本	-9.44134
兼	-9.4414
2008	-9.44193
養	-9.44198
ヴァー	-9.44199
▁その後	-9.44211
顔	-9.44276
営業	-9.44281
▁2008	-9.44338
ra	-9.44343
とされている	-9.44384
共和国	-9.44415
ティー	-9.44439
されていない	-9.44447
行政	-9.44449
ざ	-9.44452
自ら	-9.44697
行為	-9.44932
全て	-9.44932
標準	-9.45059
引き	-9.45072
はその	-9.45142
系の	-9.4515
備	-9.45331
延	-9.4536
プレイ	-9.45373
彼	-9.45375
するなど	-9.45499
女優	-9.45581
ケン	-9.45618
茶	-9.45621
現代	-9.45627
いずれも	-9.45631
コース	-9.45665
早	-9.45699
ーズ	-9.45717
建物	-9.45765
革命	-9.45785
グリ	-9.45793
▁K	-9.45831
▁2018	-9.45856
優	-9.459
おり	-9.45928
後は	-9.46049
芸術	-9.46128
陸	-9.46128
主人公	-9.46196
_	-9.46245
変化	-9.46358
必要	-9.46405
の間	-9.4645
キング	-9.46626
勢力	-9.46677
2007	-9.46812
倒	-9.46834
自分	-9.46937
紹介	-9.46976
万人	-9.47027
2009	-9.4712
可	-9.47167
矢	-9.47192
の第	-9.47277
番号	-9.4731
伊	-9.4731
反対	-9.47351
37	-9.47371
域	-9.47373
33	-9.47468
江戸時代	-9.47475
イー	-9.47482
反応	-9.47528
盤	-9.47529
を見	-9.47559
スタジオ	-9.47576
一方で	-9.47581
相手	-9.47657
電子	-9.47727
人は	-9.47745
泉	-9.47777
エイ	-9.4786
なら	-9.47943
軸	-9.47951
を取り	-9.48006
学部	-9.48035
湾	-9.48113
ニュース	-9.48147
自分の	-9.48188
飛	-9.48251
詩	-9.48287
でもある	-9.48309
民族	-9.48355
統一	-9.48461
ドゥ	-9.48491
実験	-9.48562
v	-9.48662
死去	-9.48662
テル	-9.48728
防衛	-9.48759
恵	-9.48761
オープン	-9.48762
ことができる	-9.48797
の一	-9.48844
散	-9.48928
場合は	-9.48959
題	-9.48999
指揮	-9.49037
発生	-9.49055
老	-9.49181
テーマ	-9.49181
せず	-9.49198
連邦	-9.49355
-2	-9.49407
江戸	-9.49432
ツアー	-9.49454
印	-9.49457
失	-9.49503
フォ	-9.4951
症	-9.49613
カナダ	-9.49619
2011	-9.49762
王国	-9.49783
傷	-9.49799
ペン	-9.49961
情	-9.49968
300	-9.50013
メイン	-9.50103
同時に	-9.50115
オブ	-9.50125
沼	-9.50219
te	-9.50337
具	-9.5043
それを	-9.50454
▁2007	-9.50482
収	-9.50503
夢	-9.50542
存在	-9.50569
スク	-9.50571
朝鮮	-9.50688
典	-9.50694
冠	-9.50771
の戦い	-9.50862
34	-9.50989
を持ち	-9.51046
景	-9.51052
兄弟	-9.51079
塚	-9.51126
行き	-9.51179
準	-9.51185
結婚	-9.51214
▁しかし	-9.513
などに	-9.51356
作業	-9.51415
商品	-9.51429
覚	-9.51546
種類	-9.51785
廃止	-9.51943
ブランド	-9.5196
la	-9.52026
投票	-9.52076
博	-9.5208
要素	-9.52165
健	-9.52222
2012	-9.52287
ステージ	-9.52296
メイ	-9.52302
放	-9.52304
ライト	-9.52357
郎	-9.52391
医療	-9.52485
オス	-9.5252
立ち	-9.5259
搭載	-9.52639
リリース	-9.52663
則	-9.52752
2006	-9.52772
境	-9.52894
The	-9.52994
入れ	-9.53006
サイト	-9.53033
横浜	-9.5305
ビデオ	-9.53131
トロ	-9.53138
ジャー	-9.53179
倍	-9.53243
海外	-9.53276
米国	-9.53294
丁目	-9.53305
宗教	-9.53359
競技	-9.5345
実施	-9.53605
主演	-9.53704
万円	-9.53736
マーク	-9.53782
時には	-9.53816
共同	-9.53857
被	-9.53909
魚	-9.54058
を行っている	-9.54105
装備	-9.54105
ソ連	-9.54204
拠点	-9.54248
得点	-9.54279
減少	-9.54322
寄	-9.54336
休	-9.5441
上げ	-9.54411
リス	-9.54524
件	-9.54527
処理	-9.54566
が存在する	-9.54653
39	-9.54731
限定	-9.54743
イル	-9.54902
集団	-9.54938
読	-9.54984
ナン	-9.55006
ポイント	-9.55012
にとって	-9.55032
過	-9.55128
次の	-9.55155
脱	-9.55163
ミン	-9.55177
記事	-9.55262
イングランド	-9.55343
しょう	-9.55414
単位	-9.55457
内閣	-9.55473
新たな	-9.55503
制御	-9.55512
ジャン	-9.55516
連載	-9.55532
容	-9.55614
遺	-9.5562
es	-9.55652
ます	-9.55828
初期	-9.55831
レコード	-9.55847
セット	-9.55851
適	-9.55865
化学	-9.55886
精神	-9.55984
ほ	-9.5599
でき	-9.55996
甲	-9.5602
支配	-9.56184
クリ	-9.562
生き	-9.56207
同盟	-9.56318
ヴァン	-9.5632
候補	-9.56343
日本語	-9.56361
返	-9.56364
形で	-9.56428
喜	-9.56443
項	-9.56546
罪	-9.56556
出した	-9.56611
空間	-9.56648
支	-9.56688
年より	-9.56693
っており	-9.56721
このような	-9.56728
ウェイ	-9.56789
間の	-9.56899
際	-9.56927
善	-9.56951
▁※	-9.57008
柄	-9.5703
指	-9.57083
を受ける	-9.57084
亜	-9.57087
射	-9.57101
目の	-9.57105
学園	-9.57118
関東	-9.5713
.2	-9.57141
原作	-9.57141
広く	-9.57208
かん	-9.57237
ようになる	-9.57324
投	-9.57329
名古屋	-9.57348
平均	-9.57371
kg	-9.57374
名前	-9.5738
ミニ	-9.5739
▁N	-9.57423
することで	-9.57428
タイム	-9.5747
オーストラリア	-9.57522
逆	-9.57538
ショー	-9.57819
追	-9.57857
プロジェクト	-9.57869
図書館	-9.57872
住	-9.5788
』『	-9.57897
アメリカの	-9.57951
楽曲	-9.58006
これら	-9.58147
運	-9.58153
ソー	-9.58231
オランダ	-9.58241
短	-9.58259
少	-9.58286
料理	-9.58297
勝ち	-9.58375
本部	-9.58418
していない	-9.58424
ロス	-9.58436
軌道	-9.58449
このため	-9.5847
せい	-9.58491
特徴	-9.58501
am	-9.58512
美術	-9.58527
剣	-9.58539
襲	-9.58562
獲得	-9.58614
連盟	-9.5864
可能性	-9.58744
共通	-9.5879
ゾ	-9.58799
肉	-9.58847
あった	-9.58856
速度	-9.58856
付き	-9.58923
44	-9.58934
普通	-9.59023
フォン	-9.59036
油	-9.59099
医	-9.5912
終	-9.59123
▁O	-9.59139
機構	-9.5915
観測	-9.59224
男子	-9.5924
分類	-9.5933
ぼ	-9.59336
ro	-9.5936
ホテル	-9.59388
一部の	-9.5943
書き	-9.59446
事務所	-9.59561
これが	-9.5969
全ての	-9.59714
制限	-9.59741
になって	-9.59908
▁2006	-9.59971
報道	-9.60076
体制	-9.60265
紀元前	-9.60274
方向	-9.60282
ad	-9.60293
余	-9.60432
補	-9.60435
受け	-9.60507
クル	-9.60516
したり	-9.60559
位置	-9.60581
予選	-9.6069
歌手	-9.60712
娘	-9.60729
化した	-9.60742
冬	-9.60805
の名	-9.60807
系列	-9.60813
ザン	-9.60814
j	-9.60821
仕	-9.60855
中心	-9.60898
の間に	-9.60917
毎年	-9.60999
降	-9.6102
算	-9.61069
説明	-9.61094
ボー	-9.61143
成長	-9.61184
アフリカ	-9.61222
上に	-9.61331
長い	-9.61357
ート	-9.61442
するが	-9.61485
DVD	-9.61551
古代	-9.61602
弱	-9.61629
旅	-9.61751
折	-9.61759
れる	-9.61795
デル	-9.61938
法律	-9.61951
改造	-9.62003
ップ	-9.62023
国立	-9.62026
介	-9.62142
ティング	-9.62152
辺	-9.62172
害	-9.62187
▁m	-9.62214
側の	-9.62276
栄	-9.62333
伯	-9.62443
竜	-9.62479
as	-9.6251
許	-9.62518
とその	-9.62613
農業	-9.6266
ほとんど	-9.62661
康	-9.62666
要求	-9.62691
II	-9.62716
社長	-9.62724
連合	-9.62858
太陽	-9.62893
ミュージック	-9.62923
つか	-9.62923
やま	-9.62949
アス	-9.63011
改革	-9.63053
成功	-9.63097
登	-9.63113
47	-9.63139
ポー	-9.63175
指導	-9.63188
富士	-9.63204
主な	-9.63261
可能	-9.63295
シア	-9.63377
形態	-9.63411
2005	-9.63417
2013	-9.63418
まず	-9.63488
影響	-9.63562
まる	-9.63562
砂	-9.63573
地下	-9.63581
犬	-9.63639
最大の	-9.63651
エネルギー	-9.63653
だと	-9.63676
2014	-9.63758
▁日本	-9.6383
を務める	-9.63874
われ	-9.63937
の娘	-9.63946
を獲得した	-9.63946
姓	-9.64018
劇	-9.64031
名の	-9.64091
殿	-9.64157
リオ	-9.64255
46	-9.64278
訓練	-9.64312
だい	-9.64339
コンピュータ	-9.64388
著	-9.64417
宇	-9.64425
関西	-9.64452
の研究	-9.64486
基準	-9.64541
非常に	-9.64616
イギリスの	-9.64644
開業	-9.64661
振	-9.64686
TV	-9.64719
タル	-9.64763
炎	-9.64842
がいる	-9.64887
ボール	-9.64921
通称	-9.65027
なか	-9.65055
思	-9.65061
ia	-9.65067
レベル	-9.65172
少女	-9.65199
シティ	-9.65228
智	-9.65292
氏の	-9.6531
AT	-9.65321
コル	-9.6536
アナ	-9.6544
ドン	-9.65459
大陸	-9.65459
ラス	-9.65538
部の	-9.65559
スタート	-9.65566
網	-9.6564
バラ	-9.65681
ワー	-9.6571
複数の	-9.65782
しばしば	-9.65801
65	-9.65876
途中	-9.65877
仕様	-9.65893
緑	-9.65924
首相	-9.65926
堀	-9.65962
慶	-9.65966
もあった	-9.66014
のもの	-9.66031
君	-9.66033
となって	-9.66045
禁止	-9.66047
▁V	-9.66049
基地	-9.66053
杯	-9.66069
統合	-9.66095
与	-9.66137
リュ	-9.66148
を参照	-9.66152
名称	-9.66168
障害	-9.66174
冷	-9.66195
牛	-9.6623
を指す	-9.66237
記載	-9.6625
▁2019	-9.66289
月まで	-9.66334
専用	-9.6634
ポーランド	-9.66406
1982	-9.6642
を結ぶ	-9.66474
2015	-9.66555
1945	-9.66636
名を	-9.66637
活躍	-9.66642
委員	-9.66646
カラ	-9.6671
限	-9.66715
派の	-9.66735
掲載	-9.66737
発展	-9.66918
ジン	-9.66983
ソフト	-9.66992
ドー	-9.67059
un	-9.67097
新たに	-9.67146
諸島	-9.67273
筆	-9.67312
が行われ	-9.6751
の中	-9.67511
置	-9.67521
剤	-9.67545
配置	-9.67552
コーナー	-9.67623
ent	-9.67624
生徒	-9.67709
観光	-9.67765
に入	-9.67813
柳	-9.67832
内部	-9.67887
貞	-9.67914
ation	-9.67922
すべて	-9.67923
西部	-9.67954
かれ	-9.67961
となっていた	-9.68051
ビア	-9.68087
強い	-9.68117
-0	-9.68196
の名前	-9.68264
ユー	-9.68316
プル	-9.68352
日本人	-9.68364
時代に	-9.68394
ユニット	-9.68395
弟	-9.68453
彼女	-9.68531
のこと	-9.68545
材	-9.68627
注	-9.68649
更に	-9.68715
42	-9.68752
高速	-9.68777
クレ	-9.68844
子の	-9.6886
世の	-9.68868
理由	-9.68873
CM	-9.6891
オル	-9.68957
ルート	-9.6899
似	-9.69052
皇帝	-9.69111
と呼ぶ	-9.69197
温泉	-9.69198
商業	-9.69252
地上	-9.69319
シーン	-9.69321
されたが	-9.69409
得	-9.69417
▁km	-9.69429
交換	-9.69436
湯	-9.69459
br	-9.69464
イメージ	-9.69489
房	-9.69497
ゲン	-9.69548
になると	-9.69626
43	-9.69752
ヴォ	-9.69787
1979	-9.6984
コード	-9.6988
ことが多い	-9.6989
の場合	-9.69894
第三	-9.69908
護	-9.70022
を果たした	-9.70078
復帰	-9.7015
分離	-9.70154
マス	-9.70241
筋	-9.70291
らず	-9.70303
将	-9.70322
1972	-9.70344
OS	-9.70358
パル	-9.70389
けん	-9.70476
言葉	-9.70486
機体	-9.70553
継続	-9.70556
貴	-9.7058
魔	-9.70831
一人	-9.70852
時点で	-9.70871
読み	-9.70904
解散	-9.70905
54	-9.70928
を示す	-9.70963
提案	-9.70978
58	-9.70996
週	-9.71043
ブルー	-9.71064
ハウス	-9.71128
自己	-9.71148
アメリカ合衆国の	-9.71154
投手	-9.71232
閉	-9.71256
ケー	-9.71269
略	-9.71368
プリ	-9.715
ノン	-9.71505
確認	-9.71522
同じく	-9.71524
文書	-9.71535
闘	-9.7157
治療	-9.71655
もしくは	-9.71688
別の	-9.71705
李	-9.71712
MA	-9.71764
機械	-9.71797
したこと	-9.71821
脳	-9.71869
会員	-9.71901
納	-9.72031
宣言	-9.72032
導	-9.72056
自治体	-9.72068
にあり	-9.72104
電力	-9.7217
に変更	-9.72181
温	-9.72183
1981	-9.72193
400	-9.72204
通常	-9.72271
市内	-9.72286
師団	-9.72289
-3	-9.72312
▁2005	-9.72332
知事	-9.72405
禁	-9.72474
を意味する	-9.72477
もので	-9.72556
桜	-9.72565
資料	-9.72585
してきた	-9.72649
以降は	-9.72656
安定	-9.72661
落ち	-9.72665
続く	-9.72762
1975	-9.72768
破壊	-9.72778
交流	-9.72802
命令	-9.72922
フレ	-9.73049
海岸	-9.73129
競馬	-9.73151
める	-9.73174
延長	-9.73193
創設	-9.73212
地元	-9.73225
出す	-9.73294
増加	-9.73319
しん	-9.73497
静	-9.73498
可能な	-9.73511
ラム	-9.73538
労働	-9.73545
に出	-9.73548
トラック	-9.73617
比較的	-9.73635
博士	-9.7364
スタイル	-9.73649
プログラム	-9.737
支持	-9.73748
を通じて	-9.73753
2016	-9.7381
復活	-9.73838
ロード	-9.73864
ベイ	-9.73889
したもの	-9.73917
改	-9.73919
多数	-9.73929
行う	-9.73956
供給	-9.73984
アンド	-9.74037
ガル	-9.74045
56	-9.74088
床	-9.74091
唐	-9.74096
旗	-9.74137
▁I	-9.74148
デュ	-9.74156
生物	-9.74181
ヘル	-9.74249
▁()	-9.74257
領域	-9.74326
全日本	-9.74328
譲	-9.74341
翼	-9.74344
地震	-9.74383
2017	-9.744
li	-9.74424
麻	-9.74459
阿	-9.74469
しく	-9.74485
広島	-9.74486
たり	-9.7459
中で	-9.74618
チュ	-9.74622
ポート	-9.7464
前後	-9.74644
祖	-9.74723
ウル	-9.74741
で行われた	-9.74747
習	-9.74768
1973	-9.74875
ヶ	-9.74905
コーチ	-9.74909
博物館	-9.75034
当初	-9.75067
IN	-9.75195
独	-9.75202
クト	-9.75269
かり	-9.75327
ことに	-9.7534
中継	-9.75349
ir	-9.75362
込む	-9.75368
たちは	-9.75371
ゴー	-9.75386
操作	-9.75394
引退	-9.75504
れた	-9.75512
原因	-9.75555
演	-9.75558
いくつかの	-9.75641
乗り	-9.75673
と考えられている	-9.75677
これまで	-9.75709
チン	-9.75722
父親	-9.75831
軍は	-9.75857
没	-9.75861
違い	-9.7588
連絡	-9.75955
保存	-9.75986
もう	-9.75988
程	-9.76025
することができる	-9.76032
億	-9.7607
プレ	-9.76074
背	-9.76088
1971	-9.76123
除	-9.76136
まま	-9.76219
止め	-9.76262
放送された	-9.76328
塁	-9.76362
向上	-9.76392
任務	-9.76479
近く	-9.76519
編集	-9.7656
ダル	-9.76626
綱	-9.76652
を開始した	-9.7666
ーション	-9.76664
オール	-9.76716
クー	-9.76766
1974	-9.76774
導入	-9.76778
まれ	-9.76856
挙	-9.76885
打ち	-9.769
ション	-9.76927
ワールド	-9.76958
本塁打	-9.77084
盛	-9.77197
49	-9.77231
ことになる	-9.77257
絶	-9.77259
検	-9.7726
×	-9.77296
わずか	-9.77307
つく	-9.77315
トレ	-9.77341
パーク	-9.77343
2004	-9.77363
ッカー	-9.77374
孝	-9.77413
型の	-9.77442
日本では	-9.77491
給	-9.77491
ピアノ	-9.77545
負	-9.77557
1976	-9.7762
腹	-9.77654
に近い	-9.77667
勇	-9.77687
かわ	-9.7769
歳で	-9.77693
フォード	-9.77779
使われる	-9.778
也	-9.77806
誕生	-9.78
鶴	-9.78014
名が	-9.78014
州の	-9.7802
ter	-9.78044
カス	-9.7807
ion	-9.78148
茂	-9.78156
推	-9.78172
こうした	-9.78175
ナイ	-9.78204
意見	-9.78232
厚	-9.78236
エー	-9.78249
小さな	-9.78311
後期	-9.78325
丘	-9.78372
41	-9.78413
1978	-9.78438
対策	-9.78443
計算	-9.7846
東部	-9.78515
追加	-9.78541
強化	-9.78608
ード	-9.78618
週間	-9.7862
環	-9.78661
停止	-9.78673
ウェ	-9.78799
ネス	-9.78816
1000	-9.7884
!!	-9.78915
設立された	-9.78942
占領	-9.78962
礼	-9.78979
指摘	-9.79076
いわゆる	-9.79084
姿	-9.79089
純	-9.79104
塔	-9.79129
亀	-9.79144
しなかった	-9.79146
ファー	-9.79307
した後	-9.79309
をもって	-9.79341
の影響	-9.79342
行った	-9.79387
劉	-9.79455
のち	-9.7948
幼	-9.79498
被害	-9.7962
にして	-9.79623
1969	-9.79687
仲	-9.79721
ゲル	-9.7973
それは	-9.79733
意識	-9.79797
タウン	-9.79802
刀	-9.79819
フォー	-9.79833
神戸	-9.79889
消	-9.79889
本線	-9.79894
交渉	-9.79978
合い	-9.7998
すれば	-9.79986
これに	-9.79989
▁大	-9.80014
録	-9.80024
選択	-9.80222
に入り	-9.80233
することを	-9.8024
抗	-9.80251
フランスの	-9.80304
作詞	-9.80336
ヒット	-9.80392
▁J	-9.8042
小型	-9.80424
レッド	-9.80464
ストーリー	-9.80481
寿	-9.80488
メル	-9.80534
1968	-9.80556
唯一の	-9.80575
がない	-9.80586
ただ	-9.80591
通算	-9.80725
際に	-9.80771
カール	-9.80811
照	-9.80845
車体	-9.80859
接続	-9.80874
改良	-9.8089
ie	-9.80933
ヶ月	-9.8108
大阪府	-9.81157
部屋	-9.81165
振り	-9.81216
問	-9.81216
策	-9.81246
1970	-9.81263
においても	-9.81305
欠	-9.81402
オーストリア	-9.81407
<	-9.81429
バージョン	-9.81434
二人	-9.81468
思想	-9.81506
採	-9.81512
安全	-9.81517
2018	-9.81547
作成	-9.8156
昌	-9.81596
発売された	-9.81601
me	-9.81612
パス	-9.81636
住宅	-9.81725
課	-9.81734
ネル	-9.81782
初期の	-9.8179
目標	-9.81868
いている	-9.81959
価	-9.82004
記述	-9.82008
ランキング	-9.82028
進出	-9.82063
um	-9.82157
レット	-9.82165
ごとに	-9.8219
重要	-9.82215
普及	-9.82257
ジョージ	-9.82258
なし	-9.82265
めた	-9.82287
ともに	-9.82288
までは	-9.82295
id	-9.82314
すなわち	-9.82319
、2010	-9.82321
の子	-9.8235
製の	-9.82358
BS	-9.82407
に属する	-9.82456
荒	-9.82458
実行	-9.8251
これにより	-9.82571
息子	-9.82578
指名	-9.82607
窓	-9.8264
ルイ	-9.82644
演出	-9.82709
王座	-9.82757
.1	-9.82813
を務め	-9.82874
プロデューサー	-9.83019
欧州	-9.83063
180	-9.83074
機器	-9.83074
1977	-9.83108
の開発	-9.83132
ゴン	-9.83176
デジタル	-9.8321
57	-9.83218
認定	-9.83258
フラ	-9.83292
世代	-9.83316
ブラジル	-9.83338
ブー	-9.83349
本人	-9.83366
分け	-9.83386
民主党	-9.83432
脚	-9.83608
改正	-9.83635
回転	-9.83652
大学の	-9.83695
ot	-9.83745
敬	-9.83813
ゴール	-9.83852
ときに	-9.83876
澤	-9.8388
ul	-9.83939
この時	-9.84088
法人	-9.84125
柱	-9.84138
いち	-9.84165
ドイツの	-9.84169
エア	-9.84277
保険	-9.84299
主張	-9.84364
ケル	-9.84421
腕	-9.84429
黄	-9.84526
53	-9.84623
刊	-9.84628
貴族	-9.84632
多数の	-9.84678
ポン	-9.84692
ディア	-9.84705
カイ	-9.84721
だけで	-9.84744
民間	-9.84784
するという	-9.84861
タイプ	-9.84878
スタッフ	-9.84893
ベース	-9.84917
歯	-9.84923
本社	-9.84934
の一人	-9.84957
築	-9.85002
資金	-9.85007
刑	-9.85058
だけでなく	-9.8506
行われ	-9.8506
購入	-9.8511
ブレ	-9.85125
競走	-9.85153
俊	-9.85175
価格	-9.85253
!』	-9.85274
1998	-9.85291
立て	-9.85315
憲法	-9.85366
!」	-9.85374
皇	-9.85395
芸	-9.85423
物質	-9.85428
、2008	-9.85442
59	-9.85546
のほか	-9.85587
、2007	-9.85589
性能	-9.85628
ずつ	-9.85684
伝統	-9.85687
部長	-9.85695
.3	-9.85712
ことも	-9.85762
あまり	-9.85795
談	-9.85809
ィ	-9.85863
まだ	-9.85912
64	-9.85913
SS	-9.85951
?	-9.85978
についても	-9.85998
』、『	-9.86019
、2009	-9.86021
一時	-9.86035
カラー	-9.86067
プレイヤー	-9.86102
意味	-9.86115
対立	-9.86117
PC	-9.86159
えた	-9.86261
できた	-9.86323
の後	-9.86327
史上	-9.86365
の名称	-9.86388
対戦	-9.86406
継承	-9.86452
自治	-9.86512
込んだ	-9.86562
輝	-9.86582
由	-9.86592
球団	-9.86639
町の	-9.86718
かつては	-9.86746
主催	-9.86787
その他の	-9.86901
ラル	-9.86912
迫	-9.86938
合計	-9.8696
狭	-9.86981
実現	-9.86983
沖	-9.87012
エス	-9.87059
1964	-9.87115
1967	-9.87137
仮	-9.87166
カメラ	-9.87199
貨物	-9.87204
暦	-9.8723
ポール	-9.8727
アイドル	-9.87273
号線	-9.87316
乳	-9.87379
潮	-9.87478
75	-9.87485
枝	-9.87579
扱い	-9.87645
金属	-9.8767
市長	-9.87713
高等	-9.87812
長官	-9.87846
と言う	-9.87863
裁	-9.8787
メント	-9.87875
展示	-9.87881
その他	-9.87924
おお	-9.87969
推進	-9.88029
からなる	-9.88103
クロス	-9.88178
失敗	-9.88183
東北	-9.88194
設備	-9.88199
の中心	-9.882
たか	-9.88275
の元	-9.88295
ha	-9.88412
臨	-9.88421
かなり	-9.88497
んでいる	-9.88507
成立	-9.88509
指導者	-9.88511
出力	-9.88517
期待	-9.88535
ソロ	-9.88579
統治	-9.88629
ダンス	-9.88636
力を	-9.88675
インターネット	-9.88678
梅	-9.88682
なくなった	-9.88684
の歴史	-9.88729
ビン	-9.8873
聞	-9.88777
結成	-9.88782
ほう	-9.88788
フィー	-9.88808
声優	-9.88817
ちゃん	-9.88829
国鉄	-9.88846
モード	-9.88866
きょう	-9.88922
資格	-9.88961
51	-9.88965
までに	-9.88999
ウィン	-9.89021
いい	-9.89036
辞	-9.89107
鳴	-9.89158
浅	-9.89161
ウォー	-9.89172
完全に	-9.89174
在籍	-9.89202
and	-9.89212
区別	-9.8924
テー	-9.89258
メキシコ	-9.89294
旅行	-9.89307
自動	-9.89315
一度	-9.89319
証	-9.894
デー	-9.89408
すべての	-9.89422
児童	-9.89467
RA	-9.89475
現在では	-9.89479
方針	-9.8948
スカ	-9.8953
ここで	-9.89631
刊行	-9.89708
ワイ	-9.89765
ボル	-9.89797
いう	-9.89801
1944	-9.89818
前作	-9.8986
IS	-9.89865
奏	-9.89893
今日	-9.89936
医学	-9.90014
半島	-9.90083
サル	-9.901
邦	-9.90106
準備	-9.90121
川の	-9.90123
菌	-9.90134
次郎	-9.90135
ものであった	-9.90159
衛	-9.90193
スウェーデン	-9.90211
実際に	-9.90231
パラ	-9.90275
のメンバー	-9.90379
1950	-9.90395
シル	-9.90405
ヒル	-9.90431
姫	-9.90438
当時は	-9.90443
施行	-9.90549
券	-9.90551
のちに	-9.90553
形状	-9.90556
...	-9.90685
ネットワーク	-9.90686
アク	-9.90704
ドラ	-9.90712
ケース	-9.90749
PS	-9.90803
まり	-9.90817
▁2004	-9.90822
陰	-9.90862
となっており	-9.9091
オフ	-9.90911
焼	-9.9094
裁判	-9.90986
結局	-9.90999
眼	-9.91
穴	-9.91003
52	-9.91014
1965	-9.91046
会場	-9.91068
ウィリアム	-9.91138
因	-9.91181
尊	-9.91225
エリア	-9.91233
更新	-9.91238
連隊	-9.91241
武器	-9.91249
アナウンサー	-9.91279
至	-9.91344
掛け	-9.91394
自身	-9.91422
影	-9.91447
派遣	-9.91459
、2006	-9.91482
を得た	-9.9149
アラ	-9.91535
)4	-9.91558
サイド	-9.91587
ウン	-9.91628
率いる	-9.91631
同社	-9.91657
傾向	-9.91692
性の	-9.91729
ブルク	-9.91741
ファイ	-9.91756
されていたが	-9.91761
きた	-9.91762
フィールド	-9.91768
RO	-9.91781
評	-9.91784
従来の	-9.91811
1983	-9.91817
年にかけて	-9.91836
TO	-9.91844
快	-9.91856
練習	-9.91872
と同様に	-9.91883
尚	-9.91906
1966	-9.91934
年代に	-9.9202
セイ	-9.92023
さい	-9.92043
鎮	-9.92047
完全	-9.92122
人民	-9.92132
年生	-9.92146
と同	-9.92311
続	-9.92324
1996	-9.92328
その後も	-9.92386
▁formula	-9.92406
衣	-9.92414
それら	-9.92439
平和	-9.92454
伝説	-9.92464
ジャパン	-9.92471
鬼	-9.92498
管轄	-9.92499
デス	-9.92526
ジュニア	-9.92526
電話	-9.92555
よし	-9.92584
ナル	-9.92605
杉	-9.92659
埼玉県	-9.92677
化された	-9.92688
灯	-9.92689
決勝	-9.92714
告	-9.92837
試	-9.92864
1940	-9.92872
1997	-9.92901
近代	-9.92908
低い	-9.92922
ごう	-9.92925
復	-9.92935
2003	-9.92972
じょう	-9.92997
愛知県	-9.93013
就任	-9.93023
すでに	-9.93065
をはじめ	-9.93076
不足	-9.93118
ものが	-9.93126
独自の	-9.93145
彼ら	-9.93174
起こ	-9.93186
ベー	-9.93191
se	-9.93202
を有する	-9.93231
地点	-9.9326
られていた	-9.93268
の結果	-9.93281
ようになり	-9.93352
▁de	-9.93379
ていく	-9.9339
ST	-9.93397
関数	-9.93479
済	-9.93492
、2011	-9.93497
を用いて	-9.9351
レギュラー	-9.9356
デイ	-9.93606
移籍	-9.93675
マリ	-9.93697
ということ	-9.93706
封	-9.93757
ソフトウェア	-9.9381
固	-9.9385
航	-9.93913
混	-9.93948
むら	-9.93951
lo	-9.93962
結合	-9.93962
GP	-9.94162
良い	-9.94203
中止	-9.94205
ショ	-9.9424
解放	-9.94249
です	-9.94382
US	-9.94393
銅	-9.94474
▁and	-9.94478
去	-9.94512
1995	-9.94535
TBS	-9.94564
らい	-9.94584
ブラック	-9.94588
頃から	-9.94594
キリスト教	-9.94605
開催された	-9.94629
間に	-9.9465
回復	-9.94675
毒	-9.94687
付近	-9.94688
念	-9.94693
許可	-9.947
雷	-9.94767
)3	-9.94773
到着	-9.94798
祝	-9.94798
一般に	-9.94818
区域	-9.94822
学会	-9.94823
当選	-9.9484
幕府	-9.94841
最初に	-9.94844
専	-9.94863
を卒業	-9.94899
戦い	-9.94904
▁本	-9.95054
のか	-9.95108
皮	-9.95114
舞	-9.95166
の作品	-9.9517
願	-9.95173
。2010	-9.9519
日より	-9.95203
誤	-9.95204
AR	-9.95256
並	-9.95263
NA	-9.95289
度の	-9.95307
ma	-9.95328
トンネル	-9.95335
憲	-9.9534
那	-9.95368
鋼	-9.95371
ベルト	-9.95374
諸国	-9.95393
奈	-9.95427
太平洋	-9.95459
始め	-9.95506
替え	-9.9551
改善	-9.95525
ay	-9.95539
友人	-9.95693
戦車	-9.95765
なった	-9.95766
1930	-9.95766
しながら	-9.95779
することが	-9.95825
臣	-9.95861
公開された	-9.9587
分析	-9.95882
種の	-9.95896
分の	-9.95896
ig	-9.95929
市出身	-9.95968
ポリ	-9.95976
一郎	-9.96016
暗	-9.96026
などがある	-9.96051
レッ	-9.96125
成績	-9.96177
固定	-9.96265
800	-9.9631
AN	-9.96335
人を	-9.96342
後半	-9.96374
稲	-9.96383
事実	-9.9644
始めた	-9.96446
ne	-9.96448
執行	-9.96454
ング	-9.96461
カリ	-9.9647
99	-9.96498
やがて	-9.96506
階級	-9.96515
、2012	-9.96518
ンズ	-9.96581
の存在	-9.96598
CA	-9.96653
ここ	-9.96721
取引	-9.96764
理解	-9.96839
燃料	-9.96901
im	-9.96993
創	-9.97006
仲間	-9.9701
ものは	-9.97087
以外	-9.97105
合成	-9.97112
捕	-9.97169
るため	-9.9718
co	-9.97252
衆	-9.97257
が可能	-9.97391
進行	-9.97403
崩壊	-9.97411
困難	-9.97442
維持	-9.9751
ルド	-9.97519
認識	-9.97522
SA	-9.97528
担	-9.97565
規制	-9.97584
2002	-9.9759
氷	-9.97616
貿易	-9.97629
思い	-9.97632
しま	-9.97701
用語	-9.97717
OR	-9.97806
ut	-9.97823
包	-9.97881
航空機	-9.97922
んでいた	-9.97925
なども	-9.97936
ペル	-9.97944
作用	-9.9799
神奈川県	-9.98094
1963	-9.98108
イオン	-9.9813
の中に	-9.98138
使用された	-9.9822
東海	-9.98232
1990	-9.98234
鹿	-9.98235
するための	-9.98282
鈴木	-9.98284
か月	-9.98293
旅客	-9.98308
卒業後	-9.98349
早く	-9.98402
苦	-9.98404
に出演	-9.9843
ぬ	-9.9847
規模	-9.98517
贈	-9.98551
を発表	-9.9858
に入った	-9.98594
古い	-9.98622
妹	-9.9874
司令官	-9.98756
AC	-9.98758
機の	-9.98789
恋	-9.9884
マリア	-9.98848
沖縄	-9.98905
翻訳	-9.98932
死亡	-9.98939
世は	-9.98985
処分	-9.99025
植民地	-9.99043
共に	-9.99117
飯	-9.99134
組合	-9.99152
衛星	-9.99186
滝	-9.99229
聴	-9.99283
こともあり	-9.99305
▁in	-9.99325
を使って	-9.99327
作られた	-9.99327
荘	-9.9933
アウト	-9.99344
とされた	-9.99375
だろう	-9.99407
いない	-9.99422
TA	-9.99433
爆	-9.99486
集合	-9.9956
依頼	-9.99646
アイルランド	-9.9968
羅	-9.99686
医師	-9.99688
1943	-9.99693
伊勢	-9.99695
1994	-9.99704
プレー	-9.99728
を記録した	-9.99754
たちの	-9.9976
ミル	-9.99771
スは	-9.99805
とされ	-9.99824
セント	-9.9989
ひろ	-9.99897
他に	-9.99927
で開催された	-9.99949
使用される	-10.0015
#	-10.0017
を除く	-10.0017
ちょう	-10.0019
ブロック	-10.0019
1960	-10.002
つき	-10.0028
ニング	-10.0032
各種	-10.0034
オリ	-10.0036
チュー	-10.004
最初	-10.0041
まとめ	-10.0043
RE	-10.0045
受賞	-10.0046
ine	-10.0046
想	-10.0053
地帯	-10.0057
なっている	-10.006
参戦	-10.0063
潜	-10.0064
グリーン	-10.0065
1962	-10.0074
と同時に	-10.0075
信号	-10.0077
兵器	-10.008
を結成	-10.0082
発言	-10.0083
田中	-10.0085
知られている	-10.0085
エリ	-10.0085
検査	-10.0085
それぞれの	-10.0087
SP	-10.0088
論文	-10.0094
の手	-10.0095
撃	-10.0095
側に	-10.0095
らが	-10.0096
偽	-10.0097
歩兵	-10.0104
べき	-10.0105
ベルク	-10.011
位の	-10.0113
らない	-10.0114
議論	-10.0118
三郎	-10.012
ディング	-10.0122
に就任	-10.0133
強く	-10.0135
テスト	-10.0136
段階	-10.0138
1947	-10.014
移転	-10.0142
露	-10.0144
を得る	-10.0148
遺跡	-10.0148
は約	-10.0149
を果たす	-10.015
解決	-10.0151
頃に	-10.0152
抵抗	-10.0161
1961	-10.0163
が必要	-10.0163
ジョー	-10.0163
op	-10.0165
画家	-10.0169
代わりに	-10.0169
に参加	-10.017
ER	-10.0172
宅	-10.0173
ニン	-10.018
雑	-10.0183
活	-10.0184
であるため	-10.0185
隠	-10.0188
仙台	-10.019
仕事	-10.0195
遅れ	-10.0196
テレ	-10.0197
つまり	-10.0199
卵	-10.0206
すぐに	-10.0214
福岡	-10.0215
リック	-10.0216
現象	-10.0217
ベルリン	-10.0221
手法	-10.0222
証明	-10.0223
侵攻	-10.0223
誠	-10.0223
河川	-10.0225
セー	-10.0226
虫	-10.0226
に由来する	-10.0228
千葉県	-10.0238
2001	-10.0239
少ない	-10.0241
に入る	-10.0241
王者	-10.0242
pan	-10.0247
注目	-10.0251
家庭	-10.0252
形成	-10.0254
の息子	-10.0257
コンサート	-10.0258
学科	-10.0258
イヤー	-10.0264
ネー	-10.0265
っていない	-10.0277
拡張	-10.0278
抜	-10.0278
ヴァル	-10.0281
浮	-10.0281
冊	-10.0281
価値	-10.0284
帰国	-10.0285
ウェル	-10.0287
表面	-10.0289
脚本	-10.0291
ナイト	-10.0291
アーティスト	-10.0293
サラ	-10.0295
ごろ	-10.0296
グランプリ	-10.0297
兵庫県	-10.0297
アム	-10.03
及	-10.0301
香港	-10.0302
ぶり	-10.0302
ミス	-10.0303
底	-10.0303
オーバー	-10.0309
時は	-10.0311
選出	-10.0314
日間	-10.0317
ころ	-10.0317
展	-10.0318
のひとつ	-10.0321
1993	-10.0323
ヴェル	-10.0326
低下	-10.0332
艇	-10.0335
後も	-10.0339
ことにより	-10.034
負傷	-10.0341
彼らは	-10.0341
舎	-10.0343
発射	-10.0344
裕	-10.0347
MS	-10.0349
マク	-10.0356
1946	-10.036
アリ	-10.0367
チョ	-10.037
宣	-10.0371
UN	-10.0374
犯罪	-10.0376
承認	-10.0376
街道	-10.0377
ルール	-10.038
キュ	-10.0382
すべき	-10.0384
滅	-10.0385
政党	-10.0385
晴	-10.0386
スー	-10.0387
戦略	-10.0389
を始め	-10.0392
1942	-10.0396
に関しては	-10.0398
に基づく	-10.0398
有効	-10.0399
ソング	-10.0399
集落	-10.04
ってきた	-10.0402
糸	-10.0406
移住	-10.0415
継	-10.042
していく	-10.0422
1980	-10.0422
1992	-10.0424
畑	-10.0426
ホル	-10.0427
にわたって	-10.0431
来た	-10.0437
ばかり	-10.0443
のまま	-10.0448
うち	-10.0452
およそ	-10.0453
健康	-10.0455
いく	-10.0455
されること	-10.0455
コール	-10.0462
づ	-10.0464
それが	-10.0464
沈	-10.0466
ry	-10.047
コス	-10.0473
身長	-10.0475
我	-10.0475
厳	-10.0476
600	-10.0477
最終的に	-10.0478
場合もある	-10.0479
生成	-10.048
式の	-10.0482
SE	-10.0482
テレビドラマ	-10.0483
サイズ	-10.0483
果	-10.0485
ケイ	-10.0491
トム	-10.0492
ニック	-10.0493
ワシントン	-10.0493
▁2000	-10.0495
後述	-10.0497
権を	-10.0497
藤原	-10.0498
を引き	-10.0505
紅	-10.0505
度目の	-10.0507
からも	-10.0514
長期	-10.0514
打率	-10.0518
危機	-10.0519
電車	-10.0522
幾	-10.0525
責任	-10.0528
判	-10.0528
分割	-10.0529
地に	-10.0536
、2013	-10.054
神経	-10.0549
性格	-10.0555
部に	-10.0563
それまで	-10.0573
前述の	-10.0574
▁c	-10.0576
庄	-10.0576
録音	-10.0578
既に	-10.0581
現地	-10.0581
母親	-10.0583
ドア	-10.0584
再開	-10.0585
確立	-10.0591
てしまう	-10.0597
-4	-10.0599
第二次世界大戦	-10.06
フラン	-10.0601
ワールドカップ	-10.0602
ON	-10.0602
1991	-10.061
ギリシャ	-10.0617
1920	-10.0621
幹	-10.0621
全米	-10.0626
無く	-10.0626
飛び	-10.0627
-6	-10.0629
かけ	-10.0629
山口	-10.0631
泰	-10.0633
息	-10.0636
牧	-10.0642
中村	-10.0644
1948	-10.0645
、2005	-10.0648
雅	-10.0653
グレ	-10.066
投資	-10.067
1958	-10.0674
貫	-10.0676
彼女は	-10.0677
調整	-10.0678
しても	-10.0679
月より	-10.0681
行われる	-10.069
広告	-10.0691
に位置し	-10.0693
巡	-10.0696
楽器	-10.0708
当たり	-10.0708
漁	-10.0709
ページ	-10.071
年以降	-10.0711
活動を	-10.0712
込んで	-10.0713
ac	-10.0716
分子	-10.0717
スタジアム	-10.0718
▁("	-10.0719
CO	-10.0722
新人	-10.0725
に加え	-10.0726
ドリ	-10.0728
os	-10.0731
複数	-10.0737
と対戦し	-10.0738
、2014	-10.0738
と考えられる	-10.0739
ロール	-10.0739
向き	-10.0742
上昇	-10.0742
島の	-10.0745
の間で	-10.0751
1941	-10.0751
的には	-10.0756
刻	-10.0758
カット	-10.0765
用いられる	-10.0767
é	-10.0771
功	-10.0771
分布	-10.0775
MO	-10.0775
有名な	-10.0782
英国	-10.0784
カバー	-10.0791
開幕	-10.0794
1952	-10.0795
墓	-10.0798
コロ	-10.0798
通常の	-10.0799
に至る	-10.0802
西側	-10.0802
解説	-10.0804
チャンピオン	-10.0807
逃げ	-10.0808
名誉	-10.0809
一覧	-10.0812
長崎	-10.0817
供	-10.0817
ギター	-10.0821
学院	-10.0821
と呼ばれ	-10.0825
激	-10.0834
なん	-10.0834
しゃ	-10.0847
150	-10.085
適用	-10.085
駆逐艦	-10.0853
労働者	-10.0857
シュー	-10.086
スペース	-10.0861
シャン	-10.0862
▁Co	-10.0867
日本で	-10.0871
たちが	-10.0871
同一	-10.0872
リュー	-10.0873
チャンネル	-10.0873
有名	-10.0879
ごと	-10.0879
殺害	-10.0886
ell	-10.0887
▁2003	-10.0892
62	-10.0893
ive	-10.0894
空軍	-10.0897
1955	-10.09
票	-10.0901
中間	-10.0902
についての	-10.0902
嘉	-10.0904
美術館	-10.0905
豪	-10.0912
formula	-10.0913
助け	-10.0915
判断	-10.0918
スペシャル	-10.0927
チームの	-10.0933
マッ	-10.0936
all	-10.0937
人に	-10.0938
なければ	-10.094
下の	-10.0947
を用いた	-10.0955
スクール	-10.0956
職員	-10.0959
期の	-10.0959
1949	-10.096
監	-10.0961
吉田	-10.0962
充	-10.0962
浪	-10.0964
庫	-10.0969
国王	-10.097
阪神	-10.0972
中世	-10.0972
の各	-10.0973
関係者	-10.0979
輸入	-10.0981
ゲスト	-10.0983
協	-10.0988
サポート	-10.0993
上位	-10.0996
発達	-10.0996
発表された	-10.1002
加入	-10.1009
ハル	-10.1014
社の	-10.1014
東西	-10.1018
惑星	-10.1022
つけ	-10.1026
動き	-10.1028
2019	-10.1029
マイル	-10.103
寄せ	-10.1031
の下	-10.1035
各国	-10.1038
長く	-10.1038
初め	-10.1039
作曲家	-10.1043
FA	-10.1047
争	-10.1047
はじめ	-10.1048
さまざまな	-10.105
えて	-10.1052
色の	-10.1057
ではないか	-10.1062
犯	-10.1067
千葉	-10.1071
ill	-10.1072
佐藤	-10.1072
完	-10.1083
基本的に	-10.1084
再建	-10.1086
の際に	-10.1087
著作	-10.1087
1956	-10.109
裁判所	-10.1091
信仰	-10.1091
63	-10.1093
メー	-10.1097
本名	-10.1099
事実上	-10.1101
、2000	-10.1112
とも呼ばれる	-10.1112
特定の	-10.1112
予	-10.1113
待	-10.1114
昇格	-10.1116
が行われる	-10.1118
患者	-10.1118
執	-10.1118
残る	-10.1119
川崎	-10.1122
芳	-10.1123
に登場する	-10.1131
潜水艦	-10.1135
食品	-10.1135
哲学	-10.1136
のみで	-10.1136
架	-10.114
夕	-10.1142
万ドル	-10.1143
当駅	-10.1144
中学	-10.1145
財政	-10.1146
筑	-10.1148
を得て	-10.1151
に終わった	-10.1157
レル	-10.1158
77	-10.116
BA	-10.1162
急行	-10.1164
ロイ	-10.1164
ハンガリー	-10.1165
述	-10.1166
奇	-10.1168
であること	-10.1176
エジプト	-10.1178
de	-10.118
作り	-10.1186
持つ	-10.1187
山田	-10.1187
、2015	-10.1189
1959	-10.1191
突	-10.1195
om	-10.1199
を担当	-10.1199
ピン	-10.1202
誘	-10.1203
おか	-10.1208
笑	-10.1208
末期	-10.121
呉	-10.1212
ース	-10.1213
規格	-10.1215
寄り	-10.122
髪	-10.1221
脇	-10.1225
発見された	-10.1225
範囲	-10.1228
下げ	-10.1229
特急	-10.1229
規則	-10.1231
逆に	-10.1233
工学	-10.1234
SC	-10.1235
▁U	-10.1236
含	-10.1241
承	-10.1243
78	-10.125
の場合は	-10.1252
このとき	-10.1256
▁ア	-10.1257
ce	-10.1262
南北	-10.1263
を実施	-10.1267
護衛	-10.1269
特殊	-10.1269
知識	-10.1269
結び	-10.1271
刺	-10.1272
コンビ	-10.1272
検討	-10.1273
兵士	-10.1273
穂	-10.1276
事態	-10.1277
使い	-10.1277
パワー	-10.1277
ストラ	-10.1281
業界	-10.1288
集中	-10.129
左右	-10.1294
ストン	-10.1294
われた	-10.1294
双	-10.1306
ティン	-10.1307
ゆう	-10.1308
レーベル	-10.1309
古墳	-10.131
昇	-10.1311
たもの	-10.1317
施	-10.1317
ほどの	-10.1324
EN	-10.1326
軍人	-10.134
肥	-10.1345
の世界	-10.1347
取得	-10.1349
かな	-10.1352
ard	-10.1353
大規模な	-10.1356
就	-10.1356
執筆	-10.1362
する事	-10.1363
駒	-10.1365
AS	-10.137
art	-10.1372
同様に	-10.1375
スイス	-10.138
性を	-10.1384
mi	-10.1386
ate	-10.1388
それに	-10.139
押し	-10.139
死去した	-10.1395
過去	-10.1396
処	-10.1396
えき	-10.1398
場合には	-10.1399
95	-10.1403
買	-10.1404
月号	-10.1406
よい	-10.141
事務	-10.1412
福岡県	-10.1414
〉	-10.1415
1954	-10.1416
正式に	-10.1418
〈	-10.1423
バート	-10.1426
交差点	-10.1426
守備	-10.1426
に就任した	-10.1427
数が	-10.1428
を獲得	-10.1429
一番	-10.1429
ファイル	-10.1431
教師	-10.1431
。2007	-10.1433
ユダヤ人	-10.1435
言い	-10.144
大学院	-10.144
青年	-10.1441
に関して	-10.1444
吹	-10.1447
▁St	-10.1449
。2008	-10.1451
。2009	-10.1452
故	-10.1452
向けの	-10.1459
盗	-10.146
不明	-10.1463
76	-10.1466
世界選手権	-10.1474
プロレス	-10.1475
キャリア	-10.1476
審	-10.1476
続き	-10.1482
札	-10.1488
地域の	-10.1489
育成	-10.1491
するもの	-10.1495
億円	-10.1495
一般的に	-10.1496
たため	-10.1498
動作	-10.1502
中部	-10.1502
文庫	-10.1502
タレント	-10.1503
地下鉄	-10.1506
フェン	-10.1507
株	-10.1507
隣	-10.1508
箱	-10.1518
に移籍	-10.152
ブロ	-10.1521
多い	-10.1523
画面	-10.1523
空気	-10.153
ことになった	-10.1535
現場	-10.1535
1957	-10.1537
走行	-10.1539
KO	-10.1544
岳	-10.1545
、2004	-10.1547
公共	-10.1549
解釈	-10.1549
1999	-10.1552
始	-10.1554
その後は	-10.156
ヌス	-10.1563
ツィ	-10.1565
丹	-10.1573
アカデミー	-10.1574
丁	-10.1574
弟子	-10.158
閉鎖	-10.1581
ダウン	-10.1582
世紀の	-10.1585
こそ	-10.1588
るようになった	-10.1589
リンク	-10.1591
一族	-10.1597
姉	-10.1598
敷	-10.1599
主要	-10.16
取締役	-10.1601
無料	-10.1605
建設された	-10.1607
自らの	-10.1611
""	-10.1613
玄	-10.1624
を使用する	-10.1628
個体	-10.1629
1953	-10.1635
主要な	-10.1637
負け	-10.1639
)12	-10.164
投入	-10.1648
回り	-10.1651
希望	-10.1653
掛	-10.1656
けい	-10.1657
85	-10.166
吸収	-10.1666
効	-10.1671
臨時	-10.1673
装甲	-10.1677
あたり	-10.1677
学習	-10.1681
マシン	-10.1683
膜	-10.1683
を表す	-10.1684
1988	-10.1684
卒	-10.1684
毎	-10.1684
発足	-10.1685
有力	-10.1686
縦	-10.1687
ポジションは	-10.1691
寺院	-10.1691
現在も	-10.1698
、2016	-10.17
救	-10.1708
義務	-10.171
中華人民共和国	-10.171
▁/	-10.171
ly	-10.1713
子は	-10.1714
沿岸	-10.1715
ロケット	-10.1721
1989	-10.1722
86	-10.1724
協定	-10.1726
おう	-10.1726
にもかかわらず	-10.1728
講師	-10.1729
▁2002	-10.1732
to	-10.1737
要請	-10.1737
。2011	-10.1738
リアン	-10.1742
ポルトガル	-10.1746
AL	-10.1746
撤退	-10.1747
RI	-10.1749
ME	-10.175
箇所	-10.1751
ガイ	-10.1756
取った	-10.1763
テロ	-10.1766
衝突	-10.1773
側面	-10.1777
アクション	-10.178
爆発	-10.1791
を与え	-10.1792
ベトナム	-10.1795
再生	-10.1796
メール	-10.1797
抜け	-10.1799
秘	-10.18
インター	-10.1803
1951	-10.1805
統計	-10.1806
状の	-10.1806
争い	-10.181
ものであり	-10.1814
あい	-10.1823
もっとも	-10.1825
改め	-10.1825
残り	-10.1827
引き続き	-10.1828
登板	-10.1829
機会	-10.1829
レオ	-10.1836
と述べている	-10.1837
年齢	-10.1838
賞を受賞	-10.1839
山本	-10.1844
大和	-10.1852
モノ	-10.1856
ジャック	-10.1857
モーター	-10.1857
ヤン	-10.1859
父の	-10.186
で最も	-10.1861
WA	-10.1869
寛	-10.1869
定期	-10.1872
ロサンゼルス	-10.1872
BC	-10.1876
捜査	-10.1877
;	-10.1877
標高	-10.1881
荷	-10.1882
目に	-10.1884
縮	-10.1884
次第に	-10.1888
生命	-10.1893
栗	-10.1895
AP	-10.1895
植	-10.1896
と思われる	-10.1896
1939	-10.1902
棒	-10.1904
試み	-10.1907
tion	-10.1907
写	-10.1909
静岡県	-10.1916
ッキー	-10.192
薄	-10.1921
手段	-10.1925
も多い	-10.1929
ビジネス	-10.1932
特定	-10.1932
大学で	-10.1933
66	-10.1944
コミック	-10.1945
季	-10.1945
魔法	-10.1945
てしまった	-10.1948
弁護士	-10.195
賢	-10.1954
胸	-10.1955
di	-10.1956
勤務	-10.1957
開発された	-10.1961
ものを	-10.1966
ものと	-10.1967
鏡	-10.1968
ける	-10.1972
以前は	-10.1972
を得	-10.1973
エピソード	-10.1973
常に	-10.1973
注意	-10.1974
を取得	-10.1976
同時	-10.1977
寝	-10.1978
マッチ	-10.1985
比較	-10.1986
上記の	-10.1986
ジェイ	-10.199
年からは	-10.1991
をする	-10.1992
栽培	-10.1996
酸化	-10.1999
自身が	-10.2002
入団	-10.2003
練	-10.2004
を用いる	-10.2005
アクセス	-10.2006
グロ	-10.2007
わない	-10.201
個の	-10.2011
奈良	-10.2012
も多く	-10.2013
奉	-10.2014
させて	-10.2015
フェル	-10.2017
形の	-10.2019
類似	-10.2022
FM	-10.2024
違	-10.2026
消費	-10.2028
背景	-10.2037
所有	-10.2037
ることができる	-10.2041
ag	-10.2045
僧	-10.2047
様子	-10.2048
業者	-10.205
籍	-10.2051
]	-10.2051
恩	-10.2051
が出	-10.2057
サブ	-10.2057
のない	-10.2057
財	-10.2057
以前の	-10.2057
芸能	-10.2061
周囲	-10.2062
通過	-10.2062
の前	-10.2063
痛	-10.2064
共演	-10.2064
当て	-10.2065
寒	-10.2065
au	-10.2068
肩	-10.207
ブレーキ	-10.2073
67	-10.2077
パイ	-10.2079
言う	-10.2083
せる	-10.2083
国境	-10.209
上映	-10.2094
ヘンリー	-10.2095
やすい	-10.2096
本来	-10.2097
見られる	-10.2097
進む	-10.2099
年現在	-10.2104
駅間	-10.2106
スコ	-10.2107
リウス	-10.2107
メジャー	-10.2108
卿	-10.2112
ge	-10.2112
[	-10.2116
68	-10.2117
るが	-10.212
ight	-10.2121
駅前	-10.2122
彼女の	-10.2124
須	-10.2124
深夜	-10.2124
合わせ	-10.213
▁s	-10.2131
統	-10.2133
ユーザー	-10.2134
とり	-10.2136
離れ	-10.2137
ホワイト	-10.214
の下で	-10.2142
歳の	-10.2142
NE	-10.2149
仏教	-10.2149
。2012	-10.2153
を超える	-10.2156
チャン	-10.2158
ハム	-10.2159
一般的な	-10.2163
トルコ	-10.2164
警	-10.2167
モスクワ	-10.2168
項目	-10.2168
戦では	-10.2171
理事	-10.2173
やり	-10.2173
怪	-10.2177
獣	-10.2177
の一つである	-10.2178
フィン	-10.219
耐	-10.2191
妙	-10.2191
姉妹	-10.2192
三菱	-10.2193
ていった	-10.2199
公立	-10.2201
まち	-10.2202
を設け	-10.2203
ロバート	-10.2213
反乱	-10.2216
構想	-10.222
すぐ	-10.2221
東側	-10.2221
mo	-10.2222
性質	-10.2225
保守	-10.2226
nd	-10.2229
ゲイ	-10.2232
将来	-10.2232
虎	-10.2243
に取り	-10.2246
長野県	-10.2246
否定	-10.2248
昭	-10.225
ta	-10.225
染	-10.2256
1987	-10.2259
話題	-10.2259
議長	-10.2261
に入学	-10.2261
づけ	-10.2261
挑戦	-10.2265
はほとんど	-10.2267
上げた	-10.2268
指示	-10.227
に所属	-10.2274
駅舎	-10.2275
深い	-10.2275
即位	-10.2277
微	-10.2278
繋	-10.228
を通して	-10.2283
世紀に	-10.2289
88	-10.229
免許	-10.2291
61	-10.2292
。2006	-10.2293
を作る	-10.2294
できなかった	-10.2297
面積	-10.2299
労	-10.2299
疑	-10.2302
扉	-10.2305
つつ	-10.2307
ミサイル	-10.231
EC	-10.2313
整	-10.2316
清水	-10.2316
創立	-10.2319
98	-10.2319
IT	-10.232
▁2001	-10.2321
従来	-10.2322
兵衛	-10.2322
Windows	-10.2329
覆	-10.2334
輸出	-10.2336
即	-10.2338
cols	-10.2339
判定	-10.2345
著書	-10.2349
留学	-10.2349
現役	-10.2349
駐	-10.235
することになった	-10.2358
講	-10.2359
は以下の通り	-10.2361
好き	-10.2363
ni	-10.2366
人と	-10.2367
プラン	-10.2367
物の	-10.237
使用されている	-10.2375
ノル	-10.2376
各地	-10.2376
na	-10.2388
フジテレビ	-10.2392
者に	-10.2394
少し	-10.2394
ヘン	-10.2397
離脱	-10.2397
まった	-10.2404
に帰	-10.2407
人類	-10.2411
ヴィン	-10.2412
歌詞	-10.2421
使用する	-10.2423
権利	-10.2426
1938	-10.2428
歴	-10.2429
シート	-10.2431
BO	-10.2438
松本	-10.2442
判決	-10.2442
1986	-10.2443
高橋	-10.2448
次元	-10.2452
ヌー	-10.2452
フー	-10.2453
陳	-10.2453
が担当	-10.2454
現実	-10.2459
改修	-10.246
を集め	-10.2462
しかしながら	-10.2464
市にある	-10.2465
確保	-10.2466
インディアン	-10.2469
極めて	-10.2474
リリースされた	-10.2477
全く	-10.2479
体の	-10.2482
嫌	-10.2483
コミュニティ	-10.2487
首都	-10.2488
1985	-10.2489
硬	-10.2492
概念	-10.2497
96	-10.2498
たる	-10.2498
プロ野球	-10.2499
ポル	-10.2499
1937	-10.25
居住	-10.2503
になっていた	-10.2506
刑事	-10.251
届	-10.2513
暴	-10.2514
ve	-10.2517
入学	-10.2517
の問題	-10.2517
伸び	-10.2517
ou	-10.252
古典	-10.2521
様式	-10.2524
戦隊	-10.2527
帳	-10.253
合わせて	-10.2534
年頃	-10.2547
という意味	-10.2548
の三	-10.2553
以降の	-10.2553
滑	-10.2555
本の	-10.2556
事情	-10.2556
混乱	-10.2556
ex	-10.2561
続いて	-10.2561
紫	-10.2565
主力	-10.2569
伊藤	-10.2573
ズの	-10.2574
続け	-10.2574
マスター	-10.2574
モンゴル	-10.2575
庭	-10.2576
ッター	-10.2579
を変え	-10.2579
起き	-10.2583
と呼ばれた	-10.2586
句	-10.2589
創刊	-10.259
ても	-10.259
天正	-10.2591
物を	-10.2595
と同じく	-10.2596
700	-10.2597
仙	-10.26
と結婚	-10.26
消防	-10.26
LE	-10.2602
ロウ	-10.2603
粉	-10.2604
したのは	-10.2605
沿い	-10.2606
生息	-10.2609
はなく	-10.2614
授与	-10.2614
前年	-10.2615
作目	-10.2616
札幌	-10.2618
かく	-10.2619
金融	-10.2621
モル	-10.2623
武装	-10.2629
そのような	-10.2633
命名	-10.2634
をしている	-10.2637
プロダクション	-10.2638
軍団	-10.2639
アート	-10.2643
われる	-10.2644
重量	-10.2645
合意	-10.265
費用	-10.265
スキ	-10.2651
TE	-10.2658
随	-10.2661
利益	-10.2667
演劇	-10.2669
相撲	-10.2672
外交	-10.2672
LA	-10.2673
であれば	-10.2674
サム	-10.2674
最多	-10.2678
徐々に	-10.2684
彩	-10.2685
過ぎ	-10.2685
リズム	-10.2685
オペラ	-10.2686
の高い	-10.2687
彼が	-10.2687
与えられた	-10.2688
1936	-10.2691
両者	-10.2692
棟	-10.2692
戦闘機	-10.2692
事業者	-10.2693
参照	-10.2696
劇団	-10.2697
リーダー	-10.2704
地名	-10.2705
外国	-10.2708
AM	-10.2711
敷地	-10.2713
歴代	-10.2713
湿	-10.2717
知られ	-10.2718
磁	-10.2721
、2017	-10.2722
趣味	-10.2722
制定	-10.2722
無線	-10.2738
あと	-10.2745
ギリシア	-10.2747
洲	-10.2747
体重	-10.2749
相当	-10.2749
、1990	-10.275
ビット	-10.275
こちら	-10.2752
est	-10.2756
養子	-10.2756
描写	-10.2757
一致	-10.2761
監督の	-10.2761
に参加した	-10.2763
飲	-10.2763
自宅	-10.2765
たこと	-10.2766
売り	-10.2769
提出	-10.2773
ギャ	-10.2779
先発	-10.278
両親	-10.278
希	-10.2781
月場所	-10.2783
劣	-10.2787
)10	-10.279
に属し	-10.2795
実際には	-10.2798
起源	-10.2799
本作の	-10.2803
の女性	-10.2804
濃	-10.2806
ブラン	-10.2811
強制	-10.2812
遠征	-10.2812
、2018	-10.2814
俗	-10.2816
変換	-10.2818
政府は	-10.282
イスラエル	-10.2827
ながらも	-10.2832
が高い	-10.2834
を開催	-10.2835
シリーズの	-10.2837
峰	-10.2846
中国の	-10.2846
碑	-10.2847
伴	-10.2848
討	-10.2849
ow	-10.2853
を始めた	-10.2855
若い	-10.2857
開通	-10.2862
SF	-10.2862
。2013	-10.2864
ph	-10.2866
メモリ	-10.2871
らの	-10.2871
るために	-10.2873
競	-10.2877
man	-10.2877
ミュ	-10.2879
関心	-10.288
限り	-10.2883
していった	-10.2884
広場	-10.2885
そこ	-10.2885
加盟	-10.2887
を描いた	-10.289
られて	-10.2892
ロング	-10.2893
vi	-10.2901
ハード	-10.2903
転換	-10.2905
☆	-10.2907
リッ	-10.2909
営業所	-10.291
新幹線	-10.2913
ap	-10.2914
バーン	-10.2916
体験	-10.2917
身体	-10.2919
ゼン	-10.2919
人で	-10.2921
かず	-10.2921
にまで	-10.2922
との間に	-10.2926
呼称	-10.2926
裂	-10.293
芝	-10.2931
に分かれ	-10.2932
役割	-10.2932
そこに	-10.2935
者として	-10.2937
しようと	-10.2938
子が	-10.2943
GA	-10.2943
高さ	-10.2949
アド	-10.2953
堅	-10.2953
戦線	-10.2956
キャン	-10.296
5%	-10.2963
侍	-10.2963
家臣	-10.2963
ゾン	-10.2964
修正	-10.2965
括	-10.2967
未来	-10.2969
合格	-10.2975
作品の	-10.298
審査	-10.2981
ant	-10.2983
書籍	-10.2987
他にも	-10.2988
画像	-10.2999
律	-10.3001
を求める	-10.3003
予想	-10.3004
文献	-10.3013
敏	-10.3014
付けた	-10.3016
描	-10.3019
葬	-10.3021
益	-10.3025
のことである	-10.3026
プライ	-10.3028
の多くは	-10.3028
されたもの	-10.3029
されない	-10.303
をリリース	-10.3034
be	-10.3041
伸	-10.3042
ment	-10.3043
シス	-10.3045
載	-10.3046
北側	-10.3047
建造	-10.3048
そんな	-10.3049
されなかった	-10.3053
新宿	-10.3055
状態で	-10.3056
として活動	-10.3059
ヘッド	-10.3061
子会社	-10.3063
を果たし	-10.3068
を発表した	-10.3071
69	-10.3072
クション	-10.3073
浩	-10.3075
操	-10.3076
襲撃	-10.3076
そのもの	-10.3078
外部	-10.308
ロッ	-10.3083
させること	-10.3085
弥	-10.3085
料金	-10.3085
グラン	-10.3094
唯一	-10.3095
故障	-10.3096
単行本	-10.3096
東洋	-10.3099
の建設	-10.3104
ers	-10.3104
予算	-10.3107
が特徴	-10.3116
に入って	-10.3116
大字	-10.3117
祖父	-10.3117
付属	-10.3118
恐れ	-10.3118
石油	-10.3118
89	-10.312
したという	-10.3123
かかる	-10.3123
公表	-10.3129
ナス	-10.313
ツァ	-10.3138
福島	-10.3138
補助	-10.3138
毎週	-10.3139
der	-10.3144
ヨー	-10.3145
流行	-10.3145
由来	-10.3147
山脈	-10.315
しょ	-10.3151
加藤	-10.3151
▁p	-10.3154
液	-10.3155
使われている	-10.3155
対抗	-10.3157
1984	-10.3158
垣	-10.3159
ab	-10.3164
測定	-10.3175
ho	-10.3179
藩主	-10.318
投げ	-10.3183
主体	-10.3185
止	-10.3185
時代は	-10.3186
版の	-10.3189
同様	-10.3189
▁f	-10.3191
以前	-10.3194
アメリカン	-10.3194
の使用	-10.3196
続けた	-10.32
不可能	-10.3202
儀	-10.3208
ビス	-10.3209
出来	-10.3209
するまで	-10.3211
高度	-10.3218
に従事	-10.3219
トーク	-10.322
休止	-10.322
長さ	-10.3222
数字	-10.3222
ity	-10.3224
立場	-10.3226
敗北	-10.3228
場面	-10.3229
フィルム	-10.3231
市街地	-10.3235
たま	-10.3236
バッ	-10.3237
課程	-10.3239
DE	-10.324
に伴う	-10.3241
材料	-10.3241
97	-10.3242
してしまう	-10.3243
。2005	-10.3248
キャラ	-10.3251
▁1990	-10.3252
わず	-10.3261
織	-10.3264
軍が	-10.3268
ラブ	-10.3269
1933	-10.327
離れた	-10.3271
研究者	-10.3271
模様	-10.3273
旨	-10.3277
峠	-10.3277
狂	-10.3277
ティス	-10.3281
耳	-10.3283
収入	-10.3283
基礎	-10.3283
競馬場	-10.3284
ガラス	-10.3284
に基づいて	-10.3288
。2014	-10.3288
者である	-10.3289
これらは	-10.329
ラク	-10.3292
中心部	-10.3292
名で	-10.3294
叙	-10.3297
小林	-10.3298
ムー	-10.33
。2015	-10.3302
岐	-10.3302
保有	-10.3306
駅から	-10.3306
カリフォルニア州	-10.3306
が置かれ	-10.3313
陵	-10.3314
の対象	-10.3315
do	-10.3321
組み合わせ	-10.3321
年代の	-10.3322
解体	-10.3322
知られる	-10.3327
者を	-10.3327
ロボット	-10.333
権力	-10.333
が行われている	-10.3333
ゲー	-10.3334
攻め	-10.3338
できず	-10.3341
を作り	-10.3345
周年	-10.3345
巨	-10.3346
クロー	-10.3346
朝の	-10.3353
午後	-10.3354
ノイ	-10.3354
なければならない	-10.3355
偏	-10.3356
ヒト	-10.3358
が増え	-10.3358
月末	-10.3359
終了後	-10.3368
壊	-10.3369
ウッド	-10.3369
プロデュース	-10.3372
を持っている	-10.3374
が見られる	-10.3377
存在する	-10.3378
活躍した	-10.3383
側は	-10.3385
危険	-10.3386
の関係	-10.3387
期に	-10.3391
ターン	-10.3394
MI	-10.3394
数学	-10.3396
下に	-10.3398
政府の	-10.3398
もともと	-10.3403
、2003	-10.3408
方の	-10.3412
を目指す	-10.3414
160	-10.3417
記憶	-10.342
機種	-10.342
動画	-10.3426
委員長	-10.343
されると	-10.3432
効率	-10.344
最優秀	-10.3441
この頃	-10.3444
韓	-10.3447
ペイ	-10.3452
に転	-10.3455
を記録	-10.3456
もない	-10.3456
交代	-10.3457
cc	-10.3459
半分	-10.3465
その結果	-10.3467
カトリック	-10.3469
鎌倉	-10.3471
:"	-10.3472
ディスク	-10.3472
書いた	-10.3474
パイロット	-10.3478
提携	-10.3478
激しい	-10.3479
イス	-10.3481
線が	-10.3482
発着	-10.3482
シリア	-10.3483
でない	-10.3485
日発売	-10.3486
推定	-10.3487
を使う	-10.349
政治家	-10.349
、1980	-10.3492
テイ	-10.3493
備え	-10.3493
買い	-10.3494
防御率	-10.3496
に生まれる	-10.3497
公認	-10.3497
ッタ	-10.3502
ネタ	-10.3509
民主	-10.3512
途	-10.3517
パート	-10.3519
北京	-10.3522
ak	-10.3524
範	-10.3526
岐阜県	-10.3527
捨て	-10.3528
ついた	-10.3536
地元の	-10.3537
ウム	-10.3543
職業	-10.3544
ピア	-10.3549
に相当する	-10.3551
守護	-10.3551
を中心とした	-10.3553
モリ	-10.3557
1932	-10.3558
完了	-10.3559
姿勢	-10.3565
追放	-10.3566
新潟県	-10.3568
ワイン	-10.3568
短い	-10.3568
)9	-10.357
登場する	-10.3571
司会	-10.3573
リード	-10.3574
ti	-10.3579
の乱	-10.3579
87	-10.3582
軒	-10.3586
の上	-10.3586
上げる	-10.3587
登場した	-10.3588
をもつ	-10.3588
やや	-10.359
相互	-10.3591
外国人	-10.3594
揚	-10.3596
フィリピン	-10.3596
実際の	-10.3597
原子	-10.3598
緒	-10.3602
京都府	-10.3602
出走	-10.3603
進化	-10.3603
-5	-10.3607
披露	-10.3608
タス	-10.3611
単に	-10.3612
に進出	-10.3612
福祉	-10.3613
トリー	-10.3617
ジャンル	-10.3619
設	-10.3622
進み	-10.3623
ベルギー	-10.3625
沙	-10.3629
ルス	-10.3631
感じ	-10.3641
大きい	-10.3641
▁to	-10.3643
罰	-10.3645
加工	-10.3645
の戦いで	-10.3646
ッグ	-10.3646
一軍	-10.3649
専攻	-10.3651
負担	-10.3652
ネイ	-10.3652
資本	-10.3656
ウクライナ	-10.3656
コピー	-10.3662
スコットランド	-10.3663
1935	-10.3668
歴史的	-10.367
フィル	-10.3673
熊本	-10.3677
電鉄	-10.3679
ee	-10.368
観客	-10.3682
ゼル	-10.3685
ケット	-10.3686
秘密	-10.369
に応じて	-10.3693
桂	-10.37
人である	-10.3701
バーグ	-10.3701
▁〜	-10.3702
トーナメント	-10.3711
廃止された	-10.3714
食べ	-10.372
郊外	-10.3722
資源	-10.3723
区分	-10.3725
ストリート	-10.3727
ファッション	-10.3727
案内	-10.3729
pe	-10.373
)11	-10.373
すぎ	-10.3731
出馬	-10.3733
温度	-10.3735
スピ	-10.3735
献	-10.3739
スティ	-10.374
合う	-10.3743
に当たる	-10.3743
、2002	-10.3745
出て	-10.3749
ヴィー	-10.3749
実際	-10.375
ジム	-10.3751
▁Re	-10.3754
終了した	-10.3754
洞	-10.3754
ラウ	-10.3755
ジャズ	-10.3757
梁	-10.3757
DS	-10.3759
チームは	-10.376
ニャ	-10.3761
再度	-10.3765
ウォ	-10.3766
を持った	-10.3766
を行っていた	-10.3767
先行	-10.377
スル	-10.3772
かつての	-10.3772
経緯	-10.3772
含まれ	-10.3772
始まり	-10.3775
勤	-10.3778
の地位	-10.378
の新	-10.378
連結	-10.378
らなかった	-10.3781
奴隷	-10.3782
―	-10.3782
170	-10.3783
頂	-10.3785
菊	-10.3786
キロ	-10.379
夫人	-10.3792
ニュ	-10.3792
if	-10.3793
伯爵	-10.3793
大幅に	-10.3794
行く	-10.3795
▁一方	-10.3795
AV	-10.3796
PA	-10.3797
手紙	-10.3798
記者	-10.3799
防止	-10.381
年代後半	-10.3811
1929	-10.3812
トラン	-10.3812
差別	-10.3818
斎	-10.3818
同様の	-10.382
るなど	-10.3822
近い	-10.3825
ソウル	-10.3831
推薦	-10.3832
od	-10.3832
みられる	-10.3834
種類の	-10.3838
ニス	-10.3841
程度の	-10.3841
たとえば	-10.3844
の末	-10.3844
手術	-10.3848
スコット	-10.3852
秋田	-10.3855
の意味	-10.3855
措置	-10.3859
トライ	-10.386
復興	-10.3862
ec	-10.3867
南西	-10.3868
驚	-10.3871
数の	-10.3872
絵画	-10.3873
79	-10.3874
日本軍	-10.3875
包囲	-10.3876
用いられ	-10.3878
日本代表	-10.388
性が	-10.3881
武田	-10.3883
レーション	-10.3884
でプレー	-10.3887
晋	-10.3887
八幡	-10.3888
ならば	-10.389
球場	-10.3894
場合がある	-10.3894
打撃	-10.3894
ビッグ	-10.3896
定着	-10.3896
ドーム	-10.3896
態	-10.3897
最後	-10.3897
行われている	-10.3898
然	-10.39
。2016	-10.391
署	-10.391
HO	-10.3913
会社の	-10.3913
生涯	-10.3915
)7	-10.3917
は主に	-10.3917
張り	-10.3921
資	-10.3923
位に	-10.3926
銘	-10.3926
アント	-10.3927
した場合	-10.3927
差し	-10.3927
溶	-10.3928
ウィーン	-10.3928
たら	-10.3934
下り	-10.3935
ぞ	-10.3943
坊	-10.3943
全長	-10.3945
体育	-10.3946
鹿児島	-10.3946
フライ	-10.3947
するよう	-10.3948
最近	-10.3948
南側	-10.3949
暮らし	-10.395
スパイ	-10.3951
アメリカ軍	-10.3952
フランス語	-10.3952
マラ	-10.3954
ジェン	-10.3959
小さい	-10.3963
の一種	-10.3965
込め	-10.3965
放映	-10.3966
略称	-10.3967
探	-10.3967
送り	-10.3968
払	-10.3969
として知られる	-10.397
気候	-10.3972
広島県	-10.3975
蘭	-10.3977
巻き	-10.3978
アニメーション	-10.3983
モス	-10.3993
顧問	-10.3994
com	-10.3995
いていた	-10.3997
押	-10.3999
°	-10.3999
甘	-10.3999
込まれ	-10.4
と考え	-10.401
トゥー	-10.4011
暗殺	-10.4018
柔道	-10.402
イラスト	-10.4021
シェル	-10.4024
序	-10.4026
移民	-10.4027
神話	-10.4027
io	-10.4029
之助	-10.403
ドラフト	-10.4033
区の	-10.404
東日本	-10.4041
編曲	-10.4042
ごく	-10.4043
son	-10.4043
一切	-10.4043
を与える	-10.4044
コスト	-10.4046
インタビュー	-10.4048
74	-10.4048
えん	-10.405
呼び	-10.4052
明らかに	-10.4054
映	-10.4055
祐	-10.4055
が大きく	-10.4061
遺伝子	-10.4061
ジェームズ	-10.4061
ブック	-10.4062
アッ	-10.4065
父は	-10.4066
新潟	-10.4066
リーグの	-10.4067
ユース	-10.4068
の際	-10.4078
)8	-10.408
に出場	-10.4081
Ch	-10.4081
として活躍	-10.4084
桃	-10.4084
公式戦	-10.4086
吸	-10.4089
翌日	-10.4089
訴訟	-10.409
組み	-10.409
なもの	-10.409
洗	-10.4095
ドラゴン	-10.4096
台車	-10.4097
奪	-10.4098
てい	-10.4101
こともあった	-10.4104
72	-10.4104
で初めて	-10.4114
恒	-10.4114
出発	-10.4117
週刊	-10.4119
するようになった	-10.412
でもあった	-10.4122
の特徴	-10.4125
出来る	-10.4131
を下	-10.4132
族の	-10.4133
童	-10.4134
掃	-10.4135
シカゴ	-10.4137
自体	-10.4138
時点	-10.4139
流通	-10.4144
豆	-10.4146
咲	-10.4147
起用	-10.4149
使われ	-10.415
ウェー	-10.4151
へ移籍	-10.4152
も存在する	-10.4153
政治的	-10.4154
以	-10.4157
しているが	-10.4157
徒	-10.4158
化する	-10.416
であったため	-10.4163
ステークス	-10.4164
誘導	-10.4164
マイケル	-10.4165
進められ	-10.4167
予備	-10.4168
援助	-10.4169
1934	-10.4173
日付	-10.4175
追い	-10.4175
ランク	-10.4176
降伏	-10.4176
病気	-10.4177
1928	-10.4179
過ごし	-10.418
忍	-10.4181
のタイトル	-10.4183
の音楽	-10.4184
ラント	-10.4189
拒否	-10.4189
笠	-10.4192
領土	-10.4194
意図	-10.4195
化し	-10.4202
総督	-10.4204
少将	-10.4205
分岐	-10.4206
閣	-10.4208
言及	-10.4212
▁1999	-10.4212
例として	-10.4216
貸	-10.4218
バッハ	-10.4222
のもと	-10.4222
先に	-10.4222
通じ	-10.4233
No	-10.4234
▁16	-10.4235
ドライバー	-10.424
事を	-10.4243
しばらく	-10.4244
優先	-10.4245
全員	-10.4246
記号	-10.4246
亭	-10.425
ステーション	-10.4252
登場人物	-10.4254
1924	-10.4254
男女	-10.4255
があるが	-10.4256
イズ	-10.426
眠	-10.4262
ist	-10.4263
テレビアニメ	-10.4267
枚目のシングル	-10.4267
120	-10.427
岡山	-10.4271
大手	-10.4272
脈	-10.4273
することは	-10.4275
収容	-10.4275
部は	-10.4277
ES	-10.4278
したものの	-10.428
ないため	-10.428
と同様	-10.4282
切れ	-10.4286
新設	-10.4286
チャールズ	-10.4291
単独	-10.4292
を始める	-10.4293
ミュージシャン	-10.4296
育	-10.4297
西日本	-10.4298
議席	-10.4299
作品を	-10.43
イラン	-10.43
出された	-10.43
申	-10.4301
哲	-10.4305
地の	-10.4308
四国	-10.431
わり	-10.431
ゆき	-10.431
1931	-10.4314
証拠	-10.4314
愛称	-10.4314
ムス	-10.4316
巣	-10.4317
国防	-10.4319
第一次世界大戦	-10.4319
-7	-10.432
王子	-10.4322
可能性がある	-10.4323
リエ	-10.4324
はず	-10.4326
キュー	-10.4328
カム	-10.4329
AD	-10.4333
NS	-10.4334
如	-10.4346
彼らの	-10.4347
per	-10.4348
ミング	-10.4351
大阪市	-10.4352
コメント	-10.4354
クラシック	-10.4354
▁Ch	-10.4356
来日	-10.4358
レール	-10.436
十字	-10.4362
残った	-10.4369
災害	-10.4372
家督	-10.4373
デモ	-10.438
ジェット	-10.4381
移行	-10.4383
プリン	-10.4384
順位	-10.439
しき	-10.4393
西武	-10.4394
、1970	-10.4398
認め	-10.4399
合同	-10.4399
部品	-10.4401
るように	-10.4404
辞任	-10.4404
直線	-10.4405
する場合	-10.4408
が挙げられる	-10.4408
かに	-10.4408
打点	-10.4409
中期	-10.4411
DA	-10.4411
取材	-10.4413
用意	-10.4413
に向けて	-10.4415
TS	-10.4419
人工	-10.442
によっては	-10.4421
年末	-10.4423
hi	-10.4424
フォル	-10.4428
らは	-10.4429
に敗れ	-10.4433
ボス	-10.4434
スティー	-10.4435
率は	-10.4436
菅	-10.4436
であろう	-10.4437
ーナ	-10.4437
をつけ	-10.4447
退団	-10.4448
ティア	-10.4452
決勝で	-10.4453
ッティ	-10.4454
に対応	-10.4458
は日本	-10.4459
5000	-10.4464
調べ	-10.4465
に際して	-10.4466
ジャンプ	-10.4467
によるもの	-10.447
構築	-10.4479
線路	-10.448
番目の	-10.4481
開催される	-10.4482
ドロ	-10.4484
人生	-10.4484
作者	-10.4486
修道院	-10.4489
ょ	-10.449
脱出	-10.449
ヘイ	-10.449
。2017	-10.4492
上陸	-10.4494
渡辺	-10.4498
チャート	-10.4501
を見せ	-10.4504
侯	-10.4505
アウ	-10.4506
ナショナル	-10.4507
緊急	-10.4508
ツー	-10.451
需要	-10.4513
暴力	-10.4514
ヨン	-10.4517
するも	-10.4518
といわれる	-10.4519
レコーディング	-10.4519
このうち	-10.4519
書かれた	-10.452
鉱	-10.4523
勲	-10.4524
全体の	-10.4524
先端	-10.4526
収集	-10.4531
中には	-10.4532
いずれ	-10.4535
を続け	-10.4539
譲渡	-10.454
活用	-10.4545
見える	-10.4545
ber	-10.4546
ライフ	-10.4547
さか	-10.4549
時代から	-10.455
鑑	-10.455
ラグビー	-10.4556
振興	-10.4557
斉	-10.4559
▁小	-10.4563
選抜	-10.4563
分裂	-10.4564
リオン	-10.4566
バスケットボール	-10.4567
申請	-10.4567
自転車	-10.457
功績	-10.4572
コンセプト	-10.4573
▁a	-10.4573
で放送された	-10.4574
束	-10.4579
邸	-10.4584
猫	-10.4591
銀河	-10.4591
しさ	-10.4592
なくなる	-10.4593
面で	-10.4595
ワード	-10.4596
ショップ	-10.4598
自社	-10.4602
帰還	-10.4605
を担当した	-10.4605
ソニー	-10.4606
▁新	-10.4608
弦	-10.4608
幹部	-10.4615
ディス	-10.4616
又は	-10.4616
の他	-10.4619
魂	-10.462
トス	-10.4622
慶長	-10.4623
攻	-10.4623
ないし	-10.4624
確定	-10.4624
支部	-10.4625
教え	-10.4626
桁	-10.4626
ヒュー	-10.4627
和田	-10.4628
世帯	-10.4631
賛	-10.4631
宋	-10.4632
上海	-10.4633
北西	-10.4634
の大半	-10.4637
隣接する	-10.4638
アイテム	-10.4638
巡洋艦	-10.4638
致	-10.4639
こく	-10.464
接触	-10.4642
火山	-10.4642
固有	-10.4642
原則	-10.4642
上演	-10.4644
インターチェンジ	-10.4645
デンマーク	-10.4647
ソル	-10.4647
くなる	-10.465
戦艦	-10.4652
使われた	-10.4652
下で	-10.4652
司令部	-10.4653
ub	-10.4653
水素	-10.4654
体系	-10.4655
から発売された	-10.4657
到達	-10.4657
ッカ	-10.4659
きっかけ	-10.4662
皆	-10.4662
相続	-10.4663
一つ	-10.4665
朗	-10.4669
少数	-10.467
突き	-10.4672
東映	-10.4674
ヤー	-10.4677
採用された	-10.4677
模	-10.4681
直後に	-10.4686
賞を受賞した	-10.4687
熟	-10.4688
は全て	-10.4689
ギー	-10.4695
苦し	-10.4696
買収	-10.4697
地方の	-10.47
he	-10.47
成分	-10.4703
ポスト	-10.4708
で優勝	-10.4708
印刷	-10.4711
を備え	-10.4715
スペ	-10.4715
海上	-10.4717
詳細は	-10.472
音声	-10.4721
社会主義	-10.4722
通行	-10.4722
連携	-10.4723
1923	-10.4724
県の	-10.4725
始まった	-10.4725
大会で	-10.4727
新規	-10.4728
貝	-10.4729
方言	-10.4734
深く	-10.4734
朱	-10.4735
れない	-10.4736
違反	-10.4737
継ぎ	-10.4741
すこと	-10.4743
)5	-10.4743
ことができ	-10.4744
得られる	-10.4744
軍を	-10.4744
フランク	-10.4745
操縦	-10.4747
訴	-10.475
前半	-10.4752
曹	-10.4753
屋敷	-10.4755
専門学校	-10.4757
請	-10.4757
を重ね	-10.4762
存	-10.4763
月刊	-10.4763
CH	-10.4764
がなく	-10.4764
ラップ	-10.4764
演じ	-10.477
と言われている	-10.477
悪化	-10.4774
合流	-10.4774
テニス	-10.4778
などと	-10.4779
天皇の	-10.478
局の	-10.4785
枚目	-10.4788
隔	-10.479
の位置	-10.479
CS	-10.4793
同期	-10.4794
を示した	-10.4797
直前	-10.48
複合	-10.4803
このように	-10.4806
ーク	-10.4809
くる	-10.481
中山	-10.4813
ちなみに	-10.4814
立候補	-10.4815
age	-10.4816
ヤマ	-10.4817
逮捕	-10.4818
選手権大会	-10.4818
をしていた	-10.482
蓮	-10.482
を置く	-10.482
司法	-10.4823
つい	-10.4827
扱	-10.4833
世が	-10.4833
KA	-10.4835
郵便局	-10.4836
売却	-10.4836
を設立	-10.4842
巨人	-10.4844
あらゆる	-10.4844
リチャード	-10.4845
高く	-10.4849
したがって	-10.4849
IP	-10.4849
パーソナリティ	-10.4851
双方	-10.4852
III	-10.4852
駆動	-10.4852
に入れ	-10.4859
絶対	-10.486
株式	-10.4862
近郊	-10.4863
分解	-10.4864
響	-10.4866
車の	-10.4867
SO	-10.4868
池田	-10.4868
法の	-10.4868
ess	-10.4872
元々	-10.4872
ンス	-10.4874
見え	-10.4874
修理	-10.4875
コア	-10.4876
のに対し	-10.4877
勃発	-10.4882
モール	-10.4885
ビュー	-10.4885
利用者	-10.4885
行われていた	-10.4885
宏	-10.4887
財産	-10.4893
▁現在	-10.4893
整理	-10.4894
積極的に	-10.4894
DO	-10.4895
を開始	-10.4896
軍に	-10.4898
一連の	-10.4899
印象	-10.4901
決め	-10.4903
号機	-10.4905
スポンサー	-10.4906
を使った	-10.4907
郡の	-10.4907
らせ	-10.4908
の父	-10.491
焼き	-10.4914
がわ	-10.4919
テレビ朝日	-10.492
選挙区	-10.492
屋根	-10.4921
ass	-10.4922
クリア	-10.4923
の中には	-10.4924
えない	-10.4924
フロント	-10.4924
1925	-10.4927
茨城県	-10.4933
育て	-10.4934
加えて	-10.4935
ナム	-10.4938
共産党	-10.4942
北朝鮮	-10.4942
を設置し	-10.4942
壇	-10.4943
開設	-10.4943
ための	-10.4943
放送局	-10.4944
1918	-10.4948
ヴァイ	-10.4948
ヴィル	-10.4951
敗退	-10.4954
躍	-10.4955
。2004	-10.4956
明らか	-10.4956
上下	-10.4956
ものがある	-10.4961
いたが	-10.4962
を持って	-10.4964
マリー	-10.4964
ベリー	-10.4967
したものである	-10.4967
働き	-10.4969
いき	-10.4971
逃れ	-10.4971
事が	-10.4971
世界の	-10.4977
日に行われた	-10.4978
子ども	-10.498
の方が	-10.4981
試合で	-10.4985
は日本の	-10.4986
モア	-10.4986
に基づき	-10.4992
金沢	-10.4994
ほとんどの	-10.4998
を迎え	-10.4999
それらの	-10.5004
かれる	-10.5007
ローズ	-10.5008
さえ	-10.5009
イェ	-10.5009
1919	-10.5011
の活動	-10.5011
線を	-10.5012
用に	-10.5012
フィンランド	-10.5013
森林	-10.5013
上がり	-10.5015
大賞	-10.5016
当該	-10.5017
が異なる	-10.502
を感じ	-10.5021
の小	-10.5021
1927	-10.5021
-8	-10.5023
カロ	-10.5024
十分	-10.5024
短編	-10.5025
損	-10.5027
監視	-10.5031
のアルバム	-10.5033
女王	-10.5037
違う	-10.5041
つけた	-10.5042
魚雷	-10.5044
ud	-10.5044
曲を	-10.5046
撤去	-10.5049
上野	-10.505
ニコ	-10.5051
ぜ	-10.5052
一帯	-10.5052
良く	-10.5053
震	-10.5055
ができる	-10.5057
を挙げた	-10.5057
相談	-10.5062
石川	-10.5064
貨	-10.5066
ちゃ	-10.5068
CE	-10.5068
騎兵	-10.5069
ドイツ語	-10.507
94	-10.5071
原題	-10.5071
ペー	-10.5072
両編成	-10.5075
どこ	-10.5079
ユーロ	-10.5079
に貢献した	-10.508
実績	-10.5081
されるようになった	-10.5082
に加えて	-10.5082
自殺	-10.5082
筒	-10.5083
にいた	-10.5084
点で	-10.5085
最低	-10.5086
資産	-10.5087
一定の	-10.5087
助教授	-10.5089
局長	-10.509
用いられた	-10.5091
後方	-10.5091
任命	-10.5096
共有	-10.5097
は非常に	-10.5098
往復	-10.5099
つける	-10.5103
寧	-10.5105
ボクシング	-10.5105
創業	-10.5107
再編	-10.5108
サウンド	-10.5111
92	-10.5112
立った	-10.5113
のみならず	-10.5113
誰	-10.5113
▁b	-10.5116
ラリー	-10.5117
死亡した	-10.5118
県道	-10.5119
併	-10.512
後者	-10.5121
番組の	-10.5121
人間の	-10.5122
セレ	-10.5124
TR	-10.5124
井上	-10.5125
リティ	-10.5127
せた	-10.5127
オート	-10.5128
福島県	-10.5129
在学中	-10.513
塾	-10.513
毎日	-10.5132
ーノ	-10.5138
-10	-10.5138
かけた	-10.514
との関係	-10.514
アレ	-10.5141
例外	-10.5143
浴	-10.5143
国際空港	-10.5143
バトル	-10.5144
長男	-10.5144
保持	-10.5148
▁The	-10.5148
提唱	-10.5149
回の	-10.5153
語で	-10.5154
どの	-10.5156
、2001	-10.5159
チル	-10.5161
悟	-10.5162
ロゴ	-10.5165
▁X	-10.517
年代から	-10.5171
に選出された	-10.5173
編入	-10.5178
リップ	-10.5178
いわ	-10.5179
年後の	-10.5181
our	-10.5181
耕	-10.5181
処刑	-10.5181
81	-10.5182
パートナー	-10.5184
sh	-10.5184
宮城県	-10.5184
なかったため	-10.5185
陶	-10.5187
火災	-10.5188
付ける	-10.5189
本拠地	-10.5189
市に	-10.5194
公式サイト	-10.5196
黄色	-10.5197
ED	-10.5198
73	-10.5198
▁1980	-10.52
の地	-10.52
昔	-10.52
年の第	-10.52
伝えられ	-10.52
ボディ	-10.5201
ブラウン	-10.5202
シップ	-10.5204
発電所	-10.5207
語の	-10.5209
に仕え	-10.521
▁日本では	-10.521
年シーズン	-10.521
家は	-10.5211
のお	-10.5214
などから	-10.5214
終わり	-10.5216
エレ	-10.5217
白い	-10.5223
煙	-10.5225
針	-10.5228
▁d	-10.5228
〜』	-10.5229
ロマン	-10.523
カレッジ	-10.5232
ワーク	-10.5233
の中でも	-10.5233
回目の	-10.5234
込	-10.5234
連れ	-10.5235
社名	-10.5235
シーズンは	-10.5237
登場し	-10.5241
ボード	-10.5241
周辺の	-10.5242
IA	-10.5243
やす	-10.5244
嶋	-10.5244
▁1998	-10.5249
大佐	-10.5249
初回	-10.525
放射	-10.525
いだ	-10.5251
見解	-10.5251
MC	-10.5251
独自	-10.5253
三重県	-10.5254
に参加し	-10.5256
エド	-10.5256
ff	-10.5257
時代には	-10.5258
インチ	-10.526
上部	-10.5261
攻略	-10.5264
会の	-10.5264
るという	-10.5265
替	-10.5265
征	-10.5268
アマチュア	-10.527
内容は	-10.5271
と言われる	-10.5271
みな	-10.5272
頭部	-10.5273
じた	-10.5274
竣工	-10.5276
ッパー	-10.5277
年以上	-10.5277
キル	-10.5278
前期	-10.5283
ロイド	-10.5283
脱退	-10.5285
メガ	-10.5287
ian	-10.5287
取り入れ	-10.529
ソース	-10.5291
プス	-10.5294
の一覧	-10.5295
権限	-10.5299
GO	-10.53
握	-10.5302
代替	-10.5302
べく	-10.5304
を最後に	-10.5304
退職	-10.5309
の間の	-10.531
終わる	-10.5312
ea	-10.5312
過程	-10.5313
号は	-10.5314
|	-10.5314
アメリカ人	-10.5315
症状	-10.5316
が設置され	-10.5317
ではなかった	-10.5319
UEFA	-10.5321
現れる	-10.5321
きゅう	-10.5321
観察	-10.5322
NO	-10.5326
機が	-10.5327
選挙で	-10.5327
ライセンス	-10.5328
船団	-10.5331
93	-10.5331
炭	-10.5332
締結	-10.5334
溝	-10.534
梨	-10.5347
ないこと	-10.5351
興行	-10.5353
入手	-10.5355
複	-10.5361
抗議	-10.5362
続編	-10.5362
no	-10.5365
サウス	-10.5365
バイパス	-10.5368
の記録	-10.5368
軌	-10.537
出来事	-10.5371
と言われ	-10.5374
1922	-10.5375
拓	-10.5376
猛	-10.5379
ドール	-10.5382
出して	-10.5384
を迎えた	-10.5386
さない	-10.5389
袋	-10.5391
並行	-10.5392
ゴルフ	-10.5393
れて	-10.5397
魏	-10.5398
菜	-10.54
この地	-10.5401
鉄道の	-10.5404
捕虜	-10.5405
簡	-10.5411
ゴールド	-10.5411
ョ	-10.5417
チェン	-10.542
LI	-10.5421
めて	-10.5421
主流	-10.5422
近年	-10.5423
以前に	-10.5424
競争	-10.5431
熊	-10.5433
の姿	-10.5436
乃	-10.5438
ローカル	-10.544
であっても	-10.5442
250	-10.5443
オリンピックの	-10.5444
ジャケット	-10.5453
学術	-10.5455
ていて	-10.5457
中将	-10.546
てん	-10.546
が存在し	-10.5461
を起こし	-10.5461
約束	-10.5462
飾	-10.5462
わか	-10.5463
安打	-10.5465
が始まった	-10.5467
カッ	-10.5468
浄	-10.547
当初の	-10.5471
大使	-10.5471
無い	-10.5472
呼	-10.5475
ハート	-10.5475
踏	-10.5476
平野	-10.5478
シオ	-10.5482
機関車	-10.5482
を率いて	-10.5483
そのうち	-10.5486
に合わせて	-10.5486
長野	-10.5487
北東	-10.549
かどうか	-10.5491
認められ	-10.5491
らしい	-10.5492
最後に	-10.5494
3000	-10.5495
コメディ	-10.5496
柏	-10.5496
繁殖	-10.5496
)6	-10.5498
鷹	-10.5502
コレクション	-10.5503
陸上競技	-10.5504
独立した	-10.5504
▁西	-10.5505
を見て	-10.5506
支払	-10.5506
と語っている	-10.5507
砦	-10.5509
謎	-10.5509
ポンド	-10.5515
標	-10.5517
在住	-10.5523
グループの	-10.5523
射撃	-10.5525
広い	-10.5525
開拓	-10.5526
主導	-10.553
宣伝	-10.5532
今後	-10.5533
ラフ	-10.5536
83	-10.5541
演技	-10.5545
拠	-10.5546
ヤード	-10.5547
瑞	-10.5549
使う	-10.5552
ることになった	-10.5552
が設けられ	-10.5554
解消	-10.5558
参加した	-10.5563
シュタイン	-10.5563
社員	-10.5566
1926	-10.5566
カナ	-10.5566
プロイセン	-10.5568
圧力	-10.5568
スミス	-10.5573
非難	-10.5573
作品は	-10.5574
まつ	-10.5575
かせ	-10.5579
らと	-10.5579
漢字	-10.558
ver	-10.5581
司馬	-10.5582
の死	-10.5583
解析	-10.5584
伝承	-10.5584
イタリアの	-10.5584
かれた	-10.5585
用途	-10.5587
に昇格	-10.5588
。2018	-10.5593
時から	-10.5593
譜	-10.5593
メッセージ	-10.5595
進んだ	-10.5595
直後	-10.5596
水道	-10.5596
防御	-10.5597
爆弾	-10.5597
囲	-10.5604
王朝	-10.5609
高松	-10.5609
者たち	-10.5609
スピード	-10.5616
となったが	-10.5617
少なくとも	-10.5618
タール	-10.5619
の製造	-10.562
けた	-10.562
の国	-10.5622
この時期	-10.5623
山城	-10.5626
物理学	-10.5628
に向かう	-10.5629
大将	-10.5632
一家	-10.5633
婚	-10.5633
アルゼンチン	-10.5634
ひとつ	-10.5635
すら	-10.5637
リーグ戦	-10.5639
郭	-10.5641
灰	-10.5642
生じる	-10.5642
qu	-10.5646
扱われ	-10.5647
求め	-10.5648
享年	-10.5649
婦	-10.5653
迷	-10.5653
ノルウェー	-10.5655
平日	-10.5656
日常	-10.5657
紋	-10.566
鎖	-10.566
La	-10.566
クレジット	-10.5661
を除き	-10.5661
駆	-10.5663
キシ	-10.5666
特性	-10.5667
したことで	-10.5668
を形成し	-10.5672
感染	-10.5672
大学教授	-10.5673
を持っていた	-10.5674
酵素	-10.5675
SU	-10.5675
伝え	-10.5675
キャンプ	-10.5676
▁&	-10.5678
の神	-10.5678
ウォル	-10.568
ユニ	-10.5683
国会	-10.5685
陸上	-10.5686
求	-10.5688
経済学	-10.5689
手を	-10.569
ボックス	-10.5691
試作	-10.5694
の仕事	-10.5695
を描く	-10.5695
フィリップ	-10.5696
ティック	-10.5696
地形	-10.5697
早稲田大学	-10.5698
事例	-10.5698
を進め	-10.5699
に進学	-10.57
舟	-10.5701
士官	-10.5703
に選ばれた	-10.5706
ところが	-10.5707
が開始された	-10.5711
ゼロ	-10.5712
旅団	-10.5712
全域	-10.5714
タンク	-10.5717
▁for	-10.5717
ネン	-10.5719
されず	-10.5722
過去に	-10.5724
跡地	-10.5726
基盤	-10.5726
ものもある	-10.5726
聖書	-10.5727
は全	-10.5727
。2000	-10.5728
に次ぐ	-10.5728
促進	-10.5729
書記	-10.573
–	-10.5731
▁1996	-10.5732
エース	-10.5733
)、『	-10.5734
上流	-10.5734
提	-10.5736
国外	-10.5736
ものだった	-10.5737
を利用して	-10.574
ファミリー	-10.5741
かける	-10.5741
桑	-10.5741
に向かって	-10.5741
量は	-10.5747
の生産	-10.5749
しゅ	-10.5752
ッサ	-10.5752
量の	-10.5753
の放送	-10.5756
てしまい	-10.5756
答え	-10.5757
かない	-10.576
海峡	-10.5763
ハイム	-10.5764
バリ	-10.5765
懐	-10.5768
フロ	-10.577
五郎	-10.5771
その後の	-10.5773
別名	-10.5777
僕	-10.5781
右衛門	-10.5781
損傷	-10.5782
を打ち	-10.5785
っと	-10.5785
盛り	-10.5787
ウイ	-10.5788
終戦	-10.5788
現在でも	-10.579
自民党	-10.5795
秦	-10.5795
用いる	-10.5796
、1999	-10.5797
情報を	-10.5799
da	-10.5802
応援	-10.5802
淡	-10.5807
に分類される	-10.5813
ズは	-10.5815
投稿	-10.5816
根拠	-10.5817
密度	-10.5817
伏	-10.5818
であることを	-10.5819
収録された	-10.5822
粒子	-10.5823
自動車道	-10.5824
君主	-10.5824
山の	-10.5828
支え	-10.5834
スカイ	-10.5834
回衆議院議員総選挙	-10.5835
に乗り	-10.584
委	-10.584
マグ	-10.5841
阪	-10.5842
一定	-10.5842
▁1997	-10.5843
こうして	-10.5843
クレー	-10.5844
降り	-10.5845
ブリッジ	-10.5847
語り	-10.5849
直通	-10.5851
時計	-10.5852
の設計	-10.5855
の実	-10.5858
異常	-10.586
文明	-10.5861
遅	-10.5862
確	-10.5863
優れた	-10.5866
為に	-10.5866
レジ	-10.5867
規	-10.5869
を占め	-10.5869
丈	-10.5869
司教	-10.587
天然	-10.5874
海洋	-10.5877
出典	-10.5877
一体	-10.5878
ヴェー	-10.5878
認	-10.588
無かった	-10.5881
の内容	-10.5881
と述べた	-10.5882
尻	-10.5883
蒲	-10.5883
察	-10.5886
氏は	-10.5888
ポップ	-10.5889
発生した	-10.5889
中央部	-10.5889
賞受賞	-10.589
不動産	-10.5891
を使用した	-10.5892
MP	-10.5892
気象	-10.5893
吾	-10.5895
干	-10.5896
を守る	-10.5898
アブ	-10.5899
の死後	-10.5902
指揮官	-10.5904
運航	-10.5904
見た	-10.5904
置き換え	-10.5905
ホン	-10.5906
マルチ	-10.5908
地区の	-10.5908
紛争	-10.591
を務めていた	-10.5912
ka	-10.5913
雇用	-10.5914
ov	-10.5914
警備	-10.5915
主題	-10.5916
ウィル	-10.5924
動力	-10.593
セルビア	-10.5933
祭り	-10.5939
それでも	-10.594
葛	-10.5944
走る	-10.5946
DI	-10.5947
に大きな	-10.5948
始まる	-10.595
磨	-10.5951
弓	-10.5951
教員	-10.5952
が中心	-10.5954
ゴル	-10.5955
ヴェン	-10.5958
が発生し	-10.596
の上に	-10.596
降格	-10.5967
群馬県	-10.5972
one	-10.5974
出た	-10.5974
ピーター	-10.5976
84	-10.5976
クラウ	-10.5976
反発	-10.5977
全面	-10.5979
訪問	-10.5979
附属	-10.5979
ならない	-10.598
ラッシュ	-10.5989
座席	-10.5992
成果	-10.5996
リウム	-10.5998
ase	-10.6001
端末	-10.6004
明け	-10.601
大戦	-10.601
Mar	-10.6015
小惑星	-10.6016
ヒー	-10.6024
を認め	-10.6024
月曜	-10.6025
ラウンド	-10.6026
木村	-10.6028
徳川	-10.603
選定	-10.6031
二つの	-10.6032
に変更された	-10.6034
内には	-10.6035
上り	-10.6035
当局	-10.6037
抜き	-10.6041
詰め	-10.6041
私立	-10.6042
渋谷	-10.6042
募集	-10.6043
研	-10.6046
はなかった	-10.6048
1917	-10.6049
同日	-10.6052
日本テレビ	-10.6054
屈	-10.6054
西洋	-10.6056
を離れ	-10.6062
貢献	-10.6062
ヴォル	-10.6063
目を	-10.6067
啓	-10.6068
クライ	-10.6069
金を	-10.6072
の長男	-10.6073
索	-10.6074
パフォーマンス	-10.6075
ノース	-10.6077
同社の	-10.6078
フォーク	-10.6081
ワイド	-10.6084
弟の	-10.6087
釜	-10.6089
近隣	-10.609
昼	-10.6092
1914	-10.6092
難しい	-10.6092
質量	-10.6093
NG	-10.6095
依存	-10.6096
本体	-10.6097
を代表する	-10.6097
証言	-10.6099
田村	-10.6101
に所属していた	-10.6101
が設置されている	-10.6101
を含め	-10.6102
疾患	-10.6103
線と	-10.6106
ーゼ	-10.6107
必要がある	-10.6108
村の	-10.611
_1	-10.611
診断	-10.6111
軍隊	-10.6111
最新	-10.6112
得意	-10.6112
富山	-10.6114
見る	-10.6115
オーディション	-10.6117
ディズニー	-10.6117
ボタン	-10.6119
置かれ	-10.612
ガンダム	-10.6122
神宮	-10.6122
一つの	-10.6122
泊	-10.6123
実装	-10.6124
騎	-10.6126
されてきた	-10.6132
ました	-10.6133
PR	-10.6134
パターン	-10.6135
ことはなかった	-10.6135
ついに	-10.6139
という言葉	-10.6142
空母	-10.6145
bo	-10.6147
アニ	-10.6147
月現在	-10.6147
の中では	-10.6149
のみが	-10.6149
キャンパス	-10.6152
入力	-10.6153
代理	-10.6156
排	-10.6156
必要な	-10.6157
再現	-10.6159
メス	-10.6162
に移転	-10.6164
▁東京	-10.6166
聞き	-10.6166
セミ	-10.6166
と考えられ	-10.6168
向けに	-10.6169
の意	-10.6172
ボストン	-10.6173
コム	-10.6173
の不	-10.6176
は以下の通りである	-10.6176
家に	-10.6176
いろ	-10.6177
ているが	-10.6178
大隊	-10.6178
寸	-10.6179
ハワイ	-10.618
コマ	-10.6186
道具	-10.6189
CT	-10.619
詞	-10.6191
腐	-10.6193
》	-10.6193
SD	-10.6195
故郷	-10.6195
殺人	-10.6198
催	-10.62
記述する	-10.6203
を図る	-10.6205
一本	-10.621
キャスト	-10.6213
与えられる	-10.6214
に入社	-10.6215
南東	-10.6218
埋め	-10.6218
向かい	-10.6218
EX	-10.6219
OP	-10.622
しりつ	-10.6224
消滅	-10.6227
1921	-10.6228
《	-10.6228
間で	-10.6229
地域で	-10.6232
顕	-10.6235
ルズ	-10.6239
ヤング	-10.6243
、2019	-10.6244
詳細	-10.6245
剛	-10.6245
換	-10.6246
決意	-10.6246
ウー	-10.6248
正規	-10.6248
象徴	-10.6248
ていなかった	-10.6248
履	-10.6249
と改称	-10.6254
支店	-10.6255
に入ると	-10.6256
静岡	-10.6256
パソコン	-10.6257
スロー	-10.6257
かね	-10.6257
の指導	-10.6258
免	-10.6258
レーダー	-10.6259
することとなった	-10.6261
リスク	-10.6262
の家	-10.6263
ギル	-10.6266
いつ	-10.6266
発音	-10.6267
申し	-10.6273
した際に	-10.6278
突然	-10.6278
ここに	-10.6284
腰	-10.6285
託	-10.6288
歳以上	-10.6289
いくつか	-10.629
ここでは	-10.6291
グランド	-10.6292
の楽曲	-10.6299
の中から	-10.6301
地位	-10.6301
誇	-10.6304
方が	-10.6305
わら	-10.6305
斗	-10.6306
怪我	-10.6307
修了	-10.6307
キア	-10.6308
かし	-10.6309
大学大学院	-10.6311
▁w	-10.6314
るもの	-10.6315
うる	-10.6321
▁1995	-10.6322
必ず	-10.6322
要因	-10.6324
少なく	-10.6325
実施された	-10.6325
飼育	-10.6327
商人	-10.6331
KI	-10.6334
ack	-10.6337
遺産	-10.6338
下部	-10.6339
に復帰	-10.634
授業	-10.6341
TC	-10.6342
詩人	-10.6342
さま	-10.6343
遣	-10.6346
ふく	-10.6348
糖	-10.6348
飼	-10.6348
方向に	-10.6352
こん	-10.6353
ip	-10.6354
AI	-10.6355
町にある	-10.636
と契約	-10.6363
受信	-10.6365
ナンバー	-10.6366
読者	-10.6366
イト	-10.6367
があったが	-10.6369
うた	-10.6371
ベラ	-10.6373
おく	-10.6376
その際	-10.6376
スリー	-10.6378
普	-10.6379
遺体	-10.6379
まって	-10.6381
ケーブル	-10.6381
蘇	-10.6384
自分が	-10.6385
手がけ	-10.6386
ファースト	-10.6387
まい	-10.6389
ミッション	-10.6391
鋭	-10.6392
収録されている	-10.6392
本土	-10.6394
じん	-10.6394
ect	-10.6396
戦う	-10.6397
謀	-10.6397
に入団	-10.6398
冒険	-10.6399
が高く	-10.6399
レストラン	-10.6401
優勝した	-10.6403
ドライブ	-10.6404
徹	-10.6405
マガジン	-10.6413
バレーボール	-10.6414
連勝	-10.6414
満州	-10.6414
記されている	-10.642
禅	-10.642
パッケージ	-10.642
エフ	-10.6421
時間帯	-10.6422
は第	-10.6423
なので	-10.6424
用いられている	-10.6429
識	-10.6433
経過	-10.6435
測	-10.6441
可能である	-10.6446
と呼ばれている	-10.6448
相手に	-10.6449
ダブル	-10.6452
威	-10.6453
に所属する	-10.6454
既	-10.6454
売り上げ	-10.6454
空襲	-10.6456
▁In	-10.646
送られ	-10.646
夏の	-10.6461
呂	-10.6461
未満	-10.6462
ようと	-10.6463
北米	-10.6463
ki	-10.6464
コート	-10.6464
ai	-10.6465
選手として	-10.6467
-9	-10.6467
勘	-10.6471
この作品	-10.6471
モンド	-10.6471
に含まれる	-10.6474
無人	-10.6476
▁三	-10.6477
大橋	-10.6478
しゅう	-10.6481
les	-10.6482
感情	-10.6482
星の	-10.6485
を有し	-10.6486
革	-10.649
誕生した	-10.6491
プール	-10.6492
乗り入れ	-10.6492
RS	-10.6492
借り	-10.6494
あら	-10.6494
回戦	-10.6498
化され	-10.6501
巨大な	-10.6501
与えられ	-10.6502
ウェスト	-10.6504
粘	-10.6506
離婚	-10.6508
ルン	-10.6508
日記	-10.6508
ソビエト連邦	-10.6508
一旦	-10.6509
打ち上げ	-10.651
の声	-10.651
年代には	-10.6514
ルイス	-10.6514
甲板	-10.6515
係	-10.6516
理事長	-10.6517
陥落	-10.6521
の影響で	-10.6522
岡山県	-10.6523
モンスター	-10.6525
始める	-10.6528
部族	-10.6528
錦	-10.6528
ore	-10.6529
LO	-10.6529
団地	-10.6534
鼻	-10.6536
茎	-10.6536
dr	-10.6538
ユダヤ	-10.6538
1912	-10.6539
接近	-10.654
奉行	-10.6541
数多くの	-10.6541
▁同年	-10.6542
まん	-10.6544
力が	-10.6547
依	-10.6549
ウイルス	-10.6551
po	-10.6555
を出した	-10.6557
リニューアル	-10.6557
なかったが	-10.6559
モチーフ	-10.6559
91	-10.6561
じゅう	-10.6563
不満	-10.6564
に引き	-10.6569
チー	-10.6571
拳	-10.6571
蓋	-10.6572
軟	-10.6572
松平	-10.6574
特許	-10.6576
所属の	-10.6577
生まれた	-10.6578
人たち	-10.6579
ci	-10.658
に師事	-10.6582
会館	-10.6583
ボーカル	-10.6584
開業した	-10.6585
1900	-10.6587
発電	-10.6587
過去の	-10.6588
ではあるが	-10.659
オンライン	-10.6591
補給	-10.6596
終結	-10.6597
鉱山	-10.6598
を抱え	-10.6599
は不明	-10.6599
るべき	-10.6604
る事	-10.6604
武蔵	-10.6608
斬	-10.6608
に比べ	-10.6609
イラク	-10.6609
食べる	-10.661
ニョ	-10.6611
を挙げ	-10.6612
が決定	-10.6612
嵐	-10.6616
ターミナル	-10.6617
死刑	-10.6619
に加入	-10.662
ロシアの	-10.662
肺	-10.6623
疑問	-10.6624
名義	-10.663
に比べて	-10.663
だという	-10.663
の妻	-10.6631
送信	-10.6632
ネーム	-10.6632
GT	-10.6635
してしまった	-10.6635
代わり	-10.6636
悲	-10.6637
繁	-10.6637
装着	-10.6638
市町村	-10.6638
太田	-10.6638
ang	-10.6639
テレビ番組	-10.6639
駅の	-10.6643
夜間	-10.6645
千代	-10.6648
ライダー	-10.665
の前身	-10.6652
辛	-10.6652
高級	-10.6653
もあって	-10.6653
北方	-10.6653
告げ	-10.6654
とおり	-10.6655
▁Mo	-10.6658
▁東	-10.666
を除いて	-10.6661
警察署	-10.6661
以外は	-10.6662
多摩	-10.6662
河内	-10.6662
派生	-10.6667
デザイナー	-10.6667
課題	-10.6668
ノス	-10.667
増え	-10.6673
中野	-10.6673
に移行	-10.6674
近鉄	-10.6675
を獲得し	-10.6676
チームが	-10.6678
年度の	-10.6678
却	-10.6679
達成	-10.6679
寮	-10.6681
mp	-10.6682
シナリオ	-10.6683
の再	-10.6683
先頭	-10.6684
を決めた	-10.6685
av	-10.6686
避難	-10.6688
退任	-10.6688
▁北	-10.6692
の調査	-10.6695
ブログ	-10.6695
ることで	-10.6695
をはじめとする	-10.6696
エンド	-10.6699
ゴールデン	-10.6699
勝利した	-10.6701
を与えた	-10.6702
祀	-10.6707
まさ	-10.6708
▁Y	-10.6709
応用	-10.671
訓	-10.6711
崇	-10.6711
新田	-10.6712
ことになり	-10.6713
テープ	-10.6714
を展開し	-10.6716
で活躍	-10.6717
▁Me	-10.6719
を取る	-10.672
更	-10.6721
要塞	-10.6721
ノール	-10.6723
佳	-10.6726
ロフ	-10.6727
するか	-10.6727
ens	-10.6728
シナ	-10.6729
いけ	-10.6732
の違い	-10.6734
ディオ	-10.6735
主題歌	-10.6736
見られ	-10.6739
代表的な	-10.6741
ランプ	-10.6744
ることとなった	-10.6747
うえ	-10.6748
本編	-10.6748
存続	-10.6749
を行うこと	-10.675
一丁目	-10.675
前身	-10.6751
"(	-10.6752
上記	-10.6754
ナウ	-10.6756
銭	-10.6759
意思	-10.6759
ボイ	-10.6759
初出場	-10.676
をかけ	-10.6763
ボート	-10.6763
oc	-10.6766
ディン	-10.6767
トレーニング	-10.677
ツェ	-10.6771
傘下	-10.6772
ボリ	-10.6772
レート	-10.6775
社会的	-10.6776
経路	-10.6776
したい	-10.6778
82	-10.6778
そこから	-10.6782
山地	-10.6782
際には	-10.6785
社が	-10.6788
入社	-10.679
暫定	-10.6793
ブーム	-10.6798
目的で	-10.6799
の変化	-10.6799
アプリケーション	-10.68
航海	-10.6801
に戻り	-10.6801
議会議員	-10.6802
象	-10.6803
途中で	-10.6803
LD	-10.6807
自身は	-10.6808
出資	-10.6808
欧	-10.6809
合唱	-10.681
1910	-10.6811
必	-10.6812
こととなった	-10.6814
この曲	-10.6815
禄	-10.6815
若手	-10.6816
解除	-10.6818
発明	-10.6819
宮崎	-10.6826
タワー	-10.6826
停留所	-10.683
線は	-10.6831
に生まれた	-10.6833
小さく	-10.6834
後には	-10.6835
シンガポール	-10.6838
人形	-10.684
、1994	-10.6843
まれた	-10.6845
日付で	-10.6845
示唆	-10.6845
の大部分	-10.6847
出版された	-10.6848
毛利	-10.685
を構成する	-10.685
似ている	-10.6852
割合	-10.6854
回避	-10.6858
ies	-10.686
桐	-10.686
ナチス	-10.686
機動	-10.6862
とは異なり	-10.6863
亡命	-10.6864
乗客	-10.6867
に戻る	-10.687
輔	-10.6874
ずに	-10.6874
妃	-10.6875
癌	-10.6875
控え	-10.6878
沖縄県	-10.688
天文	-10.6886
並ぶ	-10.6886
にわたり	-10.6891
GI	-10.6895
来る	-10.6896
左衛門	-10.6897
藩の	-10.6898
ID	-10.6901
古くから	-10.6905
RC	-10.6908
惑	-10.6909
がん	-10.691
キャッチ	-10.691
縮小	-10.6912
作品である	-10.6912
、1960	-10.6914
人口は	-10.6915
人種	-10.6915
電波	-10.6918
敗戦	-10.6921
宮殿	-10.6921
同士	-10.6923
積み	-10.6925
乗車	-10.6926
委託	-10.6928
sp	-10.693
室内	-10.693
になっており	-10.6935
名称は	-10.6935
ゾーン	-10.6935
。2003	-10.6937
関与	-10.6938
ギン	-10.694
立地	-10.694
の攻撃	-10.6941
脂	-10.6942
を理由に	-10.6942
を元に	-10.6943
勧め	-10.6944
欲	-10.6947
建立	-10.6948
獲	-10.695
タリ	-10.695
勲章	-10.6952
に所属し	-10.6953
遷	-10.6956
船舶	-10.6958
されているが	-10.6959
プロセス	-10.6959
討ち	-10.6961
死者	-10.6962
、1998	-10.6962
いった	-10.6963
自身も	-10.6965
コロンビア	-10.6966
楊	-10.6966
ェ	-10.6966
としていた	-10.6967
ボーイ	-10.697
ビール	-10.6973
を達成	-10.6974
欧米	-10.6975
合わせた	-10.6976
逸	-10.6978
ca	-10.6978
であるという	-10.6978
ローン	-10.6979
公国	-10.6979
するように	-10.6983
高速道路	-10.6984
削減	-10.6989
とある	-10.6989
だから	-10.6993
がいた	-10.6994
史料	-10.6994
描き	-10.6995
誓	-10.6996
塗装	-10.6997
王位	-10.6998
に存在する	-10.6998
先の	-10.7002
カート	-10.7003
オフィス	-10.7006
オーケストラ	-10.7011
請求	-10.7011
マイクロ	-10.7012
チェル	-10.7016
分に	-10.7018
はすべて	-10.7018
1.5	-10.7018
っぽ	-10.7024
のことを	-10.7026
都道府県	-10.7026
に至った	-10.7026
正式	-10.703
署名	-10.7031
還	-10.7032
導入された	-10.7033
受験	-10.7034
面積は	-10.7035
もまた	-10.704
カタ	-10.7041
、1995	-10.7042
打者	-10.7043
リク	-10.7045
が登場する	-10.7047
評論家	-10.7049
甲子園	-10.7049
位で	-10.7051
?」	-10.7052
教室	-10.7052
落語	-10.7053
が多数	-10.7056
サンタ	-10.7056
ボウ	-10.7058
アカ	-10.706
この地域	-10.706
が生じ	-10.7061
に改称	-10.7062
の発展	-10.7064
都市圏	-10.7066
ga	-10.7066
厳しい	-10.7066
意味で	-10.7071
姿を	-10.7071
の代表	-10.7071
グラム	-10.7072
校舎	-10.7073
ライバル	-10.7076
ミリ	-10.7076
が多かった	-10.7079
ING	-10.7079
周波数	-10.708
した際	-10.708
に沿って	-10.7081
以外にも	-10.7081
が発表された	-10.7087
を超え	-10.7087
篇	-10.7087
判明	-10.7089
を用い	-10.7091
トランス	-10.7096
天保	-10.7097
鮮	-10.7099
奏者	-10.7101
ちゅう	-10.7103
なくなり	-10.7106
かす	-10.7108
務めた	-10.7108
授	-10.7111
農民	-10.7112
を受けている	-10.7113
行列	-10.7113
卓	-10.7117
それまでの	-10.7118
ガラ	-10.7121
に対しては	-10.7122
貯	-10.7124
01	-10.7125
トロン	-10.7125
珠	-10.7126
エドワード	-10.7126
寺の	-10.7128
▁1993	-10.7129
晩年	-10.7131
De	-10.7132
ようになっている	-10.7142
短縮	-10.7142
以外に	-10.7143
確率	-10.7145
THE	-10.7145
教皇	-10.7147
獄	-10.7148
幻	-10.7149
伝統的な	-10.7149
年ぶりに	-10.7151
創作	-10.7152
拝	-10.7154
男爵	-10.7158
開かれた	-10.7159
風の	-10.7159
71	-10.7162
の一環として	-10.7164
烈	-10.7165
歳の時に	-10.7165
ツール	-10.7167
占	-10.7168
気温	-10.7169
郵便	-10.717
を機に	-10.7172
孔	-10.7172
次に	-10.7177
借	-10.7179
タンパク質	-10.718
養成	-10.7181
タイヤ	-10.7182
、1992	-10.7183
pp	-10.7186
伝える	-10.7186
に従って	-10.7188
ブス	-10.7188
ob	-10.7192
に戻った	-10.7194
やすく	-10.7194
の二	-10.7195
彫刻	-10.7196
停車	-10.7197
グラス	-10.72
。2002	-10.7205
OL	-10.7206
虚	-10.7211
涼	-10.7211
を失った	-10.7211
の平均	-10.7213
所在地	-10.7216
に昇進	-10.7217
もり	-10.7218
ディレクター	-10.7219
地図	-10.722
務め	-10.7222
滞在	-10.7224
場所に	-10.7225
ord	-10.7226
In	-10.723
ものとして	-10.7232
乾	-10.7234
フェリー	-10.7237
の前に	-10.7238
終盤	-10.7238
邪	-10.7242
に成功した	-10.7242
腸	-10.7242
コムーネ	-10.7242
IV	-10.7244
鹿児島県	-10.7245
官僚	-10.7246
部分は	-10.7246
ストーン	-10.7249
▁1991	-10.7249
インドネシア	-10.725
内では	-10.7251
ファル	-10.7254
初演	-10.7255
上がる	-10.7256
あき	-10.7258
タム	-10.7262
燃	-10.7262
ドラム	-10.7263
広域	-10.7264
近くの	-10.7264
数多く	-10.7265
療法	-10.7266
動員	-10.7269
詰	-10.7272
回数	-10.7273
二重	-10.7273
排除	-10.7274
容量	-10.7274
回戦で	-10.7275
低く	-10.7275
されたため	-10.7278
▁=	-10.7278
騎手	-10.728
ミュージカル	-10.7281
、1997	-10.7282
制覇	-10.7282
コフ	-10.7283
大規模	-10.7291
数え	-10.7294
麦	-10.7296
わせ	-10.7296
にわたる	-10.7297
ニク	-10.7297
曲の	-10.7299
搭乗	-10.73
リャ	-10.7301
曲が	-10.7302
んじ	-10.7302
バレエ	-10.7304
pl	-10.7305
してから	-10.7307
まっている	-10.7308
オープニング	-10.7311
順に	-10.7312
篠	-10.7312
uc	-10.7314
人数	-10.7314
▁1994	-10.7315
の大きさ	-10.7315
航路	-10.7315
大名	-10.7321
ファイナル	-10.7321
プレス	-10.7324
出土	-10.7324
悪い	-10.7325
、1996	-10.7327
趙	-10.7328
回収	-10.7333
マツ	-10.7333
原理	-10.7333
てくる	-10.7334
唱	-10.7336
徳島	-10.7336
数々の	-10.7336
ドイツ軍	-10.7339
美しい	-10.7341
信頼	-10.7341
ツォ	-10.7344
の下に	-10.7344
ET	-10.7347
菓子	-10.7348
扇	-10.7351
酷	-10.7352
数値	-10.7352
若干	-10.7353
』("	-10.7354
に対応する	-10.7359
化合物	-10.736
小野	-10.7363
市内の	-10.7364
数を	-10.7364
レンズ	-10.7368
で初	-10.7373
自主	-10.7374
世に	-10.7377
、1991	-10.7377
中島	-10.7377
られない	-10.7378
▁明治	-10.7383
ダービー	-10.7383
の原因	-10.7386
天体	-10.7386
の他に	-10.7387
を繰り返し	-10.7388
王の	-10.7388
登山	-10.7389
殻	-10.7391
を兼ね	-10.7391
翔	-10.7391
を使用し	-10.7392
1,000	-10.7394
BE	-10.7401
エク	-10.7402
",	-10.7403
▁1992	-10.7406
α	-10.7407
自体は	-10.7407
王国の	-10.7408
年間の	-10.7409
メダル	-10.7411
太平洋戦争	-10.7411
売上	-10.7413
グレイ	-10.7414
の高さ	-10.7415
SI	-10.7416
▁株式会社	-10.7417
示す	-10.7419
素材	-10.7419
プー	-10.7422
フレーム	-10.7422
泥	-10.7423
換え	-10.7423
1911	-10.7426
戦士	-10.7426
英雄	-10.7426
に指定されている	-10.7429
ロイヤル	-10.7431
CI	-10.7431
ときは	-10.7431
起点	-10.7432
若者	-10.7434
ast	-10.7434
開館	-10.7434
を実現	-10.7434
急速に	-10.7436
ひと	-10.7437
の共同	-10.7439
役員	-10.744
指揮者	-10.7441
900	-10.7443
恋愛	-10.7443
に伴って	-10.7443
専用の	-10.7444
取る	-10.7444
ヒーロー	-10.7445
旭	-10.7446
以下に	-10.7447
転向	-10.745
絞	-10.7454
日本国内	-10.7456
抱	-10.7456
の弟	-10.7458
ったり	-10.7459
兆	-10.7462
ギュ	-10.7464
競輪	-10.7464
、1989	-10.7466
総選挙	-10.7466
ock	-10.7467
ハリ	-10.747
ようやく	-10.747
出会い	-10.7471
ある日	-10.7476
決議	-10.7476
グラフィック	-10.7478
ペア	-10.7479
夫婦	-10.7481
eg	-10.7484
戦前	-10.7486
機を	-10.7489
ハラ	-10.7492
ガード	-10.7502
携帯電話	-10.7502
インターナショナル	-10.7503
を利用する	-10.7503
おそらく	-10.751
エディ	-10.7511
Ex	-10.7511
予測	-10.7512
かか	-10.7512
が始まる	-10.7512
タッチ	-10.7512
1913	-10.7513
付近に	-10.7515
アフ	-10.7518
が発生した	-10.7518
慈	-10.7518
わけではない	-10.7519
にとっては	-10.752
▁1970	-10.7521
連覇	-10.7522
Fr	-10.7523
ませ	-10.7528
庁舎	-10.7529
の森	-10.7533
位となった	-10.7533
松山	-10.7534
ポジション	-10.7536
学校の	-10.7536
本来の	-10.7537
黄金	-10.7537
1915	-10.7541
していること	-10.7542
もなく	-10.7545
岡田	-10.7546
怒	-10.7549
するのは	-10.7549
クレイ	-10.7552
流域	-10.7552
にあたって	-10.7559
プレート	-10.7559
DF	-10.7559
削	-10.7565
さき	-10.7566
SM	-10.7568
gh	-10.7571
に住む	-10.7571
ナポレオン	-10.7574
併設	-10.7575
に参戦	-10.7575
名古屋市	-10.7575
書く	-10.7578
国籍	-10.758
『』	-10.7584
流れる	-10.7586
添	-10.7587
を知る	-10.7589
みや	-10.7594
賞金	-10.7596
にあたり	-10.76
で知られる	-10.7603
東京都出身	-10.7604
人として	-10.7604
ng	-10.7605
が確認され	-10.7606
琉球	-10.7606
易	-10.7607
ラスト	-10.7609
逆転	-10.761
教徒	-10.7611
コミュニケーション	-10.7615
前田	-10.7615
相模	-10.7617
はこれを	-10.7618
ue	-10.762
将棋	-10.7622
亡	-10.7622
プロモーション	-10.7623
トレード	-10.7624
正面	-10.7624
初期に	-10.7627
検出	-10.7627
管区	-10.7628
られており	-10.7631
駅で	-10.7633
sa	-10.7634
着陸	-10.7635
、1993	-10.7635
ke	-10.7636
DC	-10.7636
認知	-10.7637
ラテン語	-10.7639
赤い	-10.7643
国内で	-10.7645
を提供する	-10.7646
第二次	-10.7649
当地	-10.7649
賜	-10.7655
ニュージーランド	-10.7655
岩手県	-10.7655
製造された	-10.766
大西洋	-10.766
Tr	-10.7663
年までに	-10.7663
変わり	-10.7665
発表した	-10.7667
熊本県	-10.7667
の成績	-10.7669
タッグ	-10.767
領主	-10.7671
バイエルン	-10.7672
ジア	-10.7673
日に発売された	-10.7679
クイズ	-10.7679
フリードリヒ	-10.7679
IL	-10.7682
ts	-10.7684
岐阜	-10.7687
▁De	-10.7687
と呼ばれていた	-10.7691
状に	-10.7694
ica	-10.7695
挿入	-10.7698
皇后	-10.7699
To	-10.7702
EU	-10.7702
アラブ	-10.7703
被害者	-10.7703
開き	-10.7703
メタル	-10.7704
="2"|-||	-10.7704
配給	-10.7707
混合	-10.7708
ロケ	-10.7709
は当初	-10.771
芸人	-10.771
Pa	-10.7712
平安時代	-10.7712
クルー	-10.7712
だん	-10.7713
リル	-10.7714
放送されていた	-10.7715
ことが出来る	-10.7716
by	-10.7719
iv	-10.7721
協議会	-10.7723
ピット	-10.7724
ヒトラー	-10.7726
Co	-10.7727
準優勝	-10.7727
をとる	-10.7728
蛇	-10.7729
を立て	-10.7729
出版社	-10.7731
ライター	-10.7732
了	-10.7733
ペット	-10.7733
最終的には	-10.7733
ラジオ番組	-10.7734
強力な	-10.7734
▁n	-10.7736
コウ	-10.7744
綿	-10.7745
上京	-10.7746
傾	-10.7748
大気	-10.7748
ひとり	-10.7749
食事	-10.775
移植	-10.775
東宝	-10.7752
クタ	-10.7754
達は	-10.7754
影響力	-10.7757
総裁	-10.7758
を示し	-10.7758
バンク	-10.7758
報告書	-10.7759
山口県	-10.776
シング	-10.7763
HA	-10.7763
マラソン	-10.7764
ブレー	-10.7771
クリス	-10.7776
スパ	-10.7776
業績	-10.7778
と称し	-10.7782
出場した	-10.7785
駆け	-10.7785
雌	-10.7786
やはり	-10.7786
与え	-10.7788
好きな	-10.7791
潤	-10.7794
を担当する	-10.7797
の主要	-10.7799
事件の	-10.7801
宇都宮	-10.7802
ギア	-10.7802
訴え	-10.7803
文化財	-10.7806
がそれぞれ	-10.7807
水戸	-10.7808
高原	-10.7812
融合	-10.7813
トーマス	-10.7815
いん	-10.7818
運賃	-10.7819
私は	-10.7822
行事	-10.7823
ide	-10.7824
会話	-10.7826
キック	-10.7827
up	-10.783
近くに	-10.7831
熱帯	-10.7833
廃止され	-10.7833
va	-10.7835
椎	-10.7835
鍵	-10.7835
比例	-10.7837
と言い	-10.7839
連合軍	-10.7841
ガイド	-10.7842
働く	-10.7842
ジャクソン	-10.7843
あくまで	-10.7844
生存	-10.7844
激しく	-10.7846
音源	-10.7847
。2001	-10.7849
十二	-10.7851
フットボール	-10.7851
レンジャー	-10.7851
戒	-10.7852
た後	-10.7853
論理	-10.7854
種目	-10.7855
テス	-10.7856
衛生	-10.7857
猿	-10.786
後ろ	-10.7861
人員	-10.7861
ark	-10.7862
車線	-10.7863
黒人	-10.7864
を目指し	-10.7869
蒸気	-10.7869
カリフォルニア	-10.7872
が認められ	-10.7877
放送されている	-10.7877
年春	-10.7878
放送の	-10.7881
▁1989	-10.7882
答	-10.7883
ace	-10.7884
意向	-10.7886
対決	-10.7887
春日	-10.7888
定理	-10.7891
UR	-10.7892
亡くなった	-10.7893
サンド	-10.7895
回路	-10.7898
を歴任	-10.79
横断	-10.79
々と	-10.79
を出す	-10.7901
戦力	-10.7902
野村	-10.7902
em	-10.7904
酸素	-10.7907
濃度	-10.791
りょう	-10.7911
結成された	-10.7911
助手	-10.7911
会計	-10.7912
段階で	-10.7912
認可	-10.7913
を求め	-10.7916
霧	-10.7918
青森県	-10.7918
観音	-10.792
定め	-10.7921
品種	-10.7926
近畿	-10.7927
京都市	-10.7929
が追加され	-10.793
触	-10.7933
尺	-10.7935
独占	-10.7935
閉じ	-10.7937
カウント	-10.7938
乾燥	-10.7943
ません	-10.7943
方程式	-10.7943
損害	-10.7944
ステップ	-10.7945
映画監督	-10.7945
も同様	-10.7946
取られ	-10.7946
Al	-10.7948
放出	-10.7948
フロー	-10.7948
アール	-10.7949
わけ	-10.7953
JA	-10.7953
フェア	-10.7956
続ける	-10.7962
快速	-10.7963
名義で	-10.7963
ぶん	-10.7964
トラブル	-10.7966
バード	-10.7968
上杉	-10.7971
ru	-10.7972
と対戦	-10.7976
ンゲン	-10.7977
才能	-10.7977
しようとした	-10.7978
の舞台	-10.7979
An	-10.7979
▁Ar	-10.798
周年記念	-10.7981
ey	-10.7981
戦場	-10.7983
稀	-10.7985
羊	-10.7985
廃車	-10.7985
ガリ	-10.7986
現代の	-10.7987
著作権	-10.7988
、1986	-10.799
IR	-10.799
の販売	-10.7992
駐車場	-10.7993
工作	-10.7998
タイプの	-10.7999
が始まり	-10.8001
三井	-10.8002
NBA	-10.8004
連合国	-10.8005
態度	-10.8007
で行われる	-10.8008
衝撃	-10.801
の自由	-10.8014
長に就任	-10.8017
芽	-10.8019
阪急	-10.802
che	-10.802
主宰	-10.802
修復	-10.8021
に移り	-10.8022
次のように	-10.8023
を加えた	-10.8026
、1988	-10.8026
aw	-10.8027
払い	-10.8028
配備	-10.803
墓地	-10.803
リカ	-10.8031
セラ	-10.8032
夫妻	-10.8036
レーン	-10.8038
マイク	-10.804
ゲート	-10.8044
班	-10.8044
以下のような	-10.8045
研修	-10.8045
エット	-10.8046
の言葉	-10.8047
初めての	-10.8047
ワル	-10.805
日にかけて	-10.8051
名付けられた	-10.8052
看護	-10.8053
装飾	-10.8054
ong	-10.8054
次々と	-10.8055
胡	-10.8061
等で	-10.8064
亮	-10.8069
を浴び	-10.8069
HI	-10.807
国連	-10.8071
は以下の	-10.8071
見て	-10.8074
集め	-10.8074
EL	-10.8075
見せ	-10.8075
大会では	-10.8076
著名な	-10.8078
su	-10.8078
運輸	-10.8078
に必要な	-10.8079
に渡り	-10.8084
ance	-10.8086
、1987	-10.8088
がその	-10.8089
じゃ	-10.809
列車が	-10.8092
上級	-10.8093
オールスター	-10.8094
ロップ	-10.8095
放送時間	-10.8096
白人	-10.8101
考え方	-10.8103
構	-10.8108
理由で	-10.8108
晩	-10.8114
保管	-10.8118
赴	-10.8119
付けられた	-10.812
現存	-10.812
落選	-10.812
かみ	-10.8122
ton	-10.8124
参加している	-10.8126
きん	-10.8126
引用	-10.8128
日曜	-10.8128
各地で	-10.8129
SH	-10.813
とは異なる	-10.8134
避	-10.8135
堺	-10.8137
ガール	-10.8138
講演	-10.8138
は無い	-10.8139
年までは	-10.814
気筒	-10.8141
学位	-10.8142
考	-10.8146
町名	-10.8146
偵察	-10.8146
といい	-10.8146
横須賀	-10.8146
ドゥー	-10.8149
東京大学	-10.815
科の	-10.815
現れた	-10.8154
籠	-10.8154
甲斐	-10.8155
戦国時代	-10.8155
サンフランシスコ	-10.8155
con	-10.8157
栄養	-10.8157
学研究科	-10.8159
パッ	-10.816
四郎	-10.8162
かもしれない	-10.8163
といえる	-10.8163
のみである	-10.8164
この間	-10.8164
ba	-10.8164
ベック	-10.8165
サイクル	-10.8166
プラス	-10.817
審判	-10.8171
版では	-10.8171
褐色	-10.8172
ミラー	-10.8175
興味	-10.8179
と言って	-10.8182
複雑な	-10.8183
代表として	-10.8184
を形成する	-10.8184
を利用した	-10.8185
飛行機	-10.8185
国内の	-10.8187
ルーム	-10.8189
に選出され	-10.819
ストロ	-10.8191
けんどう	-10.8192
res	-10.8193
勅	-10.8195
されるが	-10.8196
栃木県	-10.8198
直径	-10.8199
PO	-10.82
巨大	-10.8202
泳	-10.8206
征服	-10.8207
のだ	-10.8208
を通る	-10.8209
市街	-10.8209
EP	-10.821
ておらず	-10.821
中華民国	-10.8214
中でも	-10.8215
存在し	-10.8216
学名	-10.8216
str	-10.8217
既存の	-10.8217
起用され	-10.8218
はあまり	-10.822
南アフリカ	-10.8221
願い	-10.8222
が強く	-10.8225
エンディング	-10.8226
SL	-10.8226
何か	-10.8226
享	-10.8228
頻繁に	-10.823
説得	-10.8231
嗣	-10.8231
中断	-10.8232
上がった	-10.8236
人権	-10.8238
辰	-10.824
に本社を置く	-10.824
MLB	-10.824
出現	-10.8242
宝塚	-10.8244
を採用した	-10.8246
の支配	-10.8247
トヨタ	-10.8249
風景	-10.8249
生放送	-10.8249
尽力	-10.825
斜	-10.8252
大衆	-10.8252
通貨	-10.8252
しつつ	-10.8253
エッ	-10.8254
騎士	-10.8257
。1990	-10.8258
という説	-10.8261
金メダル	-10.8262
海戦	-10.8262
▁Z	-10.8266
任期	-10.8266
物資	-10.8266
が発売された	-10.8266
衰退	-10.8266
ジュー	-10.8268
量産	-10.8269
版が	-10.8271
互いに	-10.8275
を占める	-10.8275
▁その他	-10.8277
でん	-10.828
勤め	-10.8281
みず	-10.8282
淳	-10.8283
チェコ	-10.8284
東方	-10.8284
を務めている	-10.8285
山頂	-10.8285
親王	-10.8286
KE	-10.8286
えい	-10.8287
戦術	-10.8288
学問	-10.8289
年ぶり	-10.8291
▁Ma	-10.8292
に敗れた	-10.8292
ことによって	-10.8293
立つ	-10.8295
エール	-10.8298
ニカ	-10.83
『"	-10.83
消え	-10.8301
限界	-10.8303
入った	-10.8303
AA	-10.8308
遇	-10.8309
証券	-10.8309
odice	-10.831
あなた	-10.831
麗	-10.8312
を見る	-10.8317
へ向かう	-10.8318
しょうがっこう	-10.8318
南部の	-10.832
生じた	-10.832
武士	-10.832
はほぼ	-10.832
視点	-10.8323
感覚	-10.8323
限りで	-10.8323
ないように	-10.8326
むしろ	-10.8326
宮廷	-10.8327
影響を受け	-10.8327
ix	-10.8328
ことである	-10.833
ラジ	-10.833
渡り	-10.8331
述べる	-10.8331
絡	-10.8333
げん	-10.8334
サウルス	-10.8335
創造	-10.8338
任意の	-10.834
ハウ	-10.8341
を搭載した	-10.8343
徹底	-10.8344
戦死	-10.8345
イギリス軍	-10.8348
年ぶりの	-10.8349
ルカ	-10.8351
を開始し	-10.8353
時刻	-10.8353
闘争	-10.8354
チア	-10.8357
時間が	-10.8357
話し	-10.8357
アルコール	-10.8359
▁エ	-10.8359
黙	-10.8361
タナ	-10.8361
牽引	-10.8362
周り	-10.8363
と表記	-10.8363
完全な	-10.8364
不安	-10.8365
文章	-10.8367
同月	-10.8367
滋賀県	-10.837
平方マイル	-10.837
を見た	-10.8373
だけの	-10.8375
発足した	-10.8375
ary	-10.8376
Te	-10.8376
単純	-10.8377
ヒン	-10.8378
第四	-10.8378
▁An	-10.8379
番線	-10.838
枚の	-10.838
長年	-10.838
元の	-10.8385
悪魔	-10.8385
汚	-10.8387
St	-10.8388
を使い	-10.8389
なぜ	-10.839
はそれぞれ	-10.8395
長編	-10.8396
アレンジ	-10.8396
三国	-10.8396
通常は	-10.8396
編纂	-10.8396
、1985	-10.8397
進学	-10.8398
存在した	-10.8399
なって	-10.8399
を含めた	-10.8401
と異なり	-10.8402
論争	-10.8403
瓦	-10.8404
コンテンツ	-10.8405
庵	-10.8405
マール	-10.8406
がい	-10.8408
お笑い	-10.841
作中	-10.841
艦長	-10.841
変動	-10.841
垂	-10.8411
のデザイン	-10.8412
スカウト	-10.8413
結ばれ	-10.8414
Web	-10.8415
母は	-10.8417
ーニ	-10.8417
テレビ東京	-10.8419
財団	-10.8419
各地の	-10.8421
招待	-10.8422
ネオ	-10.8425
の境界	-10.8425
ブルース	-10.8427
オリコン	-10.8428
跳	-10.8431
國	-10.8431
このほか	-10.8436
あげ	-10.8437
下流	-10.8437
規模の	-10.8439
鳳	-10.844
ユナイテッド	-10.844
命中	-10.844
懸念	-10.844
摩	-10.8444
割り	-10.8445
に存在した	-10.8446
同時期に	-10.8448
イング	-10.8452
する必要がある	-10.8453
当日	-10.8454
本名は	-10.8456
キャンペーン	-10.8457
ブルガリア	-10.8457
コントロール	-10.8457
況	-10.8461
を導入し	-10.8463
本種	-10.8463
アイランド	-10.8466
選考	-10.8468
かる	-10.8469
からである	-10.8471
徳島県	-10.8478
イスラム	-10.8479
the	-10.848
アンドレ	-10.848
をきっかけに	-10.8482
オスマン帝国	-10.8484
田町	-10.8486
課長	-10.8491
ねん	-10.8492
研究会	-10.8494
死んだ	-10.8494
リーズ	-10.8497
プレーオフ	-10.8498
時台	-10.8498
会津	-10.8502
考案	-10.8503
end	-10.8504
祥	-10.8507
Re	-10.8507
くん	-10.8508
久保	-10.8509
保証	-10.8515
経由	-10.8515
兼任	-10.8518
ベッ	-10.8518
1916	-10.8519
共和党	-10.8519
書店	-10.8519
衆議院議員	-10.852
の立場	-10.8521
VE	-10.8522
続けている	-10.8526
在位	-10.8528
側が	-10.853
を見つけ	-10.853
確実	-10.8531
吹き	-10.8533
を指し	-10.8534
運河	-10.8534
実践	-10.8537
BL	-10.8538
開校	-10.8538
埋	-10.8538
を達成した	-10.854
歌う	-10.8541
奈良県	-10.8545
Gr	-10.8547
倒れ	-10.8551
ゼー	-10.8551
克	-10.8554
繰り	-10.8555
を終えた	-10.8555
財務	-10.8556
想定	-10.856
抑え	-10.8561
はまだ	-10.8563
忘れ	-10.8564
前から	-10.8565
救助	-10.8566
増大	-10.8566
we	-10.8572
逃亡	-10.8572
1907	-10.8572
保安	-10.8573
軽量	-10.8573
合戦	-10.8574
しなければならない	-10.8575
船体	-10.8576
テッド	-10.8576
寄付	-10.8577
1889	-10.8578
土曜	-10.8579
hy	-10.8579
青山	-10.8579
挙げ	-10.858
従業員	-10.8581
RPG	-10.8582
建てられた	-10.8583
go	-10.8584
開放	-10.8588
交易	-10.8589
フィート	-10.8589
不正	-10.859
VI	-10.8595
取り上げられ	-10.8596
恒星	-10.8596
リット	-10.8596
かた	-10.8598
ッシャー	-10.8605
終点	-10.8607
礁	-10.8608
リーナ	-10.8608
抑制	-10.861
侵入	-10.8611
重賞	-10.8611
周期	-10.8613
することになる	-10.8613
という名称	-10.8614
int	-10.8615
木曜	-10.8617
DJ	-10.862
こともできる	-10.8621
Cl	-10.8623
に渡って	-10.8625
謙	-10.8626
殺し	-10.8629
隊長	-10.863
を受賞	-10.863
でデビュー	-10.8631
水路	-10.8634
循環	-10.8634
大宮	-10.8635
愛媛県	-10.8635
経済的	-10.8636
総務	-10.8636
大野	-10.8639
もし	-10.8642
に行く	-10.8642
変わる	-10.8645
時点では	-10.8647
従軍	-10.8647
ばら	-10.8648
▁l	-10.865
モント	-10.865
NI	-10.865
踊り	-10.8651
懸	-10.8652
の最初の	-10.8653
伊達	-10.8654
にくい	-10.8658
基本的な	-10.866
岡崎	-10.8662
くら	-10.8663
南海	-10.8664
才	-10.8666
ってくる	-10.8667
との間で	-10.8667
参考	-10.867
バレー	-10.8672
有機	-10.8673
北陸	-10.8674
ミュー	-10.8676
たのは	-10.8676
たちに	-10.8678
電池	-10.8678
ショート	-10.8687
隅	-10.8688
法案	-10.8688
を残した	-10.869
を起こす	-10.8691
騒動	-10.8691
符	-10.8692
両国	-10.8692
110	-10.8695
淵	-10.8698
独特の	-10.8698
庭園	-10.87
を示している	-10.8702
渡し	-10.8705
阻止	-10.8706
液体	-10.8707
みつ	-10.871
結果として	-10.8712
New	-10.8712
届け	-10.8713
を決め	-10.8713
クロアチア	-10.8715
繰り広げ	-10.8716
必ずしも	-10.8716
と言った	-10.8716
兄の	-10.8717
長距離	-10.8717
協議	-10.8719
くり	-10.8722
の概念	-10.8724
世紀末	-10.8724
闇	-10.8725
何度も	-10.8725
コック	-10.8725
の役割	-10.8727
に立ち	-10.8728
スコア	-10.8729
エロ	-10.8729
走り	-10.8732
黒い	-10.8733
は再び	-10.8734
フェスティバル	-10.8734
舷	-10.8734
に達した	-10.8736
傍	-10.8736
ep	-10.8739
グレー	-10.874
に移動	-10.8742
富山県	-10.8742
製作された	-10.8742
磯	-10.8743
ベクトル	-10.8743
ジオ	-10.8747
民国	-10.8748
に用いられる	-10.8749
先生	-10.8749
容疑	-10.8753
。2019	-10.8754
5,000	-10.8754
もいる	-10.8756
ストー	-10.8756
島津	-10.8756
サッカー選手	-10.8761
として生まれる	-10.8761
探偵	-10.8761
市川	-10.8766
コンテスト	-10.8767
質問	-10.8768
水上	-10.8769
アメリカで	-10.8769
交響曲	-10.877
りゅう	-10.877
高山	-10.8772
村上	-10.8774
パック	-10.8774
小説家	-10.8777
彼を	-10.8777
城の	-10.8778
巧	-10.8779
の首都	-10.8781
ぼう	-10.8782
1908	-10.8788
世界遺産	-10.8789
ルーマニア	-10.8789
大分	-10.8791
前方	-10.8797
前面	-10.8797
を抑え	-10.8798
ノフ	-10.8799
努力	-10.8799
入賞	-10.88
グラフ	-10.8803
▁1988	-10.8804
ボロ	-10.8804
IM	-10.8805
駐屯	-10.8806
佐々木	-10.8806
日目	-10.8807
支流	-10.8808
稿	-10.8809
1906	-10.8809
を表明	-10.881
特典	-10.8811
は大きく	-10.8812
スン	-10.8815
DD	-10.8817
高架	-10.8818
直後の	-10.8818
が発生する	-10.8818
シャル	-10.8819
影響を与え	-10.8825
軍と	-10.8825
が無い	-10.8825
EA	-10.8826
だったため	-10.8826
橋本	-10.8828
内戦	-10.883
査	-10.883
一般的	-10.8831
の利用	-10.8833
刺激	-10.8834
メリ	-10.8835
であることが	-10.8835
前者	-10.8836
ew	-10.8838
ボーン	-10.8838
前線	-10.8842
それから	-10.8844
に参加する	-10.8846
リントン	-10.8846
Blu	-10.8847
近年では	-10.8848
その間	-10.8849
有限	-10.8851
ズム	-10.8853
主義者	-10.8854
MF	-10.8856
ミール	-10.8856
ウェブ	-10.886
総会	-10.8863
ox	-10.8865
貧	-10.8869
山梨県	-10.887
るか	-10.887
参加者	-10.8872
ためである	-10.8873
130	-10.8874
大量	-10.8875
を終え	-10.8876
擬	-10.8879
噂	-10.8879
下記の	-10.8883
書かれ	-10.8884
時期に	-10.8886
ヒロイン	-10.8889
▁Pro	-10.8889
とも呼ばれ	-10.8889
められ	-10.889
トイレ	-10.8891
1905	-10.8892
自衛隊	-10.8897
158	-10.8898
敦	-10.8898
は通常	-10.8898
外観	-10.8898
丘陵	-10.8899
を避け	-10.89
発掘	-10.8902
エリザベス	-10.8907
乏	-10.8907
ていたため	-10.8907
薩摩	-10.8907
メタ	-10.8908
ベリ	-10.8911
停	-10.8911
版は	-10.8912
空中	-10.8913
ビュ	-10.8917
同意	-10.8918
する形で	-10.8919
しまう	-10.892
緩	-10.8921
容易に	-10.8921
塞	-10.8922
リアル	-10.8922
HD	-10.8923
都合	-10.8923
代々	-10.8928
ぷ	-10.8931
正式な	-10.8934
嫁	-10.8934
トニー	-10.8935
朝廷	-10.8935
。<	-10.8936
テラ	-10.8936
ムル	-10.8943
を継いだ	-10.8943
漁業	-10.8944
結論	-10.8944
キロメートル	-10.8945
挙げられ	-10.8946
左翼	-10.8948
放送開始	-10.8949
付いた	-10.8953
綾	-10.8953
澄	-10.8953
山崎	-10.8956
撮	-10.896
町村	-10.8963
描かれた	-10.8963
を記録し	-10.8964
バナ	-10.8968
代藩主	-10.8971
狩	-10.8971
浸	-10.8971
マックス	-10.8972
バラエティ番組	-10.8974
津市	-10.8975
この場合	-10.8978
を採用し	-10.8978
間隔	-10.8979
衝	-10.898
はっきり	-10.898
を訪れ	-10.8981
敷設	-10.8981
*	-10.8981
石川県	-10.8981
開いた	-10.8984
うちに	-10.8986
部隊は	-10.8989
。1999	-10.8989
電源	-10.8991
応募	-10.8991
的である	-10.8997
アラン	-10.8998
を中心とする	-10.8999
ミュンヘン	-10.8999
定める	-10.9
珍しい	-10.9
加わった	-10.9
相対	-10.9
バイオ	-10.9001
圧縮	-10.9001
捉え	-10.9001
活動している	-10.9004
定数	-10.9008
励	-10.9008
チベット	-10.9008
大坂	-10.9009
ダウンロード	-10.901
中隊	-10.9012
を搭載し	-10.9012
の運行	-10.9012
高田	-10.9012
太子	-10.9015
チャートで	-10.9015
午前	-10.9015
品質	-10.9019
冒頭	-10.902
切り替え	-10.902
ことはできない	-10.9021
EST	-10.9024
台風	-10.9024
引退後	-10.9025
琴	-10.9027
電気鉄道	-10.9027
8%	-10.9028
有料	-10.9029
AB	-10.9031
を求めた	-10.9034
が大きい	-10.9035
住宅地	-10.9036
ノミネート	-10.9036
ホールディングス	-10.9038
福音	-10.9038
解雇	-10.9038
心理学	-10.904
に設置された	-10.9042
TKO	-10.9044
所在	-10.9045
が設置された	-10.9049
ノート	-10.905
階段	-10.905
専門家	-10.9052
サウ	-10.9053
最中	-10.9054
絶滅	-10.9056
洪水	-10.9058
飛行場	-10.9059
又	-10.9062
特殊な	-10.9062
サイン	-10.9062
入場	-10.9062
堤	-10.9063
支配下	-10.9064
と述べ	-10.9065
出演している	-10.9067
側から	-10.9069
日産	-10.9069
内側	-10.9073
iz	-10.9073
オプション	-10.9074
簿	-10.9074
地中海	-10.9077
大学名誉教授	-10.908
否	-10.9081
発生する	-10.9082
の後継	-10.9082
DNA	-10.9084
ビーチ	-10.9086
の導入	-10.9087
信濃	-10.9088
を書き	-10.9088
ならず	-10.9088
を扱う	-10.9089
アイス	-10.9092
レフ	-10.9097
を掲げ	-10.9101
、1984	-10.9102
おき	-10.9102
検察	-10.9102
から約	-10.9103
視聴者	-10.9103
叔父	-10.9104
著者	-10.9105
最小	-10.9106
オーナー	-10.9109
交差	-10.9109
出席	-10.9111
鉛	-10.9111
世紀初頭	-10.9112
漫画家	-10.9113
低迷	-10.9113
を破り	-10.9113
実力	-10.9114
秋田県	-10.9117
出産	-10.9122
変身	-10.9122
近江	-10.9123
を発売	-10.9124
しているため	-10.9127
チェーン	-10.9128
ダイヤ	-10.9128
幽	-10.913
零	-10.913
▁1960	-10.913
つつある	-10.9131
南方	-10.9131
1909	-10.9133
を続けた	-10.9134
置き	-10.9135
ug	-10.9137
活発	-10.9138
塗	-10.9139
何らかの	-10.9139
大量の	-10.914
盗塁	-10.914
山岳	-10.9141
を基に	-10.9143
05	-10.9144
登場している	-10.9145
通勤	-10.9146
ハッ	-10.9146
物理	-10.9147
レク	-10.9149
した上で	-10.915
を持たない	-10.9151
原子力	-10.9154
カンパニー	-10.9158
観光客	-10.9164
▁THE	-10.9164
ort	-10.9164
イースト	-10.9164
が盛ん	-10.9165
会社である	-10.9165
ところで	-10.9167
惨	-10.9167
を結んで	-10.9168
マニ	-10.917
に関わる	-10.9171
使用され	-10.9173
ショウ	-10.9174
山陽	-10.9174
事務局	-10.9177
本格的に	-10.9179
緯	-10.9185
当主	-10.9185
講談社	-10.9187
萩	-10.9187
ウェブサイト	-10.9187
ミッド	-10.9188
に所在する	-10.9189
名詞	-10.9189
演じる	-10.919
釣り	-10.919
マルクス	-10.919
石炭	-10.9196
ジョンソン	-10.9197
探検	-10.9197
部下	-10.9197
調達	-10.9197
成立した	-10.9198
選ばれた	-10.9199
レム	-10.9203
車種	-10.9205
公社	-10.9206
参謀	-10.9208
AAA	-10.9209
tic	-10.9209
後継者	-10.921
化石	-10.9211
建国	-10.9215
タクシー	-10.9215
呪	-10.9215
ニル	-10.9216
勝負	-10.922
付近の	-10.9223
存在していた	-10.9223
犯人	-10.9224
スプリング	-10.9226
出来ない	-10.9227
NC	-10.9227
入口	-10.923
と結婚した	-10.9236
月にかけて	-10.9237
レーシング	-10.9238
日々	-10.9238
企	-10.924
、1950	-10.9243
ァ	-10.9243
カウ	-10.9244
命名された	-10.9245
今回	-10.9247
見られた	-10.9249
は全く	-10.9252
アプリ	-10.9253
爆撃	-10.9255
提示	-10.9256
城主	-10.9257
大学文学部	-10.9258
その中で	-10.9258
るよう	-10.9259
朝日	-10.9263
最上	-10.9265
期生	-10.9265
長崎県	-10.9267
ron	-10.9267
到	-10.9268
に挑戦	-10.9269
愛称は	-10.9271
ラグ	-10.9271
辻	-10.9272
境界	-10.9274
刊行された	-10.9276
司令	-10.928
髄	-10.9281
学的	-10.9283
パネル	-10.9283
▁Sh	-10.9285
の動き	-10.9286
作った	-10.9287
昇進	-10.9289
どちら	-10.9289
縄	-10.9291
ジャーナリスト	-10.9291
大韓民国	-10.9291
踏み	-10.9294
メロディ	-10.9295
レビュー	-10.9298
の両方	-10.9299
いま	-10.9299
キス	-10.93
幅広い	-10.9302
修行	-10.9302
ich	-10.9303
直前に	-10.9305
役者	-10.9305
突入	-10.9307
勧	-10.9308
事項	-10.9309
競走馬	-10.9309
か所	-10.9311
改装	-10.9313
のもとで	-10.9315
平面	-10.9317
建築家	-10.9317
が強い	-10.9319
人々が	-10.9319
で生まれた	-10.932
臭	-10.932
函館	-10.932
初登場	-10.9322
コマンド	-10.9324
円形	-10.9324
元禄	-10.9327
クリー	-10.9327
が現れ	-10.9328
哨戒	-10.933
救援	-10.9332
ft	-10.9334
モハ	-10.9334
後退	-10.9334
を呼び	-10.9339
アダム	-10.9341
歌唱	-10.9342
トリア	-10.9344
ヨハン	-10.9344
販	-10.9347
出場し	-10.9348
粛	-10.9349
年代以降	-10.9349
山形	-10.9349
利用できる	-10.9353
発売されている	-10.9353
の称号	-10.9354
存在している	-10.9354
PE	-10.9356
しようとする	-10.9356
参入	-10.9361
大島	-10.9363
FF	-10.9363
日曜日	-10.9364
入植	-10.9365
逃	-10.9366
苗	-10.9368
就職	-10.9371
入門	-10.9371
一緒に	-10.9374
附	-10.9376
ことや	-10.9376
の長さ	-10.9377
分散	-10.9378
単語	-10.9382
秘書	-10.9384
コミ	-10.9387
奮	-10.9387
仕掛け	-10.9389
消滅した	-10.9391
統制	-10.9392
を含めて	-10.9396
ッセ	-10.9398
政府が	-10.94
サークル	-10.9402
▁g	-10.9403
ib	-10.9407
で構成され	-10.9407
ブロー	-10.9411
の範囲	-10.9414
▁Br	-10.9415
クール	-10.9415
的なもの	-10.9415
ドキュメンタリー	-10.9416
成人	-10.9417
近年は	-10.9419
寛永	-10.9419
待ち	-10.9421
ブロン	-10.9422
ome	-10.9424
述べている	-10.9424
ダブルス	-10.9425
期間中	-10.9425
140	-10.9425
恋人	-10.9425
簡易	-10.9426
雇	-10.9428
引退した	-10.9429
但し	-10.9429
出撃	-10.9431
蒸	-10.9434
が可能である	-10.9434
フランス軍	-10.9435
墨	-10.9435
災	-10.9439
フト	-10.944
りん	-10.9441
開け	-10.9442
ともいう	-10.9444
ファンタジー	-10.9445
バランス	-10.9447
を投げ	-10.9449
キャスター	-10.9449
オイ	-10.9449
余り	-10.9451
1890	-10.9451
あん	-10.9453
起こった	-10.9454
着用	-10.9455
モンテ	-10.9455
も可能	-10.9455
怒り	-10.9456
ぜん	-10.9457
ty	-10.9458
後任	-10.9459
したところ	-10.9461
旧制	-10.9463
河口	-10.9467
配布	-10.9472
肝	-10.9474
ヴァイオリン	-10.9474
失点	-10.9476
炭素	-10.9476
の多い	-10.9476
間もなく	-10.9478
ッキング	-10.9481
フリ	-10.9482
していたため	-10.9483
高校生	-10.9484
クリスマス	-10.9485
加速	-10.9485
の整備	-10.9486
年秋	-10.949
使用されていた	-10.9492
に勤務	-10.9492
甥	-10.9494
長らく	-10.9494
曲線	-10.9494
短期大学	-10.9497
世紀後半	-10.9497
うこと	-10.9499
哉	-10.9503
鐘	-10.9503
社会党	-10.9506
試合に出場し	-10.9509
を教え	-10.9509
チャレンジ	-10.951
砲撃	-10.951
本格的な	-10.951
番目に	-10.9512
変形	-10.9513
▁Al	-10.9514
1%	-10.9515
変更された	-10.9517
ていること	-10.9519
なっていた	-10.9519
理想	-10.9523
▁1987	-10.9525
キューバ	-10.9527
条例	-10.9529
呈	-10.953
刈	-10.9532
警戒	-10.9533
首位	-10.9533
松竹	-10.9534
ブレイ	-10.9535
米軍	-10.9537
▁現在は	-10.9538
を挙げる	-10.9539
後継	-10.954
。1980	-10.9542
手掛け	-10.9544
配列	-10.9544
チョウ	-10.9546
味方	-10.9551
達が	-10.9552
早い	-10.9552
岬	-10.9552
文芸	-10.9553
の武将	-10.9554
るようになり	-10.9558
みんな	-10.9559
しかも	-10.956
のちの	-10.9563
責任者	-10.9566
-17	-10.9566
吉野	-10.9566
儀式	-10.9569
学院大学	-10.9571
足利	-10.9572
ヘー	-10.9575
考慮	-10.9576
子供たち	-10.9576
になること	-10.9577
を満たす	-10.9582
滅亡	-10.9582
出演者	-10.9582
検索	-10.9583
エクス	-10.9584
が少ない	-10.9584
食料	-10.9586
数十	-10.9588
付近で	-10.9588
TI	-10.9589
GM	-10.9593
仕事を	-10.9594
に至るまで	-10.9594
も含め	-10.9595
であることから	-10.9597
are	-10.9597
ベール	-10.9597
環状	-10.9597
住み	-10.9601
車内	-10.9601
発展した	-10.9602
心臓	-10.9604
創建	-10.9604
rd	-10.9604
とはいえ	-10.9606
二次	-10.9606
前回	-10.9607
lu	-10.9607
折り	-10.9608
乗降	-10.9608
-15	-10.961
カフェ	-10.961
刃	-10.9612
占め	-10.9613
を学び	-10.9613
og	-10.9614
YO	-10.9614
ようである	-10.9616
主役	-10.9619
1904	-10.9622
レディ	-10.9622
伝わる	-10.9623
盛ん	-10.9625
港湾	-10.9625
を発表し	-10.9626
代表作	-10.9628
で放送されていた	-10.963
Ar	-10.9635
実在	-10.9635
シネマ	-10.9635
明治時代	-10.9636
隊員	-10.9637
改札	-10.9639
働	-10.9641
さず	-10.9643
不可	-10.9644
は不明である	-10.9645
を出し	-10.9645
公爵	-10.9645
▁1986	-10.9645
ブリー	-10.9646
区画	-10.9648
当初から	-10.9648
を組み	-10.9651
昆虫	-10.9651
PlayStation	-10.9651
顧客	-10.9652
アメリカ海軍	-10.9653
スプ	-10.9653
魅力	-10.9655
緑色	-10.9656
が最も	-10.9658
固め	-10.9659
摂	-10.9661
というもの	-10.9661
進歩	-10.9661
模型	-10.9661
ぎょう	-10.9661
結晶	-10.9662
コンスタン	-10.9662
何も	-10.9663
わる	-10.9664
2,000	-10.9666
美濃	-10.9666
させるため	-10.9668
先輩	-10.9671
スイッチ	-10.9671
Su	-10.9672
残りの	-10.9673
技法	-10.9673
影響を与えた	-10.9674
作られ	-10.9678
リトアニア	-10.9681
現行	-10.9681
所蔵	-10.9681
第一次	-10.9682
その一方で	-10.9685
まえ	-10.9686
コーン	-10.9687
大人	-10.9687
の墓	-10.969
駅まで	-10.969
吐	-10.9691
校長	-10.9691
冬季	-10.9692
ロックバンド	-10.9693
外側	-10.9695
オレンジ	-10.9696
ばん	-10.9698
グー	-10.9699
アシスタント	-10.9701
▁Ro	-10.9701
の地名	-10.9702
ペリ	-10.9702
tor	-10.9702
gen	-10.9703
シャルル	-10.9708
責	-10.9709
原料	-10.9709
4%	-10.971
有利	-10.971
小川	-10.971
試合に登板	-10.9711
シュート	-10.9714
挟	-10.9715
抗争	-10.9715
NT	-10.9715
我々	-10.9716
雰囲気	-10.9721
にちなんで	-10.9721
ャ	-10.9723
保健	-10.9724
じま	-10.9725
初勝利	-10.9728
ジョージア	-10.9729
GE	-10.9729
が開始され	-10.9729
ハーン	-10.9731
建造物	-10.9732
衣装	-10.9734
と同様の	-10.9734
と同一	-10.9734
の権利	-10.9741
変化する	-10.9742
広島市	-10.9744
せずに	-10.9744
創設された	-10.9746
両方	-10.975
猪	-10.9751
ダイヤモンド	-10.9751
学んだ	-10.9754
小倉	-10.9754
ビング	-10.9754
劇中	-10.9755
Vi	-10.9757
FI	-10.9757
涙	-10.9761
泣	-10.9761
テリア	-10.9761
勉強	-10.9761
pro	-10.9762
背番号	-10.9763
並び	-10.9765
全線	-10.9768
幕末	-10.9772
慣	-10.9773
中退	-10.9775
新型	-10.9776
れん	-10.978
に及ぶ	-10.9781
中国語	-10.9782
セントラル	-10.9782
をあげ	-10.9782
3%	-10.9788
砕	-10.9791
ドリーム	-10.9792
ウォーター	-10.9792
6%	-10.9794
と一緒に	-10.9795
ホッ	-10.9795
制作された	-10.9796
噴	-10.9798
出る	-10.9799
HE	-10.98
外れ	-10.9801
返還	-10.9801
映画化	-10.9803
改編	-10.9804
ps	-10.9804
so	-10.9805
水準	-10.9806
共同体	-10.9807
技術者	-10.9808
大分県	-10.9809
を遂げ	-10.9811
を送り	-10.9811
生物学	-10.9811
ゴム	-10.9813
コンクール	-10.9813
口径	-10.9814
Ph	-10.9814
強さ	-10.9815
複雑	-10.9818
2.5	-10.982
万枚	-10.982
歩道	-10.9821
に見られる	-10.9822
賛成	-10.9823
国勢調査	-10.9825
を残し	-10.9829
産物	-10.9829
サント	-10.9829
尿	-10.9831
確か	-10.9832
グレード	-10.9833
セーブ	-10.9834
アレク	-10.9838
場所で	-10.9838
まったく	-10.984
ッキ	-10.984
ボーナス	-10.9842
ster	-10.9848
暖	-10.9851
ことができない	-10.9851
撃破	-10.9854
比率	-10.9859
をもとに	-10.9861
アナログ	-10.9861
マネージャー	-10.9862
ようとした	-10.9862
を学ぶ	-10.9863
力士	-10.9866
格闘	-10.9868
PP	-10.9872
ネク	-10.9873
の子孫	-10.9876
に選ばれ	-10.9877
レイン	-10.988
ヘリコプター	-10.9881
伊豆	-10.9883
三浦	-10.9885
出演した	-10.9886
日現在	-10.9887
身分	-10.9888
酔	-10.9892
と改名	-10.9892
削除	-10.9893
将校	-10.9893
多様な	-10.9893
別れ	-10.9894
land	-10.9895
融	-10.9895
付与	-10.9897
出している	-10.9897
たん	-10.9901
炉	-10.9901
エンジニア	-10.9902
エンタテインメント	-10.9902
イエス	-10.9904
描かれ	-10.9904
準決勝	-10.9905
特集	-10.9906
を受け入れ	-10.9906
ジャイ	-10.9907
慎	-10.9909
yl	-10.9909
ran	-10.991
ゃ	-10.9912
と言える	-10.9912
和歌山県	-10.9913
訪れる	-10.9915
所得	-10.9916
施工	-10.9917
チップ	-10.9918
とは別に	-10.9919
受章	-10.9919
棋	-10.9922
金曜日	-10.9924
si	-10.9924
活性化	-10.9926
僅か	-10.9926
辞職	-10.9927
変わった	-10.9934
川町	-10.9935
マーシャル	-10.9935
補佐	-10.9937
であって	-10.9937
ッコ	-10.9937
Hi	-10.9937
メジャーデビュー	-10.9938
入院	-10.9941
後部	-10.9941
の記述	-10.9942
マイナー	-10.9942
肢	-10.9942
ディーゼル	-10.9942
俺	-10.9942
さくら	-10.9943
RT	-10.9944
mb	-10.9948
が起こる	-10.9948
に次いで	-10.9951
っていく	-10.9952
ジョーンズ	-10.9954
法第	-10.9956
ko	-10.9957
の総称	-10.9957
行っている	-10.996
ようとする	-10.996
楼	-10.9963
成田	-10.9963
胆	-10.9963
コーヒー	-10.9965
Un	-10.9966
三河	-10.9967
視聴率	-10.9968
個別	-10.9969
ick	-10.9969
十分な	-10.997
オオ	-10.997
境内	-10.9972
Mi	-10.9972
繊維	-10.9973
退社	-10.9974
緩和	-10.9976
艦艇	-10.9976
に到着した	-10.9976
FL	-10.9977
航行	-10.9984
セックス	-10.9987
などでは	-10.999
の基礎	-10.9991
継いで	-10.9993
皮膚	-10.9994
出され	-10.9995
ical	-10.9995
近年の	-10.9997
呼ばれ	-10.9999
全員が	-11
筆頭	-11.0003
LL	-11.0004
偶	-11.0004
】	-11.0004
金曜	-11.0005
上田	-11.0006
季節	-11.0006
実業家	-11.0008
会談	-11.0008
ric	-11.0009
期間は	-11.001
落とし	-11.0011
テオ	-11.0015
NTT	-11.0016
沿	-11.0016
バルト	-11.0019
発売した	-11.002
該当	-11.0021
返り	-11.0022
を起こした	-11.0025
かなかった	-11.0027
7%	-11.0028
の強い	-11.0029
くなった	-11.003
細川	-11.0031
マルク	-11.0031
リバー	-11.0033
改めて	-11.0034
【	-11.0035
重複	-11.0037
崩	-11.0037
位を記録	-11.0039
リッチ	-11.0043
北西部	-11.0045
シアター	-11.0051
番台	-11.0052
大公	-11.0053
ことなど	-11.0053
稼	-11.0054
IG	-11.0054
az	-11.0055
を多く	-11.0057
悩	-11.0057
CR	-11.0057
延期	-11.0059
を取って	-11.006
年連続	-11.0061
乙	-11.0062
駿	-11.0064
ダス	-11.0065
解任	-11.0065
純粋	-11.0066
を受賞した	-11.0069
sc	-11.007
する際に	-11.0071
順次	-11.0073
淀	-11.0076
がほとんど	-11.0077
に達する	-11.0077
ind	-11.0077
を主張し	-11.0078
理由は	-11.0079
主として	-11.0079
特別な	-11.008
ターボ	-11.0081
続いた	-11.0083
蓄	-11.0085
振動	-11.0086
宿泊	-11.0088
三角	-11.0088
馬場	-11.0088
まもなく	-11.0091
容易	-11.0092
わなかった	-11.0094
遊び	-11.0094
といわれている	-11.0095
五輪	-11.0096
奪三振	-11.0097
配慮	-11.0097
優秀	-11.01
を装備し	-11.0101
産地	-11.0101
対処	-11.0102
沿線	-11.0103
バリー	-11.0103
が非常に	-11.0106
くない	-11.0106
蹴	-11.0107
県内	-11.0108
戦った	-11.0111
非常	-11.0111
残っている	-11.0111
パーツ	-11.0113
ある程度	-11.0114
くらい	-11.0115
を維持し	-11.0115
候補者	-11.0116
篤	-11.0117
COM	-11.0117
衡	-11.0117
1902	-11.0118
ear	-11.0121
ないまま	-11.0122
音楽院	-11.0123
MT	-11.0124
藩士	-11.0125
東区	-11.0125
ショック	-11.0126
発売され	-11.0126
百貨店	-11.0128
棚	-11.0128
廊	-11.0128
匹	-11.0128
みち	-11.0128
再開発	-11.0131
でもあり	-11.0132
以下のように	-11.0133
自体が	-11.0135
WBC	-11.0136
診	-11.0137
径	-11.0141
変数	-11.0141
をベースに	-11.0141
所持	-11.0142
実用	-11.0144
残留	-11.0144
脚本家	-11.0147
が発表され	-11.015
併合	-11.0153
があるため	-11.0157
大日本	-11.0157
に代わって	-11.0158
の増加	-11.016
通路	-11.0162
実況	-11.0164
略称は	-11.017
に達し	-11.0171
延伸	-11.0171
▁FIFA	-11.0174
海水	-11.0174
リム	-11.0175
信用	-11.0176
たれ	-11.0177
ern	-11.0178
インディ	-11.0178
批評家	-11.0179
を使用している	-11.0181
ほとんどが	-11.0181
現存する	-11.0181
反映	-11.0182
アリス	-11.0182
細菌	-11.0183
気持ち	-11.0183
ぽ	-11.0183
の次男	-11.0186
コミックス	-11.0186
敗れ	-11.0189
演説	-11.019
ッパ	-11.019
仮面ライダー	-11.019
侵略	-11.0191
メトロ	-11.0193
講座	-11.0194
降下	-11.0195
スターズ	-11.0196
が用いられる	-11.0197
合衆国	-11.02
彫	-11.0201
観点から	-11.0201
を舞台に	-11.0202
織田	-11.0207
できるように	-11.0208
なっていった	-11.021
ヴィルヘルム	-11.0211
Japan	-11.0211
主任	-11.0213
近衛	-11.0215
を使用して	-11.0215
ピーク	-11.0216
回大会	-11.0216
ならびに	-11.0221
の際には	-11.0222
遡	-11.0222
プラットフォーム	-11.0222
治安	-11.0225
王立	-11.0226
組んだ	-11.0226
▁1984	-11.0227
ミナ	-11.0227
理学	-11.023
LIVE	-11.0234
いなかった	-11.0234
以前から	-11.0235
傘下の	-11.0237
2020	-11.0239
らす	-11.024
していなかった	-11.0243
標本	-11.0243
もん	-11.0245
断念	-11.0246
すけ	-11.0248
中川	-11.0252
用として	-11.0253
幼稚園	-11.0253
ぴ	-11.0253
157	-11.0256
現れ	-11.0259
電機	-11.0262
設けられ	-11.0263
野生	-11.0264
刑務所	-11.0264
初となる	-11.0265
▁まさ	-11.0266
プリンス	-11.0269
青森	-11.0269
回る	-11.027
沈没	-11.0273
同国	-11.0274
ah	-11.0274
全般	-11.0275
受け入れ	-11.0277
ウルトラ	-11.0278
に触れ	-11.0282
金額	-11.0283
リヤ	-11.0284
齢	-11.0285
捕手	-11.0285
図書	-11.0286
ドレス	-11.0287
に任命された	-11.0288
斎藤	-11.0289
これによって	-11.0289
それ以外の	-11.029
アミ	-11.029
介入	-11.0291
放棄	-11.0293
召	-11.0293
所領	-11.0294
シドニー	-11.0296
休日	-11.03
ロマ	-11.0302
動機	-11.0303
を見せた	-11.0303
水域	-11.0305
拡	-11.0305
ina	-11.0305
bi	-11.0306
商店街	-11.0307
を学んだ	-11.0307
是	-11.0317
シェア	-11.0318
夕方	-11.0321
が掲載され	-11.0322
扱う	-11.0322
▁Con	-11.0323
集会	-11.0323
尼	-11.0326
バット	-11.0326
烏	-11.0327
表紙	-11.0328
に向かった	-11.0329
ial	-11.0331
傍ら	-11.0335
シリ	-11.0335
己	-11.0335
殆ど	-11.0338
が生まれた	-11.0338
とは別	-11.0341
山形県	-11.0343
バルセロナ	-11.0348
東急	-11.0349
試合に出場	-11.0349
1903	-11.0349
楽章	-11.0351
▁1985	-11.0351
などにより	-11.0351
電動	-11.0353
ことはない	-11.0354
するとともに	-11.0354
チリ	-11.0358
福井	-11.0358
衆議院	-11.0358
があること	-11.0359
諏訪	-11.0359
鞍	-11.0359
汚染	-11.036
造船所	-11.0363
に任命され	-11.0365
修士	-11.0368
バウ	-11.0369
隈	-11.0369
缶	-11.037
マンション	-11.037
住居	-11.037
フジ	-11.0372
存在しない	-11.0373
従って	-11.0376
代表取締役	-11.0376
に貢献	-11.0376
省略	-11.0378
南極	-11.0379
予約	-11.0379
貢	-11.038
戦時	-11.038
恭	-11.038
嶺	-11.038
綴	-11.038
偶然	-11.0381
イチ	-11.0385
建築物	-11.0386
ことが多く	-11.0387
胤	-11.0391
妨害	-11.0391
騎乗	-11.0393
と考えた	-11.0394
変わって	-11.0395
住友	-11.0395
民衆	-11.0396
ner	-11.0397
port	-11.0398
爆撃機	-11.04
無限	-11.0401
マドリード	-11.0402
掲げ	-11.0404
元々は	-11.0404
amp	-11.0404
評判	-11.0405
と主張した	-11.0405
アキ	-11.0407
名誉教授	-11.0408
を作った	-11.0408
させている	-11.0412
劇場版	-11.0413
ポリス	-11.0414
と思い	-11.0414
ほん	-11.0415
が含まれる	-11.0416
ite	-11.0417
が必要である	-11.0418
木造	-11.0418
講義	-11.0422
共産主義	-11.0423
一時的に	-11.0424
ウラ	-11.0426
0.0	-11.0429
9%	-11.0432
を追加	-11.0433
掌	-11.0433
スタンド	-11.0434
喫	-11.0434
最古の	-11.0435
しかない	-11.0435
マップ	-11.0437
しかった	-11.0438
符号	-11.044
次のような	-11.0441
を求めて	-11.0443
に従い	-11.0443
原則として	-11.0444
ガソリン	-11.0444
イスラーム	-11.0445
権威	-11.0448
北区	-11.0448
迎え	-11.0449
当然	-11.045
徴	-11.0451
目撃	-11.0455
大聖堂	-11.0456
秀吉	-11.0466
ニエ	-11.0466
おこ	-11.0466
三島	-11.0472
とみなされ	-11.0472
が完成し	-11.0475
触れ	-11.0476
心理	-11.0477
一時期	-11.048
ガム	-11.0483
同名の	-11.0483
ローマ帝国	-11.0484
ちゅうがっこう	-11.0488
焼失	-11.0489
」・「	-11.049
トウ	-11.049
しろ	-11.0491
ana	-11.0492
進んで	-11.0494
を開設	-11.0494
瀬戸	-11.0495
町内	-11.0496
述べた	-11.0496
ish	-11.0497
ニール	-11.0497
を設立し	-11.0498
慰	-11.0499
ヴィチ	-11.0499
グラウンド	-11.05
トマス	-11.05
客車	-11.05
リッツ	-11.0502
豊田	-11.0503
乗員	-11.0508
描かれている	-11.051
往	-11.0517
ハルト	-11.0519
もう一	-11.052
種子	-11.0521
1500	-11.0523
かけて	-11.0525
ath	-11.0529
に続く	-11.0529
リゾート	-11.0531
という名前	-11.0532
都市計画	-11.0533
ev	-11.054
海域	-11.0541
遼	-11.0542
忌	-11.0542
覧	-11.0542
ぱ	-11.0544
要望	-11.0546
もっと	-11.0546
0,0	-11.0549
パイプ	-11.0549
監督に就任	-11.0551
を追い	-11.0551
膝	-11.0552
に改名	-11.0556
年以降は	-11.0556
ワール	-11.0557
シード	-11.0557
重力	-11.0558
挑	-11.0559
1901	-11.0559
オラ	-11.056
トゥル	-11.0562
月下旬	-11.0563
石井	-11.0563
愛知	-11.0563
を経由して	-11.0565
ロッテ	-11.0566
正しい	-11.0566
株主	-11.0566
手続き	-11.0567
ハーフ	-11.057
使われていた	-11.057
を考える	-11.057
力学	-11.0571
芸名	-11.0575
白色	-11.0577
候	-11.0579
ることになる	-11.0579
薬物	-11.0579
トリオ	-11.0583
教養	-11.0584
周囲の	-11.0584
宛	-11.0585
とても	-11.0585
認められる	-11.0587
長女	-11.0588
同士の	-11.0589
行使	-11.059
浜松	-11.0594
キャプテン	-11.0596
描いた	-11.0597
均	-11.0602
単独で	-11.0603
小屋	-11.0603
記した	-11.0604
と呼び	-11.0606
を表明した	-11.0607
メラ	-11.0607
セブン	-11.061
同僚	-11.0612
発注	-11.0612
人材	-11.0613
IX	-11.0615
を集めた	-11.0615
コント	-11.0615
二郎	-11.0617
ループ	-11.0617
瓶	-11.0617
ood	-11.062
関わっ	-11.0622
横浜市	-11.0622
水曜	-11.0623
2%	-11.0624
下記	-11.0624
の政治家	-11.0626
グレート	-11.0626
年頃に	-11.0627
史跡	-11.0627
ハリウッド	-11.0629
香川県	-11.0629
ヴィア	-11.0631
を迎える	-11.0631
LP	-11.0632
っか	-11.0635
Dr	-11.0636
揺	-11.0636
鍋	-11.0639
Sh	-11.0639
顕著	-11.064
USS	-11.0643
この他	-11.0646
退役	-11.065
奪取	-11.0653
行なわれ	-11.0654
内にある	-11.0655
性的	-11.0658
を探し	-11.0658
行い	-11.066
tra	-11.066
にあって	-11.0661
返し	-11.0663
ストップ	-11.0664
鈴	-11.0665
代数	-11.0667
を考慮し	-11.0668
新作	-11.0669
に出場した	-11.067
臼	-11.0672
正確な	-11.0673
北東部	-11.0674
招集	-11.0674
町立	-11.0676
科学者	-11.0677
徒歩	-11.0678
ィー	-11.0679
付く	-11.0679
監査	-11.0683
芦	-11.0683
ポケモン	-11.0683
博多	-11.0683
本項では	-11.0683
ミック	-11.0684
が実施され	-11.0688
が続いた	-11.069
ラマ	-11.0691
決定戦	-11.0692
シーズン終了後	-11.0693
靖	-11.0694
を目的として	-11.0695
を訴え	-11.0696
有名である	-11.0696
168	-11.0698
アリーナ	-11.0699
を知った	-11.07
キリスト	-11.0703
ってしまう	-11.0703
につき	-11.0704
準々決勝	-11.0704
廠	-11.0705
燕	-11.0706
鎌倉時代	-11.071
本店	-11.0712
に出演した	-11.0714
ust	-11.0717
あさ	-11.0721
おらず	-11.0721
おん	-11.0721
中継局	-11.0728
基本的には	-11.0728
ture	-11.0732
マスク	-11.0734
進め	-11.0735
熊野	-11.0738
歌舞伎	-11.0738
スポット	-11.0738
冷却	-11.0739
えば	-11.074
ムシ	-11.0741
大尉	-11.0742
大変	-11.0748
坪	-11.0749
どり	-11.0749
貼	-11.0749
ヴォー	-11.0753
mer	-11.0755
を支持し	-11.0764
テーブル	-11.0766
オレ	-11.0766
FIFA	-11.0767
を開始する	-11.0767
困	-11.077
ロビン	-11.0771
恐怖	-11.0772
1899	-11.0774
ice	-11.0775
短期間	-11.0776
で構成される	-11.0778
を構え	-11.0779
在任	-11.0788
-18	-11.0789
東大	-11.079
ないもの	-11.0791
抑	-11.0792
対称	-11.0793
ホイ	-11.0793
各社	-11.0793
学博士	-11.0793
学び	-11.0794
朴	-11.0794
シンボル	-11.0798
砲塔	-11.0799
ABC	-11.08
▁Le	-11.0802
ることなく	-11.0803
アーケード	-11.0805
壮	-11.0805
▁1983	-11.0805
障害者	-11.0806
下ろし	-11.0806
大学法学部	-11.0806
山下	-11.0807
並べ	-11.0808
坂本	-11.0809
が少なく	-11.0809
佐賀	-11.0809
は存在しない	-11.081
過程で	-11.081
仰	-11.0812
net	-11.0813
裸	-11.0816
壊滅	-11.0817
債	-11.0821
▁–	-11.0822
朝日新聞	-11.0825
盛岡	-11.0825
Le	-11.0827
編集者	-11.0829
こととなる	-11.0829
体育館	-11.0831
そうした	-11.0831
水平	-11.0833
西方	-11.0834
被災	-11.0839
の人口は	-11.0843
どれ	-11.0843
じる	-11.0845
人事	-11.0847
出される	-11.0848
隙	-11.0849
にも関わらず	-11.0849
ボルト	-11.0849
rt	-11.0851
期限	-11.0853
小松	-11.0856
職人	-11.0856
加賀	-11.0857
ベア	-11.0859
撮影所	-11.086
とりわけ	-11.0861
しげ	-11.0862
Com	-11.0864
を記念して	-11.0865
込まれた	-11.0868
増加した	-11.0869
フィラデルフィア	-11.0872
斑	-11.0872
推測	-11.0872
代表取締役社長	-11.0873
景観	-11.0876
に移籍した	-11.0878
強度	-11.0882
全部	-11.0884
享保	-11.0884
パーティー	-11.0885
帰り	-11.0886
の多くが	-11.0886
天井	-11.0887
揃	-11.0891
ナッ	-11.0893
毎回	-11.0893
死後	-11.0895
怪獣	-11.0895
没した	-11.0896
不詳	-11.0896
虐殺	-11.0897
することが可能	-11.0898
ことも多い	-11.0901
策定	-11.0902
スクリーン	-11.0905
接続する	-11.0913
特異	-11.0917
日をもって	-11.092
されておらず	-11.0925
鷲	-11.0928
拾	-11.0928
を広げ	-11.0928
脅威	-11.0928
保障	-11.0928
MB	-11.0931
違法	-11.0932
血液型は	-11.0937
sch	-11.0938
ound	-11.0939
かかった	-11.0941
尉	-11.0943
付けて	-11.0944
隠れ	-11.0945
埋葬	-11.0947
発症	-11.0949
を訪れた	-11.095
据え	-11.0951
道場	-11.0952
宮城	-11.0952
認められた	-11.0952
商標	-11.0952
重視	-11.0956
芸術家	-11.0956
線の駅である	-11.0957
延び	-11.0958
作画	-11.0958
が存在した	-11.0959
を演じた	-11.096
リッジ	-11.096
迎えた	-11.096
磐	-11.096
第二次世界大戦後	-11.0962
ヨハネ	-11.0962
レスリング	-11.0963
国立公園	-11.0967
ブライアン	-11.0967
キハ	-11.0969
併用	-11.097
数百	-11.0972
ダニエル	-11.0973
看板	-11.0974
ぞう	-11.0975
ニューヨーク州	-11.0977
不安定	-11.0979
鴨	-11.0984
撃墜	-11.0984
同行	-11.0985
利用される	-11.0987
ゴス	-11.0987
海賊	-11.0988
であったこと	-11.0992
支払い	-11.0992
正教会	-11.0994
拘	-11.0994
称号	-11.0995
窮	-11.0995
正義	-11.0997
ニコラ	-11.0997
日米	-11.0998
囲まれ	-11.0999
グラー	-11.0999
日本における	-11.1
充実	-11.1002
レナ	-11.1003
女神	-11.1003
ことが発表された	-11.1005
メアリー	-11.1008
概ね	-11.1008
火曜	-11.1008
移管	-11.1009
されることもある	-11.1009
その名	-11.1009
ものではない	-11.1011
TD	-11.1011
博士課程	-11.1011
復元	-11.1013
を意味し	-11.1014
鹿島	-11.1014
臓	-11.1016
奴	-11.1018
駄	-11.1018
考古学	-11.102
踊	-11.102
フォース	-11.1021
を立ち上げ	-11.1023
UFC	-11.1023
新設された	-11.1025
がなされた	-11.1026
づくり	-11.1028
小田原	-11.1029
靴	-11.1029
稼働	-11.103
土佐	-11.1032
開局	-11.1032
総長	-11.1035
サーバ	-11.1036
伝達	-11.1037
を発見した	-11.104
不振	-11.1041
定められた	-11.1042
感謝	-11.1042
カトリック教会	-11.1044
明確に	-11.1044
この事件	-11.1044
中央区	-11.1045
ロープ	-11.1045
を決める	-11.1046
適切な	-11.1046
設立した	-11.1047
ach	-11.105
短く	-11.1051
○○	-11.1053
ニューヨーク市	-11.1053
農村	-11.1054
早期	-11.1055
バク	-11.1055
前提	-11.1056
貴族院	-11.106
ってしまった	-11.1061
切った	-11.1061
土木	-11.1063
叫	-11.1064
顎	-11.1064
鶏	-11.1064
フォール	-11.1065
をかけて	-11.1067
UM	-11.1068
飾り	-11.1068
大いに	-11.1073
モバイル	-11.1075
コミューン	-11.1075
統括	-11.1077
HP	-11.1078
取り組み	-11.1079
GB	-11.1079
残されている	-11.108
市役所	-11.1081
立体	-11.1083
欄	-11.1087
ゲージ	-11.1087
マスコミ	-11.1087
臨床	-11.1089
大ヒット	-11.109
ya	-11.109
制約	-11.1091
もらう	-11.1091
果実	-11.1093
だけではなく	-11.1094
ピンク	-11.1096
1896	-11.1097
自分たち	-11.1101
高校時代	-11.1103
不能	-11.1104
締め	-11.1105
マリオ	-11.1107
牧場	-11.1108
埼玉	-11.1108
書かれている	-11.1108
広報	-11.1109
dy	-11.1111
二軍	-11.1113
カントリー	-11.1113
トゥス	-11.1116
ウィリアムズ	-11.1122
エム	-11.1124
新聞社	-11.1124
放送される	-11.1127
テキサス	-11.1127
1897	-11.1128
学校法人	-11.113
販売されている	-11.1132
のなかで	-11.1133
天使	-11.1134
去った	-11.1134
福井県	-11.1135
次いで	-11.114
HC	-11.1142
東日本大震災	-11.1144
たけ	-11.1145
熱心	-11.1151
していたこと	-11.1154
やかな	-11.1154
楠	-11.1155
引き継がれ	-11.1156
平行	-11.1156
チャンピオンシップ	-11.1156
紋章	-11.1158
少佐	-11.1161
を行って	-11.1161
飲み	-11.1161
くま	-11.1163
オイル	-11.1165
牧師	-11.1166
青春	-11.1168
東芝	-11.1169
コリン	-11.1169
切る	-11.1169
死ぬ	-11.1173
電化	-11.1174
デビューした	-11.1175
電圧	-11.1177
橘	-11.1178
シュタット	-11.1179
凝	-11.1179
決して	-11.1179
殺された	-11.1179
本町	-11.1181
タウ	-11.1185
無効	-11.1185
tro	-11.1186
教区	-11.1186
位を獲得	-11.1186
1898	-11.1187
シングルス	-11.1187
量子	-11.1187
舞い	-11.1188
現状	-11.1188
弱い	-11.1189
仕組み	-11.1191
中学生	-11.1193
チャンス	-11.1194
登記	-11.12
呼びかけ	-11.12
医薬品	-11.1202
推移	-11.1205
めい	-11.1207
大きさ	-11.1209
されることになった	-11.121
を設立した	-11.1212
隣接	-11.1213
を取得した	-11.1213
餌	-11.1213
土壌	-11.1214
ake	-11.1214
揚げ	-11.1214
技能	-11.1215
に就任し	-11.1215
内陸	-11.1215
GS	-11.1216
ワース	-11.1216
チェック	-11.1218
単一	-11.1219
に位置している	-11.1221
が開発した	-11.1223
と称する	-11.1223
暗号	-11.1227
得る	-11.1229
が運営する	-11.123
飯田	-11.1231
を喫し	-11.1231
尽く	-11.1231
YA	-11.1233
野菜	-11.1233
を目指して	-11.1235
調理	-11.1236
棲	-11.1236
囚	-11.1236
曖昧さ回避	-11.1237
法令	-11.1237
検証	-11.1238
磁気	-11.124
ことが明らか	-11.1241
反射	-11.1245
ラート	-11.1246
鎮圧	-11.1251
を執筆	-11.1251
同作	-11.1254
ッスル	-11.1254
ave	-11.1255
消費者	-11.1257
スケート	-11.126
汁	-11.126
損失	-11.1261
人口約	-11.1263
民主主義	-11.1263
ライヴ	-11.1264
デュー	-11.1265
透	-11.1267
レーザー	-11.1268
知られた	-11.1268
ame	-11.127
初戦	-11.127
出生	-11.127
狭い	-11.1271
プロテスタント	-11.1271
が出た	-11.1273
年連続で	-11.1277
づく	-11.1278
その時	-11.128
具体的な	-11.128
渋	-11.128
セス	-11.1281
表彰	-11.1282
▁He	-11.1283
日本でも	-11.1283
福岡市	-11.1283
ライアン	-11.1284
五十	-11.1285
ヨーク	-11.1286
トップチーム	-11.1286
1871	-11.1288
を押し	-11.129
今まで	-11.1292
捜索	-11.1295
レオン	-11.1297
南米	-11.1298
に出場し	-11.1299
説明する	-11.1302
役割を果たし	-11.1303
ひら	-11.1304
航空隊	-11.1305
近世	-11.1305
ピエール	-11.1307
ガーデン	-11.1307
ara	-11.1307
PV	-11.1308
釈	-11.1308
として生まれた	-11.1309
形成された	-11.1312
年時点で	-11.1313
を備えた	-11.1314
んでおり	-11.1317
外国語	-11.1317
帆	-11.1318
妊娠	-11.1318
呼吸	-11.1318
釈放	-11.1319
起訴	-11.1319
159	-11.132
垂直	-11.1321
就役	-11.1326
ik	-11.1328
は既に	-11.1329
フュー	-11.133
神殿	-11.1331
あわせて	-11.1332
完結	-11.1333
ことが判明し	-11.1333
てくれる	-11.1333
データベース	-11.1333
次男	-11.1336
mon	-11.1337
柴	-11.134
安全保障	-11.1342
と考える	-11.1344
ハンド	-11.1348
珍	-11.1351
ふじ	-11.1352
マレーシア	-11.1354
付けられ	-11.1354
信長	-11.1355
選手団	-11.136
帰国後	-11.1361
_2	-11.1362
ディーン	-11.1362
学士	-11.1364
▁以下は	-11.1366
カレ	-11.1368
るまで	-11.1369
バイク	-11.137
ence	-11.1371
が出る	-11.1371
採用されている	-11.1373
促	-11.1373
煮	-11.1377
駆逐隊	-11.1378
所長	-11.1378
土曜日	-11.1379
ぐん	-11.138
浅草	-11.1381
電流	-11.1382
さわ	-11.1385
カメ	-11.1387
ウェールズ	-11.1389
南西部	-11.1389
交わ	-11.1391
を建て	-11.1392
すべく	-11.1392
専属	-11.1393
を命じ	-11.1394
ロジャー	-11.1395
アーサー	-11.1396
英語で	-11.1396
海底	-11.1399
他社	-11.14
コンクリート	-11.14
拘束	-11.14
嘆	-11.14
かつて存在した	-11.1402
最高位	-11.1402
食い	-11.1404
に掲載された	-11.1404
県にある	-11.1405
準決勝で	-11.1411
窓口	-11.1411
サンダー	-11.1411
スーツ	-11.1413
が起こり	-11.1413
千人	-11.1414
予防	-11.1415
日本海	-11.1421
TT	-11.1422
これに対して	-11.1422
キリ	-11.1424
適応	-11.1428
タケ	-11.1429
du	-11.143
回答	-11.143
af	-11.1434
に出る	-11.1435
終わった	-11.1435
老朽化	-11.1436
区にある	-11.1437
安政	-11.1438
新しく	-11.1441
ペース	-11.1444
要件	-11.1445
幡	-11.1446
晶	-11.1446
得票	-11.1447
ium	-11.1447
気圧	-11.1453
から構成され	-11.1457
pa	-11.1457
返す	-11.1458
ユーゴスラビア	-11.1459
成功を収め	-11.1459
β	-11.146
lan	-11.146
安倍	-11.1461
度々	-11.1462
ジング	-11.1463
甲府	-11.1464
訪	-11.1466
全身	-11.1468
長岡	-11.147
が施され	-11.147
大使館	-11.1475
を唱え	-11.1477
子孫	-11.1479
ダメージ	-11.1483
併せて	-11.1483
不良	-11.1486
編集長	-11.1487
クラン	-11.1487
仙台市	-11.1489
する際	-11.1496
歳から	-11.1497
野田	-11.1501
したもので	-11.1501
函数	-11.1502
られなかった	-11.1502
を提供し	-11.1502
概	-11.1504
クーデター	-11.1507
立法	-11.1507
撃沈	-11.1508
0.5	-11.1509
シカ	-11.1509
記す	-11.151
二丁目	-11.1512
国民党	-11.1512
救出	-11.1512
黒田	-11.1514
rp	-11.1516
ボブ	-11.1516
学科卒業	-11.1517
中盤	-11.1518
並み	-11.1523
がなされ	-11.1529
そのほか	-11.153
たびたび	-11.1531
ヵ	-11.1531
尾張	-11.1535
ray	-11.1537
も見られる	-11.1537
スペイン語	-11.1538
浦和	-11.1538
半ば	-11.154
に続いて	-11.1541
縛	-11.1543
銅メダル	-11.1544
除去	-11.1545
頂点	-11.1545
で敗れ	-11.1549
大谷	-11.1549
が入る	-11.1553
コイ	-11.1554
生態	-11.1555
輩出	-11.1561
人以上	-11.1562
路線バス	-11.1563
チェンジ	-11.1564
微分	-11.1566
奨励	-11.1567
崖	-11.1567
テキスト	-11.1567
本格	-11.1567
次官	-11.1569
1868	-11.1575
墳	-11.1576
ショット	-11.1577
近藤	-11.1578
落下	-11.1578
チャイ	-11.1578
以内に	-11.1578
讃	-11.1578
JAPAN	-11.1579
流用	-11.1579
狼	-11.1579
が収録されている	-11.1579
就航	-11.158
のほかに	-11.1581
内蔵	-11.1585
優勝を果たした	-11.1586
を採用している	-11.1587
話す	-11.1589
疎	-11.1589
再放送	-11.159
鞭	-11.1591
階建て	-11.1591
然と	-11.1592
札幌市	-11.1593
じょ	-11.1593
を送る	-11.1595
方面へ	-11.1595
が搭載され	-11.1595
クイーン	-11.1598
ッサー	-11.1598
都心	-11.1598
曾	-11.1603
注釈	-11.1603
募	-11.1605
UC	-11.1607
ジル	-11.1607
でありながら	-11.1609
に専念	-11.1615
CG	-11.1619
住所	-11.1619
姫路	-11.162
失敗した	-11.162
を建設し	-11.1624
学長	-11.1625
嫡	-11.1625
きり	-11.1625
CPU	-11.1627
貧困	-11.1627
貨幣	-11.1627
空手	-11.1627
皇太子	-11.1628
が残っている	-11.163
までの間	-11.1631
日の対	-11.1632
曜	-11.1633
演算	-11.1636
逮捕された	-11.1638
検定	-11.164
cl	-11.164
第二次世界大戦中	-11.1641
引っ	-11.1645
ISO	-11.1645
河原	-11.1648
代行	-11.1649
職務	-11.165
兵力	-11.165
売れ	-11.1655
らと共に	-11.1656
ダーク	-11.1658
のもとに	-11.1662
ザクセン	-11.1663
謝罪	-11.1664
に登場した	-11.1665
を失い	-11.1666
ペルシア	-11.1666
野党	-11.1666
出口	-11.1677
一般県道	-11.1678
慶応	-11.168
バス停	-11.1685
近代化	-11.1686
遭	-11.1687
藤田	-11.1687
を流れる	-11.1687
に任ぜられ	-11.1687
槍	-11.1687
豊かな	-11.1691
セガ	-11.1693
ドイツ人	-11.1694
付けられている	-11.1697
見方	-11.1704
▁Bo	-11.1704
ッテ	-11.1706
砲兵	-11.1709
カーブ	-11.171
Go	-11.1712
債務	-11.1713
以内	-11.1713
広がり	-11.1713
突破	-11.1715
強調	-11.1715
シフト	-11.1715
その場	-11.1717
テキサス州	-11.1718
まっていた	-11.1718
これも	-11.1718
ラーズ	-11.1719
1880	-11.172
1895	-11.1723
満足	-11.1723
ヴェネツィア	-11.1724
わった	-11.1725
南東部	-11.1725
透明	-11.1728
に指定された	-11.1732
に似た	-11.1733
を継承し	-11.1735
盆地	-11.1736
が起こった	-11.1736
ニウム	-11.1738
に追い	-11.1742
番人気	-11.1743
アメリカでは	-11.1745
BGM	-11.1746
関節	-11.175
1,2	-11.1751
に戻って	-11.1756
Ma	-11.1758
評議会	-11.1759
キム	-11.176
ier	-11.1763
ハンター	-11.1765
習慣	-11.1774
にほん	-11.1775
永禄	-11.1775
瞬間	-11.1776
も参照	-11.1776
求められる	-11.1777
対空	-11.1777
フスキー	-11.1779
q	-11.1783
二つ	-11.1783
合流する	-11.1785
これに対し	-11.1785
種牡馬	-11.1785
貌	-11.1785
柔	-11.1787
十三	-11.1787
発動	-11.1788
ケア	-11.179
残された	-11.1794
ラック	-11.1795
不思議	-11.1797
診療	-11.1798
右翼	-11.1799
結果的に	-11.1801
own	-11.1801
ven	-11.1802
謝	-11.1804
に興味	-11.1804
マイン	-11.1805
付加	-11.1808
を続ける	-11.1809
に迎え	-11.1809
ーニャ	-11.1811
芝居	-11.1812
いつも	-11.1817
経営者	-11.1819
電磁	-11.1821
交響楽団	-11.1822
ギタリスト	-11.1822
改訂	-11.1822
すぎる	-11.1824
北条	-11.1825
つもり	-11.1827
ビーム	-11.1827
法務	-11.183
出店	-11.183
bu	-11.183
下位	-11.1834
唄	-11.1834
喪失	-11.1835
の基礎自治体	-11.1836
に含まれ	-11.1839
1884	-11.184
と発表した	-11.1843
声明	-11.1843
畳	-11.1846
そば	-11.1846
ü	-11.1847
を挟んで	-11.1847
コンテナ	-11.1847
ION	-11.1848
商店	-11.1849
先進	-11.1849
取り付け	-11.1851
万石	-11.1852
運命	-11.1854
視聴	-11.1854
厚生	-11.1856
国際連合	-11.1857
活性	-11.1857
この時点で	-11.1858
望遠鏡	-11.1859
頑	-11.1859
を目的とした	-11.186
庶民	-11.1861
作風	-11.1861
で敗れた	-11.1863
繰り返し	-11.1864
アサ	-11.1864
などを歴任	-11.1864
川沿い	-11.1865
通学	-11.1869
実質的に	-11.1869
になってから	-11.187
アシスト	-11.1871
\	-11.1871
スマートフォン	-11.1872
所有者	-11.1873
テール	-11.1874
ツァー	-11.1875
に転じ	-11.1877
失われ	-11.1882
大統領選挙	-11.1882
親交	-11.1882
を披露し	-11.1882
定めた	-11.1882
三重	-11.1883
錬	-11.1883
もちろん	-11.1884
阻害	-11.1884
血管	-11.1884
ウエスト	-11.1886
Ju	-11.1889
らん	-11.1891
日本映画	-11.1893
番地	-11.1895
読む	-11.1895
槻	-11.1896
砂漠	-11.1896
小笠原	-11.1896
á	-11.1896
利用されている	-11.1897
und	-11.1897
yn	-11.19
初優勝	-11.19
天文台	-11.19
1870	-11.1903
することにより	-11.1903
流入	-11.1904
呼ぶ	-11.1905
東海道	-11.1907
ミラノ	-11.1909
郡内	-11.1909
に由来し	-11.191
患	-11.1911
を表し	-11.1912
act	-11.1912
立てた	-11.1912
視覚	-11.1914
ブライ	-11.1919
配下	-11.192
骸	-11.1921
市販	-11.1921
晃	-11.1921
ドライ	-11.1922
労働組合	-11.1923
投与	-11.1924
法廷	-11.1924
安価	-11.1924
マーケット	-11.1925
ソウ	-11.193
my	-11.1931
なのか	-11.1935
ていたこと	-11.1935
sk	-11.1937
家康	-11.1939
反撃	-11.1939
門下	-11.194
うまく	-11.1941
州都	-11.1941
和歌山	-11.1943
ny	-11.1943
をとった	-11.1944
革新	-11.1945
民営化	-11.1946
アントニオ	-11.1946
遭遇	-11.1946
豚	-11.1946
IBM	-11.1946
携帯	-11.1946
予告	-11.1947
源氏	-11.1947
疑い	-11.195
を置き	-11.195
ys	-11.1951
死体	-11.1952
語っている	-11.1952
木材	-11.1953
位相	-11.1954
出身者	-11.1955
遍	-11.1958
隠居	-11.1962
思い出	-11.1962
創業者	-11.1963
後藤	-11.1963
外見	-11.1966
っこ	-11.1966
に立つ	-11.1967
ソビエト	-11.1968
コロン	-11.1968
を歴任した	-11.1968
クリスティ	-11.1969
凡	-11.1971
圭	-11.1971
-16	-11.1973
和歌	-11.1973
元素	-11.1978
大学卒業後	-11.1979
世紀から	-11.1981
正確に	-11.1982
紛	-11.1983
閲覧	-11.1983
と比べて	-11.1984
歌謡	-11.1984
リョ	-11.1985
遺伝	-11.1986
正体	-11.1988
還元	-11.1992
捧げ	-11.1996
潰	-11.1996
胎	-11.1996
リアス	-11.1997
二十	-11.1997
警告	-11.1997
エミ	-11.1997
歌い	-11.1997
葬儀	-11.2002
ae	-11.2002
に努め	-11.2006
開始された	-11.2006
を生かし	-11.2007
牝馬	-11.2009
広大な	-11.2009
を担う	-11.2009
うえで	-11.201
ザル	-11.201
Ti	-11.2012
犠牲	-11.2012
パーセント	-11.2013
航空会社	-11.2014
ジェフ	-11.2016
徳川家	-11.2017
を獲得する	-11.2017
連合会	-11.2017
リレー	-11.2018
World	-11.2021
討伐	-11.2021
仮名	-11.2022
神田	-11.2022
含む	-11.2023
アイヌ	-11.2025
続けて	-11.2028
れい	-11.2028
いっ	-11.203
親子	-11.203
繁栄	-11.2035
夏季	-11.2036
肉体	-11.2036
に着手	-11.204
高知	-11.2041
することによって	-11.2044
ベンチ	-11.2047
チェス	-11.205
まつり	-11.2052
競合	-11.2054
とする説	-11.2055
舌	-11.2059
判事	-11.206
この試合	-11.2061
基金	-11.2062
ita	-11.2062
殖	-11.2064
どちらも	-11.2064
打席	-11.2067
カ国	-11.2067
AFC	-11.2069
実家	-11.207
中学校に通う場合	-11.2072
学部卒業	-11.2073
体操	-11.2076
組み込まれ	-11.2076
を収録した	-11.2076
スパー	-11.2078
ata	-11.2079
位置づけ	-11.2079
が成立した	-11.2079
メカ	-11.208
審議	-11.2082
IDE	-11.2083
My	-11.2087
使者	-11.2087
を加え	-11.2088
されてしまう	-11.2089
らせる	-11.209
ものだ	-11.2091
同校	-11.2095
米ドル	-11.2096
詠	-11.2096
藍	-11.2096
マウント	-11.2096
矛盾	-11.2097
どんな	-11.2099
と思われ	-11.21
フェイス	-11.2101
傾斜	-11.2102
らせた	-11.2104
理事会	-11.2105
陸奥	-11.2105
サンデー	-11.2106
三木	-11.2108
3-0	-11.2108
ことによる	-11.211
水中	-11.211
和解	-11.2111
があって	-11.2112
異なっている	-11.2114
集まり	-11.2116
倶楽部	-11.2122
Jo	-11.2122
表示される	-11.2122
フェイ	-11.2123
捕獲	-11.2123
AND	-11.2125
クラーク	-11.2125
弾薬	-11.2125
っぱ	-11.2126
小学生	-11.2126
ツイン	-11.2128
1872	-11.2128
に終わり	-11.2129
タキ	-11.2132
廻	-11.2135
得られ	-11.2139
最終回	-11.2139
馬力	-11.2139
ビジョン	-11.214
県立	-11.2141
敵対	-11.2141
old	-11.2143
フェルト	-11.2144
トール	-11.2144
この年は	-11.2145
家老	-11.2145
明石	-11.2145
ステル	-11.2147
語源	-11.2147
浮上	-11.2147
過剰	-11.2148
続いている	-11.215
朝日放送	-11.2153
ピッ	-11.2153
アドレス	-11.2154
ger	-11.2156
Wi	-11.2158
言われ	-11.2165
南軍	-11.2165
わかる	-11.2167
異なり	-11.2168
ブルック	-11.2169
エウ	-11.2171
が形成され	-11.2172
Vol	-11.2172
遠く	-11.2173
ハウゼン	-11.2173
パウロ	-11.2174
と比較して	-11.2174
封じ	-11.2178
国産	-11.2178
隠し	-11.2179
アンナ	-11.218
ook	-11.2182
れず	-11.2182
He	-11.2183
笹	-11.2185
湧	-11.2186
最後まで	-11.2186
ax	-11.2186
先住民	-11.2186
ッシング	-11.2187
造り	-11.2188
アンダー	-11.2189
と呼称	-11.219
不要	-11.2192
ウルトラマン	-11.2194
を制し	-11.2195
せき	-11.2197
らぬ	-11.2197
テック	-11.2198
條	-11.2198
正式名称	-11.2199
ファイター	-11.2199
が描かれている	-11.22
皇子	-11.2201
この際	-11.2202
胴体	-11.2202
Br	-11.2206
作曲した	-11.2206
のひとつである	-11.2208
歳のとき	-11.2211
無理	-11.2211
儒	-11.2211
John	-11.2211
領地	-11.2213
OW	-11.2214
老人	-11.2219
ワークス	-11.222
マニア	-11.2221
大井	-11.2222
演習	-11.2223
信者	-11.2223
宴	-11.2224
日現在の世帯数と人口	-11.2224
銀メダル	-11.2225
増強	-11.2226
自由民主党	-11.2229
BR	-11.2229
旋	-11.223
爵位	-11.2231
gu	-11.2232
再会	-11.2232
ade	-11.2233
ウィー	-11.2234
個々の	-11.2235
スキル	-11.2236
と思って	-11.2236
照明	-11.2236
なくても	-11.2237
を残す	-11.2239
ケープ	-11.2241
北軍	-11.2241
表明	-11.2242
que	-11.2242
ser	-11.2245
認証	-11.2246
att	-11.2246
開催されている	-11.2246
じゅ	-11.2248
胃	-11.2249
ユニバーサル	-11.225
記載されている	-11.225
燃焼	-11.225
栄え	-11.2251
骨折	-11.2252
それ以降	-11.2252
ユニオン	-11.2253
2.0	-11.2255
技師	-11.2256
リトル	-11.2257
場合が多い	-11.2259
福田	-11.226
癒	-11.2262
究	-11.2262
個性	-11.2264
マンガ	-11.2265
憧れ	-11.2267
ont	-11.2267
ゅ	-11.2269
TER	-11.2269
Ne	-11.227
と見なされ	-11.2272
注目を集め	-11.2273
を派遣し	-11.2274
セカンド	-11.2275
角度	-11.2277
文学部	-11.2278
アーズ	-11.228
契約を結んだ	-11.228
母音	-11.228
NET	-11.2283
クリーム	-11.2285
利用可能	-11.2286
ウェン	-11.2289
しまい	-11.229
されていなかった	-11.2293
陣営	-11.2295
分かれ	-11.2299
アンテナ	-11.2301
潔	-11.2301
を図った	-11.2302
oll	-11.2305
情勢	-11.2306
荷物	-11.2306
研究員	-11.231
に乗って	-11.2311
倭	-11.2314
把握	-11.2314
SHI	-11.2315
噴火	-11.2316
号車	-11.2319
が決定した	-11.232
日本の元	-11.2322
と思う	-11.2322
天神	-11.2323
転用	-11.2323
十両	-11.2323
日本国内で	-11.2324
ワンマン	-11.2327
協同組合	-11.2327
プログラミング	-11.2327
詳しく	-11.2327
貸し	-11.2334
西ドイツ	-11.2334
徐	-11.2335
党首	-11.2336
カップリング	-11.2338
ない場合	-11.2338
鄭	-11.234
室町時代	-11.234
推奨	-11.234
ost	-11.234
スティック	-11.2343
ini	-11.2343
も行っている	-11.2348
に移った	-11.2351
台北	-11.2352
制定された	-11.2352
採択	-11.2353
敢	-11.2353
財団法人	-11.2353
未だ	-11.2354
摂取	-11.2354
3,000	-11.236
映画祭	-11.2362
品川	-11.2363
麓	-11.2364
国土交通省	-11.2366
ベッド	-11.2366
取扱	-11.2366
ドッグ	-11.2366
棋士	-11.2367
特撮	-11.2367
Me	-11.2368
相次いで	-11.2368
倫理	-11.2371
軽減	-11.2372
らとともに	-11.2373
本作品	-11.2376
コレ	-11.2378
佐世保	-11.2379
外務省	-11.2379
グローバル	-11.2381
ロシア語	-11.2381
出場機会	-11.2382
ライナー	-11.2382
3.5	-11.2384
1869	-11.2384
を奪われ	-11.2388
と称され	-11.239
開幕戦	-11.2391
を目的に	-11.2393
せよ	-11.2393
マレー	-11.2393
アンリ	-11.2393
高知県	-11.2396
知らせ	-11.2397
っち	-11.2399
と語った	-11.2409
最強	-11.2411
に面し	-11.2416
錯	-11.2418
プロセッサ	-11.2418
地獄	-11.2419
上場	-11.2421
として知られている	-11.2421
赤字	-11.2423
済み	-11.2429
ピオ	-11.2429
粒	-11.2429
東南アジア	-11.2431
を拒否し	-11.2438
大量に	-11.2443
農家	-11.2444
墜落	-11.2444
島根県	-11.2444
蜂起	-11.2445
されることとなった	-11.2446
ブール	-11.2447
逮捕され	-11.245
宮崎県	-11.2451
市域	-11.2452
伝えた	-11.2455
する方法	-11.2455
長谷川	-11.2457
気動車	-11.2458
松田	-11.2458
南端	-11.2459
大津	-11.2461
成功した	-11.2461
賊	-11.2467
出雲	-11.2468
バラエティ	-11.2469
畠	-11.247
起こる	-11.2471
好み	-11.2473
知られていた	-11.2481
本拠	-11.2482
決勝戦	-11.2482
協奏曲	-11.2483
湊	-11.2483
科目	-11.2485
バルブ	-11.2486
焦点	-11.2486
を要する	-11.2487
神奈川	-11.2489
所有する	-11.2489
ブン	-11.2491
をもたらした	-11.2493
被告	-11.2494
ミックス	-11.2494
勝ちを収め	-11.2495
影響を受けた	-11.2498
ぶつ	-11.2501
用水	-11.2502
を重視し	-11.2508
椅子	-11.251
廃棄	-11.251
イニング	-11.2511
歴史家	-11.2511
ピク	-11.2515
プレミアリーグ	-11.2517
グロー	-11.2519
物体	-11.252
ュ	-11.252
銀座	-11.2522
CF	-11.2524
赴任	-11.2525
第五	-11.2529
することもある	-11.2531
流出	-11.2532
ムーン	-11.2533
親友	-11.2534
戦死した	-11.2535
真実	-11.2539
越後	-11.2542
とくに	-11.2543
ニズム	-11.2544
管理者	-11.2545
佐野	-11.2545
しやすい	-11.2546
並びに	-11.2548
収録曲	-11.2549
漂	-11.255
政務	-11.2552
ari	-11.2552
精度	-11.2554
ゾー	-11.2555
セリエ	-11.2558
を超えた	-11.2558
自由党	-11.2559
かけられ	-11.2559
ガールズ	-11.2565
支給	-11.2566
プレミアム	-11.2566
の一員	-11.2568
マック	-11.2571
ライオン	-11.2572
あて	-11.2576
ハインリヒ	-11.2576
妖怪	-11.2576
ART	-11.2577
普段	-11.2578
京阪	-11.2578
1891	-11.2579
マリン	-11.2582
世界観	-11.2583
ガメ	-11.2584
使用できる	-11.2585
申し出	-11.2586
翻	-11.2588
袖	-11.2589
System	-11.2589
同地	-11.2591
簡単に	-11.2592
が起きた	-11.2593
荒川	-11.2594
同型	-11.2594
戯	-11.2597
を通って	-11.26
頃まで	-11.2601
週末	-11.2602
公務員	-11.2602
TOKYO	-11.2603
カワ	-11.2604
飲料	-11.2605
ブラー	-11.2605
住む	-11.2608
塊	-11.2616
経歴	-11.262
本形式	-11.2621
定員	-11.2621
寛政	-11.2621
厳しく	-11.2621
実質	-11.2622
告白	-11.2626
渓	-11.2626
尋	-11.2628
腫	-11.2629
牙	-11.2629
胞	-11.263
著しく	-11.263
町域	-11.2639
ハリー	-11.264
鳥類	-11.264
長を務めた	-11.264
教科書	-11.2642
倉庫	-11.2645
マーティン	-11.265
ダンサー	-11.2653
ile	-11.2656
出てくる	-11.266
勢い	-11.2663
中立	-11.2663
映画館	-11.2664
ei	-11.2665
WBA	-11.2667
鳩	-11.2669
マルコ	-11.2674
審査員	-11.2674
機関銃	-11.2674
天下	-11.2675
侵	-11.2677
1888	-11.2679
Ge	-11.2682
粗	-11.2683
メリー	-11.2684
福山	-11.2685
氏族	-11.2686
Sa	-11.2686
エビ	-11.2686
を誇る	-11.2686
ホームページ	-11.2687
リヒ	-11.2688
経由で	-11.269
識別	-11.269
阿部	-11.2691
設定されている	-11.2691
トリック	-11.2691
日本海軍	-11.2692
住吉	-11.2693
を決定した	-11.2694
凶	-11.2696
洞窟	-11.2696
西暦	-11.2697
フォワード	-11.2698
ONE	-11.2698
無事	-11.2701
薬剤	-11.2702
誤り	-11.2703
架空の	-11.2709
述べ	-11.271
赤色	-11.2711
ank	-11.2711
友好	-11.2718
国土	-11.2719
理由として	-11.272
pi	-11.2722
ビリー	-11.2722
に置かれた	-11.2723
こうとうがっこう	-11.2723
分間	-11.2727
ウルフ	-11.273
OK	-11.2732
排水	-11.2732
ピック	-11.2734
洛	-11.2735
秩序	-11.2736
乗車券	-11.2737
Music	-11.2738
高層	-11.274
マネジメント	-11.275
研究科	-11.2752
優位	-11.2752
dia	-11.2754
血液型	-11.2757
で構成されている	-11.2758
レアル	-11.2761
に変え	-11.2763
発信	-11.2765
に反対し	-11.2766
に生息する	-11.2768
を通過し	-11.277
招き	-11.277
時代劇	-11.2772
ピュ	-11.2772
に限られ	-11.2772
問い	-11.2773
NK	-11.2775
アプローチ	-11.2777
アトランタ	-11.2777
王妃	-11.2778
サウンドトラック	-11.2778
を介して	-11.2778
序盤	-11.2779
ソール	-11.2788
根本	-11.2791
高崎	-11.2791
育った	-11.2792
TH	-11.2798
同級生	-11.2804
出荷	-11.2808
自動的に	-11.2808
高等学校卒業	-11.2809
発祥	-11.2809
招	-11.2811
出品	-11.2812
小学	-11.2813
商業施設	-11.2813
首長	-11.2813
携	-11.2816
出会った	-11.2818
訪れた	-11.282
食用	-11.282
関わり	-11.2821
ペルー	-11.2822
グッド	-11.2822
メチル	-11.2825
に因んで	-11.2826
フランツ	-11.2829
に就任する	-11.2831
セッション	-11.2831
韻	-11.2831
排出	-11.2833
巡目	-11.2833
会合	-11.2837
ていき	-11.2837
貫通	-11.2839
学ぶ	-11.284
常務	-11.2842
プラザ	-11.2843
しておらず	-11.2843
免疫	-11.2845
玩具	-11.2845
上げて	-11.2845
今度は	-11.2845
欠場	-11.2847
志願	-11.285
東京帝国大学	-11.2853
償	-11.2855
毎月	-11.2856
フード	-11.2857
シニア	-11.2858
といわれ	-11.286
を受けていた	-11.286
てくれた	-11.2861
付いて	-11.2863
再婚	-11.2863
民俗	-11.2867
LOVE	-11.287
交際	-11.287
婦人	-11.2872
睦	-11.2872
という設定	-11.2872
報酬	-11.2873
を目指した	-11.2873
切って	-11.2874
していて	-11.2876
ジェリー	-11.2878
運行されている	-11.2881
ッポ	-11.2884
ケンタッキー	-11.2886
展望	-11.2889
ストレート	-11.2891
危	-11.2892
に発生した	-11.2898
飢	-11.2899
ピアニスト	-11.29
支線	-11.29
ムスリム	-11.29
ベースボール	-11.2902
無視	-11.2904
1873	-11.2904
見直し	-11.2905
音響	-11.2905
働いた	-11.2905
マウス	-11.2906
ゥ	-11.2908
ris	-11.291
を越えて	-11.291
互	-11.2911
農場	-11.2912
が用意され	-11.2917
降板	-11.2919
タービン	-11.292
母体	-11.292
の中心地	-11.2921
cy	-11.2921
越え	-11.2922
1885	-11.2924
擁護	-11.2927
エレベーター	-11.2927
アテネ	-11.2927
サーキット	-11.2928
ものが多い	-11.293
学区	-11.2931
歯科	-11.2937
able	-11.2939
穏	-11.294
知名度	-11.2941
藻	-11.2941
佐賀県	-11.2943
辞退	-11.2945
sta	-11.2945
鳥取県	-11.2946
チェロ	-11.2949
▁You	-11.295
永久	-11.2954
典型的な	-11.2954
4000	-11.2955
を伴う	-11.2955
ヲ	-11.2955
主教	-11.2958
箱根	-11.2959
フィクション	-11.2959
かかり	-11.2961
ずっと	-11.297
が導入され	-11.2972
援	-11.298
オーク	-11.2982
サマー	-11.2987
シルバー	-11.2988
青木	-11.2989
連載された	-11.2992
が設立され	-11.2994
平等	-11.2995
戚	-11.2996
赦	-11.2996
俣	-11.2996
惜	-11.2996
ous	-11.2996
蒸気機関車	-11.2996
救済	-11.2997
収益	-11.2998
旗艦	-11.2998
写本	-11.2998
ざわ	-11.3001
RY	-11.3001
シェー	-11.3004
倫	-11.3004
倒産	-11.3005
に復帰した	-11.3005
世界的に	-11.3005
伊東	-11.301
億ドル	-11.3015
含め	-11.3016
万年前	-11.3018
郷土	-11.302
に成功し	-11.302
療養	-11.3022
記者会見	-11.3024
係数	-11.3026
公募	-11.3028
と評され	-11.3031
得点を挙げ	-11.3037
隷	-11.3037
曳	-11.3037
貴重な	-11.3038
アイデア	-11.3038
されることがある	-11.3039
改築	-11.304
......	-11.304
工夫	-11.3041
初当選	-11.3043
られず	-11.3044
ポケット	-11.3044
和平	-11.3045
1.0	-11.3045
ire	-11.3047
二度	-11.305
光学	-11.3051
没後	-11.3053
農地	-11.3053
わせる	-11.3056
鑑賞	-11.3057
失われた	-11.3061
支社	-11.3062
1886	-11.3064
停車する	-11.3064
萌	-11.3066
運搬	-11.3066
スターリン	-11.3069
1887	-11.3071
背後	-11.3071
植え	-11.3071
BOX	-11.3072
交戦	-11.3074
曽	-11.3074
をもたらす	-11.3079
厩舎	-11.308
現役を引退	-11.308
擁立	-11.308
一貫	-11.308
に巻き込まれ	-11.308
央	-11.3081
川口	-11.3081
頻度	-11.3083
見ることができる	-11.3085
地方裁判所	-11.3086
因子	-11.3087
台頭	-11.3092
探査	-11.3094
列島	-11.3099
格納	-11.3099
が決まった	-11.31
アポロ	-11.3101
首席	-11.3101
描かれる	-11.3101
ウォール	-11.3104
珍しく	-11.3109
小学館	-11.311
薄い	-11.3111
上述の	-11.3112
加わる	-11.3112
を攻撃し	-11.3112
単なる	-11.3116
と並んで	-11.3116
津波	-11.3118
ヶ所	-11.3119
メニュー	-11.312
保全	-11.3121
発売元は	-11.3123
を参照のこと	-11.3124
知的	-11.3126
に該当する	-11.3127
も含めて	-11.3127
1892	-11.313
ラーメン	-11.313
他人	-11.3131
シュル	-11.3131
と判断し	-11.3133
東京府	-11.3138
購入した	-11.3139
預	-11.3141
血液	-11.3148
_3	-11.3149
YouTube	-11.3149
車庫	-11.315
通商	-11.315
クリスチャン	-11.3151
救急	-11.3153
現役引退	-11.3155
現在に至る	-11.3156
単純な	-11.3157
ピッチ	-11.3158
参議院	-11.3163
盾	-11.3163
遅く	-11.3164
年代初頭	-11.3165
相互作用	-11.3165
家屋	-11.3166
と合併し	-11.3166
Ad	-11.3167
に対応した	-11.3167
分かる	-11.317
誰も	-11.3171
伏見	-11.3172
を深め	-11.3174
抵	-11.3176
俳	-11.3176
脅	-11.3177
シャトル	-11.3177
そもそも	-11.3177
滑走路	-11.3177
牟	-11.3178
des	-11.3179
渓谷	-11.318
橋梁	-11.3184
log	-11.3186
退学	-11.3187
指数	-11.3188
切断	-11.3189
リーガ	-11.319
チームメイト	-11.3191
スケール	-11.3192
nes	-11.3193
主権	-11.3197
定住	-11.3197
Ba	-11.3198
三条	-11.3205
肌	-11.3206
出入口	-11.3214
途上	-11.3214
番手	-11.3215
テレビ放送	-11.3215
加熱	-11.3219
婿	-11.322
進展	-11.322
干渉	-11.322
引き継いだ	-11.322
ホイール	-11.3221
使える	-11.3227
マネー	-11.3231
ドメイン	-11.3233
どのような	-11.3233
MVP	-11.3234
取って	-11.3234
1600	-11.3235
懲役	-11.3236
独裁	-11.3236
del	-11.324
様々	-11.324
gr	-11.324
国際的な	-11.3244
郵便番号は	-11.3245
ホラー	-11.3247
留め	-11.3248
シミュレーション	-11.3248
アドベンチャー	-11.3248
unt	-11.3249
高木	-11.3251
入り口	-11.3252
duc	-11.3253
チュア	-11.3254
不定期	-11.3254
ざる	-11.3259
弾圧	-11.3259
ref	-11.326
われている	-11.3261
雀	-11.3262
従五位下	-11.3262
勧告	-11.3264
満了	-11.3265
中華	-11.3265
誤解	-11.3265
に向けた	-11.3268
プレゼント	-11.3269
</	-11.3271
動詞	-11.3273
瞬	-11.3274
貨車	-11.3274
外野手	-11.3277
という形で	-11.3279
デバイス	-11.3279
大久保	-11.3279
なくなって	-11.328
題材	-11.328
機材	-11.328
に任じられ	-11.3281
北条氏	-11.3285
南京	-11.329
惣	-11.3291
乗組員	-11.3291
勾配	-11.3291
邸宅	-11.3292
批評	-11.3292
武帝	-11.3293
決戦	-11.3294
ッソ	-11.3295
管制	-11.3296
殺害された	-11.3297
ニオン	-11.3298
リン酸	-11.3302
と比べ	-11.3305
笛	-11.3305
月中旬	-11.3305
▁OF	-11.3308
1894	-11.3311
相違	-11.3311
横綱	-11.3311
よって	-11.3311
ジョイ	-11.3315
ライオンズ	-11.3315
子爵	-11.3317
扶	-11.332
コラボレーション	-11.332
役を演じ	-11.332
硫黄	-11.332
ウェア	-11.3323
と称される	-11.3324
出身のサッカー選手	-11.3325
他方	-11.3326
6000	-11.3326
書簡	-11.3326
使用している	-11.3327
カルロス	-11.333
会う	-11.333
発行された	-11.3332
コンパクト	-11.3334
警察官	-11.3334
槽	-11.3334
朝鮮半島	-11.3337
ファーム	-11.3337
動脈	-11.334
アンティ	-11.3344
タイムズ	-11.3347
リメイク	-11.3348
辱	-11.3348
東アジア	-11.3353
ヘッ	-11.3353
幅広く	-11.3353
ヘリ	-11.3354
の由来は	-11.3358
マケドニア	-11.3362
枯	-11.3363
種別	-11.3365
習得	-11.3365
自称	-11.3365
首都圏	-11.3366
者数	-11.3372
ともいわれ	-11.3381
1893	-11.3382
中佐	-11.3383
哲学者	-11.3383
行っていた	-11.3388
明確な	-11.3389
に完成した	-11.339
下関	-11.339
建てられ	-11.3391
ことがあった	-11.3391
師匠	-11.3392
かせる	-11.3393
尽	-11.3394
旗本	-11.3398
南朝	-11.3399
初頭	-11.34
づき	-11.3401
州刺史	-11.3405
パシフィック	-11.3406
プロレスラー	-11.3417
設計された	-11.3419
制服	-11.3419
★	-11.342
エリック	-11.3421
順序	-11.3422
の一種である	-11.3423
危険性	-11.3425
工芸	-11.3426
マジック	-11.3426
仮説	-11.3427
投球	-11.3427
運転台	-11.3427
実戦	-11.3429
1878	-11.343
掘	-11.343
替わり	-11.3431
ホット	-11.3434
乗務員	-11.3435
悠	-11.3435
ドラえもん	-11.3435
明るい	-11.3435
を変更し	-11.3436
RU	-11.3436
書いている	-11.3437
フロリダ	-11.3437
史上初の	-11.3438
ail	-11.3441
理念	-11.3442
標的	-11.3442
番目	-11.3445
キット	-11.3446
じゅん	-11.3446
求められ	-11.3448
水泳	-11.3449
略奪	-11.345
創始	-11.3451
こともあって	-11.3451
残存	-11.3452
チック	-11.3455
ハーバー	-11.3456
入れ替え	-11.3456
リスナー	-11.346
名目	-11.3461
を実施した	-11.3462
表す	-11.3462
塗り	-11.3463
アナウンス	-11.3464
文政	-11.3465
プレーヤー	-11.3465
ストック	-11.3472
を発揮し	-11.3473
線の駅	-11.3476
採掘	-11.3478
囲碁	-11.3478
役職	-11.3479
shi	-11.3482
みる	-11.3484
フォート	-11.3487
放った	-11.3488
審議会	-11.3492
樹立	-11.3492
突撃	-11.3494
指令	-11.3497
つけられ	-11.35
を見せる	-11.3501
バブル	-11.3506
バイト	-11.3506
鰭	-11.3507
騰	-11.3507
を名乗る	-11.3507
ザール	-11.3509
一気に	-11.3511
▁市立小	-11.3512
着工	-11.3513
本当に	-11.3514
式典	-11.3514
選出された	-11.3515
運び	-11.3515
東武	-11.3517
を余儀なくされた	-11.3518
消化	-11.3518
復旧	-11.352
らしく	-11.352
盟	-11.352
破壊された	-11.3522
が整備され	-11.3523
孤立	-11.3525
再興	-11.3526
アルプス	-11.3528
閉店	-11.3531
対照	-11.3532
回想	-11.3533
kW	-11.3534
受けた	-11.3535
ヴィクトリア	-11.3536
言えば	-11.3538
を高める	-11.3538
本作では	-11.3539
木曽	-11.354
なかなか	-11.354
前進	-11.3542
ピエ	-11.3546
アーム	-11.3546
くろ	-11.3547
伝道	-11.3548
浸透	-11.3551
AKB	-11.3551
も務めた	-11.3555
拍	-11.3557
バージニア州	-11.3558
form	-11.3558
政界	-11.3559
聞く	-11.3562
UP	-11.3563
断層	-11.3563
拳銃	-11.3567
遂	-11.3568
テュ	-11.357
田辺	-11.3573
人格	-11.3577
供用	-11.3579
補償	-11.358
親衛隊	-11.358
パンチ	-11.3582
En	-11.3585
工程	-11.3589
引き上げ	-11.359
撤退した	-11.3591
障	-11.3592
醸造	-11.3596
オートバイ	-11.3597
ことができた	-11.3599
フライ級	-11.3601
松井	-11.3605
寄贈	-11.3612
難民	-11.3613
下院	-11.3614
債権	-11.3616
今作	-11.3616
1860	-11.3617
金銭	-11.3618
ものではなく	-11.3619
告知	-11.362
ボクサー	-11.3624
日午前	-11.3626
vo	-11.3626
手続	-11.3629
月号から	-11.3631
作られる	-11.3632
潜水	-11.3632
高温	-11.3634
ure	-11.3634
製作所	-11.3635
尖	-11.3639
○	-11.3639
エンターテインメント	-11.3639
レイク	-11.3641
合法	-11.3645
を進める	-11.3645
名の由来	-11.3645
8000	-11.3646
京王	-11.3647
てゆく	-11.365
テイラー	-11.3651
合った	-11.3651
ギャグ	-11.3651
薫	-11.3654
猟	-11.3654
神々	-11.3654
リンカーン	-11.3654
総額	-11.3655
イタリア語	-11.3657
追跡	-11.3659
メディ	-11.366
ze	-11.3664
掌握	-11.3669
徳川家康	-11.367
開戦	-11.3672
世間	-11.3672
定期的に	-11.3673
津軽	-11.3675
露出	-11.3677
特徴的な	-11.3678
書類	-11.3678
孤	-11.3679
ノーベル	-11.368
gra	-11.3681
アレクサンドル	-11.3683
差異	-11.3683
てはならない	-11.3683
堆積	-11.3684
ギャラリー	-11.3684
ポルノ	-11.3686
年代前半	-11.3686
首脳	-11.3689
に至って	-11.3691
外交官	-11.3691
撃退	-11.3691
ブラッド	-11.3692
一揆	-11.3698
チケット	-11.3699
させられた	-11.3703
最終戦	-11.3704
開通した	-11.3705
サード	-11.3706
フェラーリ	-11.3713
彗星	-11.3713
褒	-11.3713
上がって	-11.3713
ブドウ	-11.3715
を避けるため	-11.3719
作動	-11.3723
カレー	-11.3725
重ね	-11.3728
招聘	-11.3728
歓	-11.3728
書房	-11.373
OVA	-11.3731
不動	-11.3735
と考えていた	-11.3735
を対象に	-11.3739
利点	-11.3739
VER	-11.3741
アルゴリズム	-11.3743
川水系	-11.3744
を乗せ	-11.3747
現在まで	-11.3754
彰	-11.3756
弧	-11.3758
El	-11.3759
用品	-11.376
安全性	-11.376
飛行隊	-11.376
様な	-11.3766
深刻な	-11.3773
慢	-11.3774
菊池	-11.3775
Fi	-11.3777
賃金	-11.3779
卒業生	-11.3781
重点	-11.3782
崩れ	-11.3782
宇宙船	-11.3782
ino	-11.3783
どちらか	-11.3784
台地	-11.3784
派遣された	-11.3784
あれ	-11.3785
安芸	-11.3785
起動	-11.3787
−	-11.3788
悔	-11.3788
エクスプレス	-11.3788
ポンプ	-11.3797
衰	-11.3802
開設された	-11.3802
坑	-11.3802
鉱物	-11.3803
名鉄	-11.3803
歳で死去	-11.3805
寄生	-11.3807
歌った	-11.3809
1862	-11.3811
午	-11.3811
されることが多い	-11.3816
の一員として	-11.3818
麺	-11.3818
船橋	-11.3819
ナレーション	-11.3821
大塚	-11.3821
てきて	-11.3823
に編入された	-11.3828
副会長	-11.3829
皇族	-11.383
正常	-11.3832
パキスタン	-11.3833
を築いた	-11.3833
調節	-11.3834
鳥取	-11.3836
を送って	-11.3836
マンチェスター	-11.3836
ung	-11.3839
ヘビー級	-11.3841
キーボード	-11.3842
に当たって	-11.3842
ネーション	-11.3843
ノット	-11.3845
連動	-11.3845
所属事務所	-11.3846
訪ね	-11.3849
と信じ	-11.3851
をあげた	-11.3853
パロディ	-11.3855
世話	-11.3855
を認める	-11.386
建造された	-11.3862
需	-11.3862
殺人事件	-11.3862
続けられ	-11.3862
稚	-11.3863
魔女	-11.3864
最下位	-11.3864
を確保する	-11.3866
造船	-11.3868
ウィルソン	-11.3868
集まる	-11.387
投下	-11.387
庶	-11.3876
不在	-11.3878
吏	-11.3878
警視庁	-11.3878
公衆	-11.3879
ホンダ	-11.3879
学部教授	-11.3881
景気	-11.3881
側近	-11.3883
車輪	-11.3884
慶應義塾大学	-11.3886
題名	-11.3887
を発見し	-11.3888
レンタル	-11.3889
意志	-11.3889
FW	-11.3892
英文	-11.3892
チャンピオンズリーグ	-11.3893
Google	-11.3893
を問わず	-11.3893
爪	-11.3893
ナール	-11.3894
仮想	-11.3895
直ちに	-11.3897
赤軍	-11.3897
を作って	-11.39
三丁目	-11.39
1879	-11.39
基幹	-11.3901
信頼性	-11.3903
覇	-11.3904
に任じられた	-11.3904
じゃない	-11.3906
ゲームソフト	-11.3906
嫌い	-11.3907
混同	-11.3907
閣僚	-11.3908
μ	-11.3908
Linux	-11.3908
哀	-11.3909
東京都立	-11.391
完全移籍	-11.3911
キョ	-11.3912
介護	-11.3912
最高裁判所	-11.3913
育ち	-11.3914
ドコモ	-11.3914
も含む	-11.3921
間違い	-11.3921
砲弾	-11.3927
ことが可能	-11.3928
異動	-11.393
通常盤	-11.3932
バンダイ	-11.3932
を連れて	-11.3932
反論	-11.3933
司祭	-11.3936
行なわれた	-11.3937
不全	-11.3937
梶	-11.3939
おおむね	-11.3939
直轄	-11.394
太夫	-11.3941
困難な	-11.3942
伝わっ	-11.3944
本尊	-11.3944
ボイス	-11.3945
越前	-11.3946
Mac	-11.3947
田園	-11.395
ムハンマド	-11.3954
狩猟	-11.3954
御所	-11.3954
ことにした	-11.3955
輸	-11.3955
デッキ	-11.3956
ディスプレイ	-11.3956
書いて	-11.3957
天候	-11.3958
教団	-11.3961
イギリス海軍	-11.3961
一貫して	-11.3966
階層	-11.3967
破綻	-11.3969
オブジェクト	-11.3969
センチメートル	-11.397
ブレイク	-11.3972
付随	-11.3974
入居	-11.3976
寿命	-11.3976
最長	-11.3978
pt	-11.3979
チェスター	-11.3981
ビクター	-11.3985
ドクター	-11.3985
ショッピングセンター	-11.3986
構内	-11.3986
を確保し	-11.3991
野球部	-11.3993
ダール	-11.3996
つとめ	-11.3998
選ばれ	-11.4
さらなる	-11.4
漏	-11.4001
が含まれている	-11.4001
斜面	-11.4002
コラム	-11.4003
クエスト	-11.4008
を挙げている	-11.4009
総理	-11.401
掲	-11.4014
飽	-11.4015
仮定	-11.4019
どころ	-11.4019
常陸	-11.402
設定された	-11.4021
馬車	-11.4024
洪	-11.4025
犠牲者	-11.4026
全世界	-11.4027
遥	-11.4031
ハードウェア	-11.4031
ずれ	-11.4034
TY	-11.4035
背中	-11.4037
告発	-11.4037
動物園	-11.4039
武蔵野	-11.404
プロ入り	-11.4041
知らない	-11.4042
諱	-11.4046
受容体	-11.4046
腎	-11.4046
@	-11.4046
綬	-11.4046
匿	-11.4046
軍用	-11.4046
ジェル	-11.4046
を有している	-11.4046
任官	-11.4047
攻勢	-11.405
媒体	-11.405
造営	-11.4055
競技場	-11.4059
モジュール	-11.4061
抄	-11.4061
ミシシッピ	-11.4061
嚢	-11.4061
多大な	-11.4062
残っていた	-11.4064
花火	-11.4065
小規模な	-11.4065
可決	-11.4065
負けを喫し	-11.4067
たけし	-11.4067
藤井	-11.4071
補強	-11.4075
のいずれか	-11.4076
セキュリティ	-11.4076
Twitter	-11.4077
食糧	-11.4077
ざい	-11.4078
放射線	-11.4082
台詞	-11.4082
分ける	-11.4086
開店	-11.4088
好評	-11.409
防災	-11.4093
もはや	-11.4094
グレン	-11.4095
デルタ	-11.4097
ャー	-11.4097
ぐち	-11.4097
に移され	-11.4098
祖先	-11.4098
ホセ	-11.4099
に耐え	-11.4102
ler	-11.4103
ないので	-11.4104
といって	-11.4106
凌	-11.4108
ファイト	-11.411
神戸市	-11.4111
はならなかった	-11.4111
報じられた	-11.4113
科学技術	-11.4113
に指定され	-11.4117
年の国勢調査	-11.4117
を皮切りに	-11.4123
ことができなかった	-11.4123
狩り	-11.4123
過ごす	-11.4123
霞	-11.4123
灘	-11.4123
小路	-11.4124
ランダム	-11.4125
計測	-11.4126
欠点	-11.4128
早朝	-11.4131
文学者	-11.4132
ウォン	-11.4135
セールス	-11.4135
任意	-11.4137
を認めた	-11.4137
新興	-11.4138
旬	-11.4138
師範学校	-11.4138
せつ	-11.4143
ない限り	-11.415
訪れ	-11.4151
有数の	-11.4152
原始	-11.4154
アフガニスタン	-11.4154
オリックス	-11.4158
実態	-11.4161
合わせる	-11.4162
府中	-11.4162
阿波	-11.4163
▁Man	-11.4168
汗	-11.4169
詣	-11.4169
に就いた	-11.417
ソフトバンク	-11.417
便宜	-11.417
ワイルド	-11.4172
パーティ	-11.4173
中京	-11.4178
刷	-11.4184
行方不明	-11.4185
エージェント	-11.4185
小泉	-11.4186
悲劇	-11.4186
キリスト教徒	-11.4187
制圧	-11.4187
若松	-11.4197
昨	-11.42
立憲	-11.4201
官位は	-11.4203
スピン	-11.4203
全国大会	-11.4206
捕食	-11.4208
アップル	-11.4209
を利用し	-11.4209
を防ぐため	-11.4211
見られない	-11.4213
1876	-11.4214
果たし	-11.4215
宜	-11.4215
喜多	-11.4216
聡	-11.4216
わけではなく	-11.4219
十郎	-11.4224
ちょうど	-11.4224
厳密に	-11.4225
畜	-11.4225
伝記	-11.4226
ダグラス	-11.4226
忠実	-11.4226
秩父	-11.4232
侵害	-11.4233
追求	-11.4233
系図	-11.4236
加えられ	-11.4241
番艦	-11.4245
生育	-11.4245
破産	-11.4246
っく	-11.4247
嘱	-11.4247
急遽	-11.4247
アーチ	-11.4247
邑	-11.4248
▁隣接するコムーネ	-11.4248
聖堂	-11.4248
お互い	-11.4249
がなされている	-11.4251
現職	-11.4257
与党	-11.4261
加入した	-11.4261
トゥール	-11.4261
テクノロジー	-11.4263
縫	-11.4263
テネシー	-11.4263
青い	-11.4264
嫡男	-11.4266
筋肉	-11.4267
みん	-11.4273
峡	-11.4275
当番組	-11.4277
高速バス	-11.4278
呼ばれる	-11.4279
収穫	-11.4279
奔	-11.4279
アルメニア	-11.4279
窪	-11.4279
に際し	-11.428
高齢	-11.4283
具体的には	-11.4284
説がある	-11.4285
ジョセフ	-11.4287
掘り	-11.4289
サッカーリーグ	-11.4291
Fe	-11.4293
牧野	-11.4294
再選	-11.4295
左側	-11.4295
憂	-11.4295
初回限定盤	-11.4295
を手に入れ	-11.4295
を奪い	-11.4295
半径	-11.4298
ことができず	-11.4299
デール	-11.4301
注文	-11.4302
総称	-11.4305
が成立する	-11.4306
目黒	-11.4308
温暖	-11.4311
丞	-11.4311
実証	-11.4311
との契約	-11.4314
騎士団	-11.4314
集まった	-11.4317
家畜	-11.4317
バージニア	-11.4319
鳥羽	-11.4319
豊富な	-11.4321
高麗	-11.4321
リーグ優勝	-11.4321
何度か	-11.4326
土器	-11.4341
を提出し	-11.4343
を聞いた	-11.4344
ブッシュ	-11.4349
出来なかった	-11.435
1881	-11.4353
に陥った	-11.4354
日本の政治家	-11.4355
艦船	-11.4358
ミステリー	-11.4358
運ばれ	-11.4358
密接	-11.4365
火力	-11.4366
za	-11.4366
色彩	-11.4366
lect	-11.4368
助言	-11.4368
藤沢	-11.437
と呼んだ	-11.4374
務める	-11.4374
愛知県名古屋市	-11.4375
内務省	-11.4377
道徳	-11.4378
後輩	-11.4379
湘南	-11.4379
年代まで	-11.438
想い	-11.4384
各々	-11.4384
工科大学	-11.4386
へ進学	-11.4386
みどり	-11.4387
考えられる	-11.4389
多少	-11.4389
福寺	-11.4389
泡	-11.439
鱗	-11.439
殴	-11.4391
幼児	-11.4394
定められ	-11.4396
ロッキー	-11.4396
出現する	-11.4404
適切	-11.4405
道の駅	-11.4405
ハミルトン	-11.4405
大幅な	-11.4406
集英社	-11.4406
数少ない	-11.441
増設	-11.441
京成	-11.4413
浅野	-11.4414
を維持する	-11.4414
out	-11.4416
0||0||	-11.442
オックスフォード	-11.4422
間接	-11.4422
ルーキー	-11.4422
グッズ	-11.4422
Cr	-11.4423
真っ	-11.4423
use	-11.4427
Ver	-11.4431
に渡る	-11.4435
教育機関	-11.4435
進軍	-11.4435
てほしい	-11.4437
シベリア	-11.4438
遺構	-11.4439
絶え	-11.4441
としての活動	-11.4445
を残している	-11.4446
メリット	-11.4449
をめぐる	-11.4454
▁with	-11.4454
酒井	-11.4455
演奏会	-11.4456
に転じた	-11.4457
ley	-11.446
コーラス	-11.4461
ナイター	-11.4461
変異	-11.4461
イタリア共和国	-11.4462
決断	-11.4463
1874	-11.4463
集積	-11.4469
ボランティア	-11.447
ソナタ	-11.447
出身の元プロ野球選手	-11.447
仲介	-11.4473
を進めた	-11.4473
ことが多かった	-11.4473
笑い	-11.4474
住人	-11.4476
に搭載され	-11.4476
フォックス	-11.4477
北端	-11.4481
徴収	-11.4487
NASA	-11.4488
から成る	-11.4488
ボーイング	-11.4488
ヤマハ	-11.4488
パール	-11.4489
ンプトン	-11.449
NFL	-11.4491
高校卒業後	-11.4492
1875	-11.4493
を巡って	-11.4494
orn	-11.4494
アルファ	-11.4497
酵	-11.45
ress	-11.4501
郡庁所在地	-11.4502
必須	-11.4502
拒絶	-11.4503
考えられ	-11.4503
展示されている	-11.4504
を引き起こし	-11.4504
詳細な	-11.4505
枢	-11.4506
整数	-11.4509
と表記される	-11.4512
条項	-11.4514
窒素	-11.4518
獅子	-11.4519
犯行	-11.452
lin	-11.452
内務	-11.4521
が建設され	-11.4521
元帥	-11.4521
ムービー	-11.4522
武力	-11.4522
主席	-11.4525
陣地	-11.4525
行進	-11.4529
EMI	-11.4531
ポロ	-11.4532
伐	-11.4533
栖	-11.4534
幾何学	-11.4534
日放送分	-11.4536
を支配し	-11.454
日本政府	-11.4542
ja	-11.4543
それほど	-11.4544
乗り換え	-11.4545
ニウス	-11.4546
播磨	-11.455
{	-11.455
親しまれ	-11.4551
蓄積	-11.4552
収容所	-11.4554
両側	-11.4561
に関する法律	-11.4562
優秀な	-11.4566
撰	-11.4566
祇	-11.4566
渕	-11.4566
停車場線	-11.4567
緊張	-11.4567
観光地	-11.4581
袁	-11.4583
а	-11.4583
を上回る	-11.4584
受け入れられ	-11.4585
立てられ	-11.4585
国際映画祭	-11.4586
叩き	-11.4588
目立つ	-11.4592
ウラン	-11.4592
代当主	-11.4592
家庭用	-11.4598
避け	-11.4598
フランソワ	-11.4599
恐竜	-11.4599
地上波	-11.4609
宰	-11.461
裁判官	-11.4611
の治世	-11.4612
JST	-11.4613
Pro	-11.4613
切られ	-11.4615
上院議員	-11.4615
スペクトル	-11.4615
甚	-11.4615
ッシー	-11.4617
川流域	-11.4617
ヨシ	-11.4618
につれて	-11.4619
を巡る	-11.4619
ボーイズ	-11.462
高かった	-11.4623
を担当している	-11.4625
フロリダ州	-11.4629
危険な	-11.4631
十六	-11.4631
十八	-11.4635
八戸	-11.4638
支持者	-11.464
を作成し	-11.464
ash	-11.4641
魚類	-11.4642
労働党	-11.4643
測量	-11.4647
煙突	-11.4647
ヘッドコーチ	-11.4649
八王子	-11.4652
活動を開始	-11.4657
少なかった	-11.4659
姦	-11.4664
免除	-11.4665
1882	-11.4668
金融機関	-11.4669
ペドロ	-11.4669
暴動	-11.467
1864	-11.4672
落とした	-11.4675
豊橋	-11.4678
ミシガン	-11.468
機動戦士ガンダム	-11.468
抽選	-11.4681
Java	-11.4681
1||0	-11.4682
特別番組	-11.4688
難しく	-11.4689
想像	-11.4693
援軍	-11.4694
検事	-11.4695
諾	-11.4696
溜	-11.4697
ā	-11.4697
アリゾナ	-11.4697
聖職者	-11.4697
症候群	-11.4697
特有の	-11.4698
右側	-11.47
割引	-11.47
を失う	-11.4703
南北戦争	-11.4705
強豪	-11.4707
容器	-11.4709
シェン	-11.4709
駅周辺	-11.471
トロント	-11.471
渡す	-11.4711
させようと	-11.4712
ano	-11.4713
リオデジャネイロ	-11.4713
シチリア	-11.4713
暁	-11.4713
ッケン	-11.4715
も多かった	-11.4716
傾向にある	-11.4716
1861	-11.4719
キャップ	-11.472
ロードレース	-11.472
維	-11.4722
選ばれる	-11.4723
結婚式	-11.4724
アメリカ陸軍	-11.4724
7000	-11.4727
終わって	-11.4728
盲	-11.4729
稽古	-11.473
豊富	-11.473
パレスチナ	-11.473
功労	-11.4731
ローレンス	-11.4731
江戸幕府	-11.4733
トリノ	-11.4733
添え	-11.4734
と思った	-11.4739
配属	-11.4739
Mk	-11.4741
1863	-11.4746
水源	-11.4746
海兵隊	-11.4747
学区は以下の通りとなる	-11.4747
砂糖	-11.4747
持続	-11.475
Na	-11.4752
っぷ	-11.4752
All	-11.4753
起工	-11.4756
世論	-11.4757
積分	-11.4757
渋滞	-11.4762
シンガーソングライター	-11.4763
趣旨	-11.4763
スラヴ	-11.4764
伊予	-11.4765
保育	-11.4766
官房	-11.4771
ワーナー	-11.4774
が設けられている	-11.4775
借金	-11.4777
つながり	-11.4779
ニコライ	-11.4779
奪還	-11.478
中毒	-11.4781
インフラ	-11.4781
エントリー	-11.4784
歳以下	-11.4785
日本の俳優	-11.4787
アラビア語	-11.4788
ゲスト出演	-11.4789
フォーム	-11.4791
交付	-11.4791
を批判し	-11.4792
ラッセル	-11.4796
アピール	-11.4796
コロラド	-11.4796
歳の時	-11.4799
ヶ丘	-11.4799
親族	-11.4802
丹波	-11.4802
薬師	-11.4806
天文学	-11.4808
サッカークラブ	-11.4811
パレード	-11.4812
マンハッタン	-11.4812
にある公立小学校	-11.4813
飲食店	-11.4813
を踏まえ	-11.4813
左派	-11.4813
Sc	-11.4822
示されている	-11.4825
蒼	-11.4829
懇	-11.4829
祖母	-11.483
所管	-11.4831
けど	-11.4832
変遷	-11.4832
のほうが	-11.4835
州立大学	-11.4838
を中心として	-11.4842
枕	-11.4846
ています	-11.4846
と称した	-11.4846
を移し	-11.4847
1.6	-11.4848
連敗	-11.4849
pri	-11.485
戯曲	-11.4852
フランシス	-11.4857
月上旬	-11.4862
標識	-11.4863
燃え	-11.4866
発揮	-11.4866
正統	-11.4872
ゆえに	-11.4877
志向	-11.4878
スタンダード	-11.4879
諦	-11.4879
卸	-11.4879
探索	-11.488
紙幣	-11.488
冷房	-11.4883
確認できる	-11.4885
広範囲	-11.4885
っていった	-11.4885
意義	-11.4887
アカデミー賞	-11.4888
が一般的である	-11.489
ポルト	-11.4891
高価	-11.4893
新羅	-11.4893
心配	-11.4895
フレデリック	-11.4895
デトロイト	-11.4895
叶	-11.4895
バリエーション	-11.4896
同性愛	-11.4896
を帯び	-11.4896
棺	-11.4896
陰謀	-11.4897
地理学	-11.4903
に配属され	-11.4903
暑	-11.4912
賄	-11.4912
菩薩	-11.4912
那覇	-11.4913
と主張している	-11.4914
突如	-11.4914
高額	-11.4914
欲しい	-11.4915
没収	-11.4916
これ以降	-11.4917
ないよう	-11.4924
に対抗する	-11.4925
評論	-11.4925
再発	-11.4927
滞	-11.4927
剥	-11.4929
マーケティング	-11.4929
期限付き移籍	-11.4929
んです	-11.4933
に接する	-11.4933
改札口	-11.4933
科学的	-11.4945
に基づいた	-11.4946
}	-11.4946
Open	-11.4946
毅	-11.4946
ボスニア	-11.4949
ミドル	-11.4949
割れ	-11.4955
組み立て	-11.4957
領有	-11.4958
主将	-11.4962
播	-11.4963
舵	-11.4963
4.5	-11.4964
麻呂	-11.4964
ヴィッチ	-11.4964
を連ね	-11.4965
出身の元	-11.4967
LED	-11.4969
氷河	-11.4969
女の子	-11.497
極東	-11.4974
が必要となる	-11.4975
ピング	-11.4975
製薬	-11.4976
客室	-11.4977
東端	-11.4977
を命じた	-11.4979
プラスチック	-11.498
硬貨	-11.4981
red	-11.4981
競技大会	-11.4984
如来	-11.4985
100%	-11.4985
に命じ	-11.4987
兼務	-11.4987
複製	-11.4991
フィッシュ	-11.4992
果て	-11.4994
フランクフルト	-11.4996
夷	-11.4996
イラストレーター	-11.4997
漆	-11.4997
ケネディ	-11.4997
を活かし	-11.4999
得られた	-11.5
チーフ	-11.5004
を決定する	-11.5007
無所属	-11.5009
惹	-11.5014
絹	-11.5014
国会議員	-11.5015
尋ね	-11.5016
ヨウ	-11.5019
后	-11.5024
胴	-11.5025
勝を挙げ	-11.5026
ハンドル	-11.5028
賑	-11.503
郡にあった村	-11.5031
暮らす	-11.5031
復讐	-11.5031
原子力発電所	-11.5031
威力	-11.5031
溶液	-11.5031
思考	-11.5032
視察	-11.5033
読書	-11.5035
北九州市	-11.5037
調教師	-11.504
20%	-11.5045
膨	-11.5046
杜	-11.5047
に従う	-11.5047
アベニュー	-11.5047
を強め	-11.5048
慣習	-11.5048
オーディオ	-11.5051
アパート	-11.5052
耐久	-11.5054
を設置する	-11.5056
ファミコン	-11.5064
亘	-11.5064
アルファベット	-11.5065
全土	-11.5065
宣教師	-11.5066
解明	-11.5069
決着	-11.5071
1883	-11.5071
毎日放送	-11.5078
ヶ谷	-11.5078
デッド	-11.5079
卑	-11.5081
駅番号は	-11.5083
tory	-11.5084
タイミング	-11.5086
寛文	-11.5095
ナポリ	-11.5096
剖	-11.5098
歓迎	-11.5098
辿	-11.5099
行政区	-11.51
破損	-11.5101
MBS	-11.5101
食堂	-11.5101
引き分け	-11.5103
傘	-11.5104
太鼓	-11.5117
柴田	-11.5118
つけられた	-11.5123
みなみ	-11.5128
不利	-11.5131
後楽園	-11.5132
対岸	-11.5135
発覚	-11.5135
出羽	-11.5135
ROM	-11.514
後述する	-11.5143
の必要性	-11.5143
vers	-11.5147
0.1	-11.5149
バンタム級	-11.515
1877	-11.5151
を必要とする	-11.5151
ぼく	-11.5152
ポスター	-11.5155
オルガン	-11.5158
管内	-11.5159
特番	-11.5161
講和	-11.5161
way	-11.5163
好調	-11.5167
に反対する	-11.5167
ターゲット	-11.5167
を対象とした	-11.5167
に恵まれ	-11.5167
那須	-11.5169
多目的	-11.5175
特権	-11.5178
高度な	-11.5182
双子	-11.5182
釈迦	-11.5184
旭川	-11.5185
fer	-11.5187
フォーラム	-11.5188
小規模	-11.5188
熊谷	-11.5191
に分類され	-11.5192
センチ	-11.5194
を引き起こす	-11.5201
アルミニウム	-11.5201
フォーマット	-11.5202
í	-11.5202
MAN	-11.5202
駿河	-11.5204
を紹介する	-11.5207
湾岸	-11.5208
ama	-11.5215
リフト	-11.5216
ロシア帝国	-11.5216
聖母	-11.5217
股	-11.5217
蒙	-11.5218
茅	-11.5219
塵	-11.5219
触媒	-11.5219
を組んで	-11.5219
カテゴリー	-11.522
指向	-11.5227
することができた	-11.5229
婚約	-11.5229
ライフル	-11.5233
頻	-11.5234
拒	-11.5235
つながって	-11.5237
考察	-11.5237
置換	-11.5238
ヘッセン	-11.5239
に準じ	-11.524
地盤	-11.5242
エアロ	-11.5242
北極	-11.5246
白河	-11.5251
漫画作品	-11.5252
於	-11.5254
畔	-11.5254
実用化	-11.5255
コンピューター	-11.5255
穀物	-11.5261
を失って	-11.5261
原稿	-11.5263
を通過する	-11.5275
休養	-11.5276
始動	-11.5278
昼間	-11.528
引き受け	-11.5285
アニメ版	-11.5285
鎌	-11.5287
賠償	-11.5288
本願寺	-11.5288
麻雀	-11.5289
少尉	-11.5289
フラッシュ	-11.5289
遺族	-11.529
ビルボード	-11.5293
逸話	-11.5295
巡回	-11.5297
大阪市立	-11.5297
友会	-11.53
年に発表した	-11.5303
知られており	-11.5304
を伸ばし	-11.5305
コーポレーション	-11.5306
婚姻	-11.5306
舞踊	-11.5306
維新	-11.5307
豪華	-11.5309
商船	-11.5309
たとえ	-11.5309
玄関	-11.531
ホークス	-11.5314
1867	-11.5318
を搭載する	-11.5318
記念碑	-11.5321
幌	-11.5323
を買収し	-11.5323
混ぜ	-11.5324
どのように	-11.5325
稲荷	-11.5325
代理店	-11.5328
に分布する	-11.5328
国内外	-11.5328
テレビシリーズ	-11.533
を組み合わせた	-11.533
1,3	-11.5332
喜び	-11.5333
スクエア	-11.5333
ACK	-11.5338
牡	-11.534
腺	-11.534
決まり	-11.5345
は以下のとおり	-11.5345
まわ	-11.5347
連邦政府	-11.5347
に関連する	-11.5356
改称	-11.5356
ドナルド	-11.5358
停留場	-11.5358
ひょう	-11.5358
重大な	-11.5359
適合	-11.5359
写像	-11.5362
委員会委員	-11.5362
の重要性	-11.5363
オファー	-11.5367
欠け	-11.5369
改組	-11.5371
胞子	-11.5374
造成	-11.5375
フィギュアスケート選手	-11.5375
4,000	-11.5375
幼少期	-11.5376
俸	-11.5376
租	-11.5376
廣	-11.5376
曰く	-11.5376
ヒューストン	-11.5377
つつあった	-11.5379
を指揮し	-11.5381
賞賛	-11.5383
近接	-11.5386
任せ	-11.5389
西端	-11.5392
難易度	-11.5393
腫瘍	-11.5393
圓	-11.5393
ブロードウェイ	-11.5393
耗	-11.5393
エッセイ	-11.5394
洗礼	-11.5395
モーニング	-11.5397
芸能界	-11.5398
公使	-11.54
キャッシュ	-11.5402
左岸	-11.5405
民放	-11.5406
腔	-11.541
朋	-11.5411
島式ホーム	-11.5411
エレクトロ	-11.5411
スケジュール	-11.5411
行える	-11.5414
座標	-11.5416
教育委員会	-11.5418
ウィーク	-11.5419
位置付け	-11.5421
▁Car	-11.5422
実写	-11.5423
後援	-11.5423
に応じた	-11.5425
を採用する	-11.5427
アムステルダム	-11.5428
耶	-11.5428
サンディエゴ	-11.5428
酢	-11.5429
生没年不詳	-11.5429
ブラウザ	-11.5429
爆破	-11.5433
嘉永	-11.5435
ヘビー級王座	-11.5436
踏切	-11.5442
火器	-11.5445
指標	-11.5448
アウグスト	-11.545
天才	-11.5452
を防ぐ	-11.5453
直営	-11.5453
クリーク	-11.5454
日本の実業家	-11.5457
先祖	-11.5457
より発売された	-11.5459
ッセン	-11.5461
幣	-11.5462
ノースカロライナ	-11.5464
取り扱い	-11.5468
に分けられる	-11.5474
ハリス	-11.5476
教官	-11.5478
加えられた	-11.548
ビートルズ	-11.5481
斯	-11.5481
儲	-11.5482
表題曲	-11.5482
和泉	-11.5485
クルーズ	-11.5488
トレイン	-11.5492
深さ	-11.5493
顧	-11.5498
一斉	-11.5498
毎日新聞	-11.5499
を支える	-11.5499
に応じ	-11.5499
苑	-11.5499
帖	-11.5499
WWE	-11.55
を越える	-11.55
上げられ	-11.5502
プラハ	-11.5505
問われ	-11.5506
と共同で	-11.5507
シールド	-11.551
アドルフ	-11.5512
使節	-11.5517
栃木	-11.5517
カタルーニャ	-11.5517
特色	-11.5518
姿を消し	-11.5519
去り	-11.5527
1866	-11.5528
不十分	-11.5529
年代にかけて	-11.5529
蜂	-11.5534
があれば	-11.5536
炭鉱	-11.5537
侯爵	-11.5539
的存在	-11.554
代謝	-11.554
課税	-11.554
断絶	-11.5541
適用される	-11.5542
を支援する	-11.5545
ることができた	-11.5546
旅館	-11.555
ムーア	-11.5551
にとどまった	-11.5552
桓	-11.5552
ヂ	-11.5552
猶	-11.5552
バッテリー	-11.5553
巴	-11.5553
桜井	-11.5554
クラフト	-11.5555
移設	-11.5555
抽出	-11.5563
成熟	-11.5565
RNA	-11.5567
MAX	-11.5567
欧州連合	-11.5569
ミネソタ	-11.557
真珠湾	-11.557
宝塚歌劇団	-11.5571
偉大な	-11.5571
分泌	-11.5571
選択肢	-11.5571
ニックネーム	-11.5572
紀伊	-11.5574
放置	-11.5575
片側	-11.5576
最高速度	-11.5579
自由主義	-11.5585
系電車	-11.5586
鉢	-11.5588
牌	-11.5588
ナトリウム	-11.5588
博覧会	-11.5588
殿堂入り	-11.5589
デヴィッド	-11.5589
ink	-11.5589
累計	-11.559
売買	-11.5592
Inter	-11.5594
決められ	-11.5597
ンドルフ	-11.5598
センサー	-11.5601
樺太	-11.5607
友達	-11.5611
付けられる	-11.5613
ロシア連邦	-11.5613
運送	-11.5614
クイーンズ	-11.5618
賭け	-11.5622
エキス	-11.5623
カンボジア	-11.5625
喰	-11.5625
熙	-11.5625
アレクサンダー	-11.5625
大輔	-11.5626
oss	-11.5627
予言	-11.563
マサチューセッツ州	-11.5631
犬種	-11.5634
酒造	-11.5634
控訴	-11.5642
インストール	-11.5643
嘘	-11.5643
を提供している	-11.5649
累	-11.5659
オキシ	-11.566
僚	-11.566
蝶	-11.566
液晶	-11.5661
高性能	-11.5662
50%	-11.5663
実務	-11.5663
の有無	-11.5664
異なった	-11.5667
を支持する	-11.5671
BBC	-11.5672
改定	-11.5674
ラーゼ	-11.5674
に見舞われ	-11.5679
喧嘩	-11.5679
弥生	-11.568
クジラ	-11.568
四日市	-11.568
を投じ	-11.5683
倉敷	-11.5683
亜科	-11.5685
ウィング	-11.5686
の一角	-11.5691
皿	-11.5696
恥	-11.5697
インディーズ	-11.5698
上限	-11.5703
を建設する	-11.5704
あわせ	-11.5705
石垣	-11.5711
それ以上	-11.5712
樹木	-11.5714
娯楽	-11.5715
ble	-11.5715
に過ぎない	-11.5717
凍結	-11.5717
排気	-11.5718
短期	-11.5718
と同じように	-11.5722
宇治	-11.5727
塩基	-11.573
ぞく	-11.573
摂政	-11.5733
杵	-11.5733
と評している	-11.5734
追撃	-11.5736
今井	-11.5737
試合に出場して	-11.5739
苦戦	-11.5743
潟	-11.5743
新潟市	-11.575
窯	-11.5751
スロバキア	-11.5751
ミズーリ	-11.5751
パラメータ	-11.5752
旋律	-11.5752
松浦	-11.5753
曹操	-11.5753
増殖	-11.5753
優勝に貢献	-11.5754
アルバイト	-11.5755
グローブ	-11.5757
遂行	-11.576
Str	-11.5762
ハワード	-11.5763
発電機	-11.5764
ざん	-11.5765
待機	-11.5768
に留まった	-11.5769
エレクトリック	-11.5769
に就く	-11.5773
等しい	-11.5776
停車駅	-11.5776
の軍勢	-11.5777
を必要とし	-11.5778
喜劇	-11.5778
改変	-11.5778
爵	-11.5779
けば	-11.5782
が図られ	-11.5782
ALL	-11.5783
暮れ	-11.5786
憎	-11.5788
あきら	-11.5789
エーカー	-11.579
シンガー	-11.5791
県都	-11.5792
のぼる	-11.5793
解説者	-11.5796
イスラム教	-11.58
滋	-11.5806
俳句	-11.5806
テュー	-11.5807
枚目のアルバム	-11.5807
負荷	-11.5808
井戸	-11.5812
帽子	-11.5815
騒	-11.5821
を率い	-11.5823
廟	-11.5824
号まで連載	-11.5826
年代半ば	-11.5826
講習	-11.5827
寅	-11.5842
フロア	-11.5842
伽	-11.5843
忙	-11.5843
痛み	-11.5843
’	-11.5843
掴	-11.5843
虹	-11.5843
聞こえ	-11.5843
正しく	-11.5843
撫	-11.5843
と推定されている	-11.5843
と推定される	-11.5844
パナマ	-11.5844
の成績を残した	-11.5844
駐在	-11.5848
採取	-11.585
兵庫	-11.585
大学医学部	-11.5854
マイクロソフト	-11.5859
慢性	-11.586
1.8	-11.5861
メダリスト	-11.5861
閑	-11.5861
ラインナップ	-11.5861
教諭	-11.5862
駅構内	-11.5863
魔術	-11.5867
向かって	-11.5874
資料館	-11.5875
ッピング	-11.5876
と主張し	-11.5878
刻まれ	-11.5878
※	-11.5879
ヤンキース	-11.5879
危惧	-11.5879
タバコ	-11.588
追悼	-11.588
爾	-11.588
鋳造	-11.5881
に属していた	-11.5882
車輌	-11.5882
ヨーゼフ	-11.5882
震災	-11.5883
ult	-11.5889
キエフ	-11.5891
を購入し	-11.5896
変わらない	-11.5898
ライト級	-11.5899
徴兵	-11.5902
弁護	-11.5903
亜種	-11.5904
に隣接し	-11.5904
はるかに	-11.5905
ピュー	-11.5909
ペンシルベニア州	-11.5912
遠藤	-11.5913
ゴジラ	-11.5917
きょく	-11.5917
明治維新	-11.5922
高等学校を経て	-11.5922
ければ	-11.5924
麻薬	-11.5925
活動を続け	-11.5929
ことはできなかった	-11.5935
サンクトペテルブルク	-11.5935
に関与し	-11.5937
を持っており	-11.5938
特攻	-11.594
足利義	-11.594
"、"	-11.594
over	-11.5944
出すこと	-11.5945
スタメン	-11.5945
製鉄	-11.5951
慮	-11.5953
巳	-11.5954
内閣総理大臣	-11.5954
峯	-11.5954
が成立し	-11.5955
活躍を見せ	-11.5956
収められ	-11.5957
撃ち	-11.5959
1,4	-11.5962
右岸	-11.5962
ことはなく	-11.5964
ストレス	-11.5966
関税	-11.5966
vol	-11.5968
あらかじめ	-11.5972
ニンテンドー	-11.5973
たくさん	-11.5973
に拠れば	-11.5973
を発し	-11.5974
加盟国	-11.5975
アンドリュー	-11.5975
尊敬	-11.5976
三角形	-11.5976
を強いられ	-11.5979
換装	-11.598
旋回	-11.5983
One	-11.5989
に分けて	-11.599
鍛	-11.5991
を開発した	-11.5991
僧侶	-11.5991
誘拐	-11.5991
ストローク	-11.5992
day	-11.5992
チーズ	-11.5996
ばれ	-11.5997
に編入され	-11.5997
意欲	-11.5998
改宗	-11.6001
験	-11.6005
エチオピア	-11.601
路面電車	-11.601
を行なった	-11.601
を行っており	-11.6012
アイスランド	-11.6012
監修	-11.6014
につれ	-11.6018
マニラ	-11.6028
オットー	-11.6028
プライベート	-11.6029
神奈川県横浜市	-11.603
形電車	-11.603
狙い	-11.6039
医科大学	-11.6039
近縁	-11.604
汎用	-11.6041
日本共産党	-11.6044
を入れる	-11.6045
鐵	-11.6047
エストニア	-11.6047
ヘクタール	-11.6047
堰	-11.6047
人気を博し	-11.6048
迎撃	-11.6048
経済学者	-11.6048
出航	-11.6049
逃走	-11.605
宝暦	-11.6053
原爆	-11.6054
low	-11.6055
行われており	-11.6056
感染症	-11.6059
複素	-11.6059
順番	-11.6061
戦時中	-11.6061
出来ず	-11.6064
粟	-11.6066
成し遂げ	-11.6066
渦	-11.6066
ハイブリッド	-11.6067
ことを示す	-11.6067
封印	-11.607
改題	-11.6071
ようだ	-11.6072
TRA	-11.6073
築城	-11.6074
に掲載され	-11.6074
ドラマー	-11.6076
除外	-11.6076
脊	-11.6085
を生み出し	-11.6085
頸	-11.6085
遮断	-11.6086
を目的とする	-11.6089
招かれ	-11.609
1,0	-11.609
』・『	-11.609
仮面	-11.6093
績	-11.6094
を拠点に	-11.6097
を訪問し	-11.6102
とも言われる	-11.6104
に属す	-11.6104
遅延	-11.6106
辞典	-11.6108
に加わり	-11.6109
揺れ	-11.611
を加える	-11.6114
位置づけられ	-11.6119
主翼	-11.6122
ö	-11.6123
さいたま市	-11.6124
中尉	-11.6126
器具	-11.613
積極的な	-11.6131
年公開の	-11.6133
転送	-11.6134
ライブラリ	-11.6134
骨格	-11.6135
八郎	-11.6136
ことに成功した	-11.614
NATO	-11.6141
訂	-11.6141
半導体	-11.6142
隼	-11.6142
ジェイムズ	-11.6142
レンタル移籍	-11.6142
ひがし	-11.6144
宰相	-11.6144
一橋大学	-11.6147
乙女	-11.6148
フランクリン	-11.6148
古巣	-11.6149
を飾った	-11.6151
ショッピング	-11.616
重臣	-11.6161
乗用車	-11.6161
デイヴィッド	-11.6161
о	-11.6161
にあたった	-11.6161
スティーブン	-11.6161
]]	-11.6162
王座決定戦	-11.6164
RAM	-11.6175
落とす	-11.6179
ネズミ	-11.618
マイアミ	-11.6181
住居表示	-11.6181
仕上げ	-11.6181
者もいる	-11.6183
ator	-11.6186
風俗	-11.6189
デイリー	-11.619
に追い込まれ	-11.6193
退官	-11.6195
を完成させ	-11.6198
樋	-11.6199
ジョニー	-11.62
拡散	-11.62
いちらん	-11.62
大阪府大阪市	-11.6201
添加	-11.6202
高齢者	-11.6204
戦果	-11.6205
小田急	-11.6217
モントリオール	-11.6217
偉	-11.6218
鴻	-11.6218
をめぐって	-11.6218
International	-11.6218
虐待	-11.6218
池袋	-11.622
誰か	-11.6221
諸侯	-11.6221
架け	-11.6228
ペトロ	-11.6229
にも参加	-11.6229
乗車人員	-11.6233
に配置され	-11.6235
要員	-11.6235
こなし	-11.6236
レコード会社	-11.6236
土俵	-11.6237
愚	-11.6237
rr	-11.624
四季	-11.6246
鳥居	-11.6248
機雷	-11.6248
日本の漫画家	-11.6249
を取り戻し	-11.6252
社団法人	-11.6255
ルートヴィヒ	-11.6256
にともない	-11.6256
恐慌	-11.6256
てきている	-11.6256
~	-11.6256
フォーミュラ	-11.6256
0°	-11.6257
[[	-11.6258
ダイエー	-11.6262
チョー	-11.6264
叩	-11.6269
学生時代	-11.6272
郵政	-11.6277
退却	-11.6278
の中で最も	-11.6278
NPO	-11.628
棄	-11.6288
誕	-11.6289
に加盟し	-11.6292
尚書	-11.6293
ヒュ	-11.6293
濱	-11.6295
を持たせ	-11.6295
に留まり	-11.6295
封鎖	-11.6295
専務	-11.6299
暴走	-11.6299
進撃	-11.6303
ユーザ	-11.6312
圧倒的な	-11.6312
日本書紀	-11.6314
アルバニア	-11.6314
いったん	-11.6316
変え	-11.632
に移し	-11.6324
輿	-11.6333
を置いた	-11.6333
ose	-11.6336
ウイング	-11.6336
撤回	-11.6337
無償	-11.6337
防空	-11.6338
信徒	-11.6341
金剛	-11.6345
をなす	-11.6348
ワールドシリーズ	-11.6353
慕容	-11.6353
律令	-11.6355
トラクター	-11.6355
を破って	-11.6357
鑑定	-11.636
定められている	-11.6369
難波	-11.6369
を支援し	-11.6371
媛	-11.6371
証券取引所	-11.6372
じんじゃ	-11.6372
挿絵	-11.6375
余裕	-11.6375
つくば	-11.6379
まらない	-11.6382
を抱いて	-11.6383
匠	-11.6386
ツェン	-11.6387
を始めとする	-11.6387
カンファレンス	-11.6391
ゲリラ	-11.6391
多様体	-11.6391
ä	-11.6391
抽象	-11.6391
伊賀	-11.6399
カルチャー	-11.6402
青少年	-11.6403
せば	-11.6404
広瀬	-11.6407
最年少	-11.6411
逢	-11.6411
幸せ	-11.6411
スティーヴン	-11.6411
失業	-11.6414
広まった	-11.6418
結核	-11.6421
御殿	-11.6421
警官	-11.6421
ヶ月間	-11.6422
とは言え	-11.6425
激化	-11.6428
看	-11.6429
ルネサンス	-11.643
抹消	-11.643
に統合され	-11.6431
茶屋	-11.6432
旧姓	-11.6433
がきっかけで	-11.6436
必要があった	-11.6438
加茂	-11.6439
に襲われ	-11.6445
私鉄	-11.6446
以南	-11.6446
判定勝ち	-11.6448
疲	-11.6449
を行なう	-11.645
吹奏楽	-11.645
預け	-11.645
山麓	-11.6452
収束	-11.6452
生殖	-11.6458
悩み	-11.6466
続行	-11.6468
翅	-11.6469
カウンター	-11.6469
依然として	-11.6469
纏	-11.6469
きわめて	-11.6469
降水量	-11.6469
展覧会	-11.6469
と指摘している	-11.647
樹脂	-11.6472
東北地方	-11.6472
ATION	-11.6474
ニュータウン	-11.6476
公益	-11.6484
んしゃ	-11.6484
に代わる	-11.6486
鋳	-11.6487
隋	-11.6489
南北朝時代	-11.6489
濁	-11.6489
衰え	-11.6489
無罪	-11.6491
っていなかった	-11.6497
ようになっていた	-11.65
送電	-11.6502
暴行	-11.6504
暮	-11.6506
を増やし	-11.6506
摂津	-11.6506
を突破し	-11.6508
‐	-11.6509
による日本の漫画作品	-11.6509
ことを発表した	-11.651
常磐	-11.651
除籍	-11.6511
処置	-11.6511
電撃	-11.6512
優勢	-11.6516
納め	-11.6522
を継ぐ	-11.6528
知り合い	-11.6528
悦	-11.6528
住んでいる	-11.6532
消失	-11.6533
物理的	-11.6535
ルドルフ	-11.6535
西欧	-11.6537
固体	-11.6537
中枢	-11.6544
勝利を収め	-11.6544
ワルシャワ	-11.6548
盧	-11.6548
に於いて	-11.6548
ハドソン	-11.6548
Microsoft	-11.6548
占拠	-11.6548
誘致	-11.6549
仁親王	-11.655
圧倒的	-11.655
AGE	-11.655
ENT	-11.655
幼虫	-11.655
発掘調査	-11.6551
有限会社	-11.6553
高く評価され	-11.6558
育つ	-11.6561
規約	-11.6565
恨	-11.6568
で生まれる	-11.6568
混雑	-11.657
吾妻	-11.6571
フラワー	-11.6572
ネパール	-11.6573
産駒	-11.6574
予備役	-11.6578
立ち上げ	-11.6583
参謀長	-11.6584
漫才	-11.6587
疫	-11.6587
ユニフォーム	-11.6588
宣告	-11.659
集結	-11.6595
に接し	-11.6605
イリノイ州	-11.6607
アーキテクチャ	-11.6607
梱	-11.6607
SUPER	-11.6607
チョン	-11.6609
苦労	-11.661
普通列車	-11.6611
を余儀なくされ	-11.6612
ハンブルク	-11.6614
信託	-11.6614
歪	-11.6627
MHz	-11.6627
の指揮下	-11.6629
召集	-11.6631
揃え	-11.6632
詳	-11.6642
謳	-11.6647
奇跡	-11.6651
近辺	-11.6656
air	-11.6657
を発行し	-11.6664
灰色	-11.6665
平坦	-11.6667
いかなる	-11.6667
レギュラーシーズン	-11.6668
0.2	-11.6668
セントルイス	-11.6668
1,500	-11.6668
を模した	-11.6669
ギャング	-11.6669
を想定し	-11.667
志摩	-11.6671
2.7	-11.6671
副社長	-11.6678
騒音	-11.6683
汽	-11.6684
赤坂	-11.6687
カルタゴ	-11.6687
ベネズエラ	-11.6687
凱旋	-11.6687
瞳	-11.6687
ともいえる	-11.6687
日本語版	-11.6688
蕭	-11.6688
押さえ	-11.6688
ステレオ	-11.6691
フランシスコ	-11.6692
小樽	-11.6692
シアトル	-11.6694
を紹介し	-11.6696
幸福	-11.6696
ホルン	-11.6698
眺	-11.6707
ぺ	-11.6707
眞	-11.6707
舞鶴	-11.671
に代表される	-11.6711
プレミア	-11.6711
に指名され	-11.6711
確信	-11.6714
を信じ	-11.6715
参画	-11.6721
大会に出場	-11.6724
多項式	-11.6727
サイエンス	-11.6727
Univers	-11.6727
准教授	-11.6728
下院議員	-11.6728
アンダーソン	-11.6731
簡単な	-11.6734
ull	-11.6736
実質的な	-11.6737
を試みた	-11.6738
を計画し	-11.6745
築かれ	-11.6746
に沿った	-11.6747
摩擦	-11.6747
oto	-11.6753
充分	-11.6753
Hot	-11.6756
融資	-11.6759
伏せ	-11.6762
エステル	-11.6763
萬	-11.6767
受け継がれ	-11.6768
読売新聞	-11.6768
にも出演	-11.6768
プロペラ	-11.6768
資材	-11.6769
を廃止し	-11.6773
祈り	-11.6776
円盤	-11.6783
連装	-11.6787
ゼネラル	-11.6788
癖	-11.6788
を除いた	-11.6788
亡くなる	-11.6788
重要文化財	-11.6789
警報	-11.6791
中国共産党	-11.6794
細かい	-11.6797
抱え	-11.6798
始まって	-11.6807
サポーター	-11.6808
染色体	-11.6808
沸	-11.6808
巡礼	-11.6811
フジテレビ系列	-11.6811
系譜	-11.6818
ていれば	-11.6818
呼んで	-11.6821
最速	-11.6826
漏れ	-11.6827
閏	-11.6828
ラテン文字	-11.6828
ローマ教皇	-11.6831
射程	-11.6833
タイアップ	-11.6843
オハイオ州	-11.6844
Game	-11.6845
割り当て	-11.6845
リミックス	-11.6846
ダンジョン	-11.6847
詐欺	-11.6848
文部省	-11.6849
膨大な	-11.6849
休暇	-11.6849
クライアント	-11.6849
ツェル	-11.6852
強盗	-11.6855
1.4	-11.6856
古墳群	-11.6857
1,1	-11.6857
食材	-11.686
どおり	-11.6866
取り扱う	-11.6867
蛍	-11.6869
錐	-11.6869
怖	-11.6869
紐	-11.6869
礼拝堂	-11.687
世紀前半	-11.6872
吊り	-11.6875
絶望	-11.6875
封入	-11.6878
仕切	-11.6886
サスペンション	-11.6889
に抜擢され	-11.6895
を構成し	-11.6904
判定負け	-11.6904
携わっ	-11.6908
剰	-11.6909
最盛期	-11.6909
モニター	-11.691
カタログ	-11.691
太字は	-11.6911
クォー	-11.6911
構え	-11.6912
コントローラ	-11.6912
ニェ	-11.6914
になってしまう	-11.6915
に起きた	-11.6917
5.5	-11.6923
疾	-11.693
餅	-11.693
日本国有鉄道	-11.693
参議院議員	-11.6931
応答	-11.6932
に設けられた	-11.6934
得点を記録	-11.6937
荘園	-11.6937
園芸	-11.6941
歳没	-11.6942
van	-11.6949
и	-11.6951
串	-11.6951
カラオケ	-11.6951
柔らか	-11.6951
寄稿	-11.6952
曽根	-11.6953
休刊	-11.6955
焼け	-11.6956
line	-11.6956
飛鳥	-11.6959
基底	-11.6959
拍子	-11.6964
6,000	-11.6966
とほぼ同	-11.6969
肯定	-11.6971
カルシウム	-11.6972
トレーナー	-11.6972
舘	-11.6972
幻想	-11.6973
概要	-11.6973
代わって	-11.6977
世界各地	-11.6979
ように見える	-11.6979
を背景に	-11.698
アクセント	-11.6986
唯	-11.699
なければならなかった	-11.6992
コロムビア	-11.6992
ジャイアンツ	-11.6992
成り立つ	-11.6992
天王寺	-11.6992
働いていた	-11.6993
射殺	-11.6995
ミドル級	-11.6995
転落	-11.6998
をやめ	-11.6998
共和政	-11.6999
電灯	-11.7002
鎮座	-11.7003
既存	-11.7009
パブリック	-11.7013
厚生労働省	-11.7013
をもうけた	-11.7013
▁School	-11.7013
IGHT	-11.7013
当事者	-11.7013
割り当てられ	-11.7017
織物	-11.7017
打たれ	-11.7019
情熱	-11.7024
其	-11.7033
日露戦争	-11.7033
荻	-11.7034
ゴシック	-11.7034
エンジェル	-11.7036
Wii	-11.7037
失脚	-11.7038
科を卒業	-11.7039
十五	-11.7048
シリンダー	-11.7054
ユネスコ	-11.7054
モロッコ	-11.7054
ことに由来する	-11.7055
痕跡	-11.7055
民謡	-11.7057
ダウンタウン	-11.7057
受託	-11.7057
順調に	-11.7057
百済	-11.7059
row	-11.7069
レギュラー出演	-11.707
ダイヤ改正	-11.7073
遮	-11.7074
欽	-11.7074
詔	-11.7075
ウェルター級	-11.7075
剥奪	-11.7075
リアルタイム	-11.7077
トヨタ自動車	-11.7078
もらった	-11.7078
傑	-11.7079
アラスカ	-11.7084
リクエスト	-11.7085
低減	-11.7088
アラビア	-11.7091
慕	-11.7095
に勝利し	-11.7095
選帝侯	-11.7096
曇	-11.7096
プロトコル	-11.7096
久留米	-11.7096
寵	-11.7096
けんりつ	-11.7096
霜	-11.7096
キネマ	-11.7096
ニッポン放送	-11.7099
ブルックリン	-11.7099
慎重	-11.7101
ディビジョン	-11.7102
ことで知られる	-11.7103
飛ぶ	-11.7111
意味合い	-11.7112
貰	-11.7116
杏	-11.7117
跨	-11.7117
work	-11.7117
処罰	-11.7118
可能性が高い	-11.712
たびに	-11.7124
ソロモン	-11.7126
3.0	-11.7129
採集	-11.713
慣れ	-11.713
食べ物	-11.7131
取締	-11.7136
狙撃	-11.7136
0.3	-11.7137
に移る	-11.7137
箕	-11.7137
冥	-11.7138
ミッドフィールダー	-11.7138
MUSIC	-11.7138
破棄	-11.7139
一般社団法人	-11.7139
転写	-11.7141
ちょ	-11.7141
互換性	-11.7147
経済成長	-11.7152
▁Records	-11.7159
を望む	-11.7159
堤防	-11.716
駐留	-11.7162
探知	-11.7167
補充	-11.7169
媒	-11.7173
十字軍	-11.7175
を繰り返す	-11.718
ファクトリー	-11.718
貨物列車	-11.7182
ノーフォーク	-11.7183
ジャーナル	-11.7184
激減	-11.7184
を探す	-11.7188
字幕	-11.7191
ソニック	-11.7193
茨城	-11.7197
肘	-11.7201
尹	-11.7201
疑惑	-11.7201
源氏物語	-11.7202
Disc	-11.721
佐伯	-11.721
に住んでいた	-11.7215
欧州選手権	-11.7217
に携わる	-11.7221
硝	-11.7221
と呼んでいる	-11.7222
扮	-11.7222
2.4	-11.7222
ベテラン	-11.7242
汰	-11.7243
相対式ホーム	-11.7243
嶽	-11.7243
掲示板	-11.7243
日のダイヤ改正	-11.7246
いじめ	-11.7246
とほぼ同じ	-11.7246
マサチューセッツ	-11.7257
リバウンド	-11.7262
ブリティッシュ	-11.7264
奇妙な	-11.7264
詳しい	-11.7265
天文学者	-11.7266
CEO	-11.7273
鉱業	-11.7275
Star	-11.7276
決まった	-11.7278
7.5	-11.7281
を満たし	-11.7285
稼ぎ	-11.7288
が主催する	-11.729
荒廃	-11.7291
のインタビューで	-11.7295
地理的	-11.7302
奨	-11.7305
餓	-11.7306
パチンコ	-11.7307
好成績	-11.7308
汽船	-11.7309
給与	-11.7311
抜いて	-11.7316
を結んだ	-11.7321
常設	-11.7325
リサーチ	-11.7325
総面積	-11.7326
碧	-11.7328
曖昧	-11.7328
斉藤	-11.7333
最高峰	-11.7333
収蔵	-11.7339
いでいる	-11.7339
をもち	-11.7343
の下部組織	-11.7344
豊臣秀吉	-11.7349
脆	-11.7349
ディビシオン	-11.7349
殉	-11.7349
法政大学	-11.735
契機	-11.7359
が設定され	-11.7361
預金	-11.7362
皇室	-11.7364
碁	-11.737
鯨	-11.737
ISBN	-11.7371
エンターテイメント	-11.7371
日本国憲法	-11.7371
原子炉	-11.7371
成績を残し	-11.7375
を授け	-11.7376
事象	-11.7377
自転車競技	-11.738
▁tr	-11.7384
試合の出場	-11.7386
提督	-11.7392
糾	-11.7392
Super	-11.7393
を保持し	-11.7395
タッグ王座	-11.7403
エンタープライズ	-11.7413
喪	-11.7413
哺乳類	-11.7413
е	-11.7414
蝦夷	-11.7414
云	-11.7414
まで続いた	-11.7417
近似	-11.7423
傑作	-11.7431
テナント	-11.7435
か否か	-11.7435
とも言える	-11.7435
ストリーム	-11.7439
動かす	-11.7442
メジャーリーグ	-11.7451
▁Inc	-11.7453
織田信長	-11.7457
倣	-11.7457
ビジュアル	-11.7457
ハーバード大学	-11.7457
派閥	-11.7458
使用可能	-11.7459
尼崎	-11.7459
更なる	-11.7459
突起	-11.7461
シャフト	-11.7462
存在せず	-11.7465
祈	-11.7469
明確	-11.7469
イブン	-11.7473
督	-11.7477
紹	-11.7478
しっかり	-11.7478
馴	-11.7478
テクノ	-11.7479
盆	-11.7479
管弦楽団	-11.748
硫酸	-11.7481
ヴォーカル	-11.7482
パトリック	-11.7484
聴取	-11.7485
アダルト	-11.7492
摘	-11.7499
憑	-11.75
錠	-11.75
紳	-11.75
決勝進出	-11.7503
で表される	-11.7506
報復	-11.7506
をベースとし	-11.7506
短距離	-11.7507
の頭文字	-11.7512
穀	-11.7513
之介	-11.7519
モーツァルト	-11.7522
ا	-11.7522
の動向	-11.7522
繋がり	-11.7522
喫煙	-11.7523
ことが知られている	-11.7523
不可欠	-11.7523
レイアウト	-11.7534
をおこなっ	-11.7536
が起きる	-11.754
懲	-11.7541
柵	-11.7544
戴冠	-11.7544
グルジア	-11.7546
行政区画	-11.7547
を免れ	-11.7557
工房	-11.756
藝	-11.7565
奄	-11.7565
客員教授	-11.7565
ビタミン	-11.7568
に埋葬された	-11.7573
自身初の	-11.7574
を呼んだ	-11.7587
牢	-11.7587
ó	-11.7587
マニュアル	-11.7587
騒ぎ	-11.7589
儀礼	-11.759
奉仕	-11.759
vel	-11.7591
ゴードン	-11.7592
0.6	-11.7594
ヶ崎	-11.7596
を破壊し	-11.7604
十九	-11.7605
多様性	-11.7609
チョコレート	-11.7609
琶	-11.7609
壺	-11.7609
エンディングテーマ	-11.7611
填	-11.763
大きかった	-11.7631
スロベニア	-11.7631
リハビリ	-11.7631
フェザー級	-11.7631
喉	-11.7631
礼拝	-11.7632
董	-11.7632
特設	-11.7636
フェニックス	-11.7653
執政官	-11.7653
琵	-11.7653
魯	-11.7653
エルサレム	-11.7653
を築き	-11.7654
離陸	-11.7661
楽譜	-11.7665
主電動機	-11.7675
蔽	-11.7675
〇	-11.7675
墳丘	-11.7676
ドラッグ	-11.7677
スパルタ	-11.7679
こういった	-11.768
もう一つの	-11.7683
謡	-11.7693
趣	-11.7696
粋	-11.7697
蛮	-11.7697
捕らえられ	-11.7698
吹き替え	-11.7699
を参考に	-11.77
を手がけた	-11.7701
総統	-11.7704
風呂	-11.7705
帽	-11.7709
先発出場	-11.771
再結成	-11.7712
稜	-11.7719
平方メートル	-11.7719
出身のプロ野球選手	-11.772
Xbox	-11.772
が評価され	-11.772
を救う	-11.7721
世紀半ば	-11.7721
アレックス	-11.7724
副作用	-11.7727
になってしまった	-11.7728
アダルトゲーム	-11.7728
に広がる	-11.7729
が配置され	-11.7736
ふさ	-11.7741
蜜	-11.7742
征伐	-11.7742
を擁する	-11.7743
クリスタル	-11.7744
命じられ	-11.7745
を入れて	-11.7746
卓球	-11.7746
と判断され	-11.7748
豊臣	-11.7748
に置く	-11.7754
を所有し	-11.7754
><	-11.7756
緊	-11.7762
パナソニック	-11.7764
楽しめる	-11.7764
を描いている	-11.7764
機動部隊	-11.7772
伊丹	-11.7774
を逃した	-11.7775
を飾る	-11.7778
DAY	-11.7779
役で出演	-11.7786
リリーフ	-11.7786
柿	-11.7787
掘削	-11.7787
のあいだ	-11.7789
称賛	-11.779
を否定し	-11.779
迂回	-11.7794
炭酸	-11.7806
葺	-11.7808
〔	-11.7809
〕	-11.7809
アップデート	-11.7809
拉致	-11.7809
舗装	-11.781
折り返し	-11.781
遠隔	-11.7813
働きかけ	-11.7819
暗黒	-11.7819
北京オリンピック	-11.7823
バスターミナル	-11.7826
決まって	-11.7828
で勝利し	-11.7828
ことを目的として	-11.783
に分けられ	-11.7831
噛	-11.7831
アゼルバイジャン	-11.7831
任天堂	-11.7831
蔑	-11.7831
チェコスロバキア	-11.7832
アタック	-11.7833
勅令	-11.7834
迫害	-11.7835
警備隊	-11.784
肖像画	-11.7841
購	-11.7851
具体的	-11.7852
過半数	-11.7853
歩行者	-11.7854
援護	-11.7854
崔	-11.7854
ハンドボール	-11.7855
隆盛	-11.786
優勝を飾った	-11.7863
急激に	-11.7867
舗	-11.7874
樽	-11.7892
廉	-11.7921
鼓	-11.7942
諡	-11.7944
狙	-11.797
陀	-11.7989
譚	-11.7989
徽	-11.799
阻	-11.8011
鎧	-11.8012
虐	-11.8051
宙	-11.8058
棘	-11.8058
楚	-11.8058
菱	-11.8075
婆	-11.8081
膳	-11.8081
梓	-11.8104
汲	-11.8104
ぁ	-11.8127
杖	-11.8128
勉	-11.8149
榎	-11.815
仇	-11.8151
惟	-11.8174
瞭	-11.8174
紗	-11.8174
唇	-11.8244
矩	-11.8244
賃	-11.8256
魅	-11.8257
佑	-11.829
粧	-11.8337
憤	-11.8338
鈍	-11.8361
誉	-11.837
鬱	-11.8385
怠	-11.8409
翁	-11.8433
陪	-11.8433
培	-11.8456
閲	-11.8456
彙	-11.8456
渠	-11.8457
叔	-11.8475
狗	-11.848
弊	-11.848
廷	-11.8493
瀧	-11.8504
迎	-11.8563
釣	-11.8567
汐	-11.8576
恐	-11.8593
凍	-11.8622
諭	-11.8624
ぃ	-11.8625
壬	-11.8649
于	-11.865
斐	-11.8698
捻	-11.8698
頁	-11.8698
函	-11.8732
檀	-11.8772
麟	-11.8772
挫	-11.8796
晒	-11.8797
妥	-11.8846
賓	-11.8846
菓	-11.8932
捜	-11.8946
襟	-11.8946
●	-11.8946
諫	-11.8946
н	-11.8971
汎	-11.898
輛	-11.8996
嬢	-11.8996
妖	-11.9021
鵬	-11.9047
逝	-11.9072
紺	-11.9072
叢	-11.9072
庸	-11.9072
桶	-11.9073
鵜	-11.9097
糞	-11.9097
凄	-11.9098
〒	-11.9123
郁	-11.9149
轄	-11.9171
仔	-11.9175
壱	-11.92
滴	-11.92
р	-11.92
咸	-11.9226
賭	-11.923
屯	-11.925
賦	-11.9252
凸	-11.9252
陥	-11.9261
戴	-11.9303
淑	-11.9304
扁	-11.933
斥	-11.9356
冗	-11.9356
蔭	-11.9356
學	-11.9381
匂	-11.9408
罹	-11.9408
炊	-11.9409
郵	-11.9431
壕	-11.9435
醸	-11.9486
喩	-11.9487
蜀	-11.9514
侮	-11.9541
栓	-11.9568
坐	-11.9594
葵	-11.9594
寂	-11.9594
襄	-11.9594
締	-11.9602
溺	-11.9675
梯	-11.9701
堪	-11.9701
殊	-11.9728
錫	-11.9729
漫	-11.9754
妊	-11.9756
旦	-11.9774
焦	-11.9779
蚕	-11.9783
檜	-11.9783
但	-11.9801
椿	-11.981
玲	-11.981
嗜	-11.9811
冨	-11.9811
謁	-11.9837
渇	-11.9838
絆	-11.9838
茨	-11.9861
伺	-11.9866
搬	-11.9891
裾	-11.9893
窃	-11.9893
勒	-11.9893
胚	-11.9893
漸	-11.9949
吟	-11.9976
煉	-12.0003
宕	-12.0004
芥	-12.0004
叡	-12.0004
珂	-12.0004
糧	-12.003
—	-12.0032
è	-12.0032
堵	-12.0058
准	-12.0087
険	-12.0087
薩	-12.0088
窺	-12.0088
燈	-12.0088
叉	-12.0116
狐	-12.0144
峻	-12.0173
黎	-12.0201
遵	-12.0229
凹	-12.023
埴	-12.023
逓	-12.0258
允	-12.0286
稔	-12.0287
櫻	-12.0287
杭	-12.0315
曝	-12.0344
·	-12.0344
姪	-12.0344
螺	-12.0344
挺	-12.0372
瀕	-12.0373
帥	-12.0397
弔	-12.0431
只	-12.0431
聯	-12.0431
慧	-12.0431
鄧	-12.046
繊	-12.046
$	-12.0461
乞	-12.0461
朔	-12.0461
堕	-12.0461
罠	-12.0461
罵	-12.0461
厩	-12.0489
祠	-12.049
苻	-12.049
櫓	-12.0519
巫	-12.0519
擲	-12.0578
孵	-12.0578
叛	-12.0578
囃	-12.0637
繕	-12.0697
ヅ	-12.0697
楯	-12.0697
捉	-12.0721
礎	-12.0755
縞	-12.0757
駕	-12.0757
鋒	-12.0757
榴	-12.0787
挽	-12.0817
逐	-12.0817
巌	-12.0847
升	-12.0848
娼	-12.0908
荊	-12.0939
朽	-12.0939
妄	-12.0939
畿	-12.0968
團	-12.0969
昆	-12.0969
吊	-12.0991
叱	-12.1
埠	-12.1
眉	-12.1
馳	-12.1
紡	-12.1
矯	-12.1
喝	-12.1031
牽	-12.1057
謹	-12.1062
箇	-12.1088
勃	-12.1121
揖	-12.1124
妬	-12.1155
壌	-12.1185
礫	-12.1187
釘	-12.1219
厨	-12.1219
ォ	-12.1243
搾	-12.125
櫛	-12.125
墾	-12.125
苛	-12.125
呑	-12.1281
雛	-12.1282
款	-12.1313
煎	-12.1314
鞘	-12.1314
鮎	-12.1345
麿	-12.1377
寡	-12.1377
侠	-12.1378
蹄	-12.1409
采	-12.1409
禰	-12.1409
痕	-12.144
頓	-12.1441
靭	-12.1441
榊	-12.1441
吻	-12.1539
△	-12.1571
孟	-12.1571
噺	-12.1603
騙	-12.1604
甫	-12.1604
妓	-12.1636
蔡	-12.1636
•	-12.1636
馮	-12.1669
鍾	-12.1669
浙	-12.1702
捷	-12.1736
雁	-12.1769
煽	-12.1769
嬉	-12.1769
詮	-12.1802
稽	-12.1833
麹	-12.1835
蔓	-12.1835
鋸	-12.1869
伍	-12.1902
此	-12.1903
濠	-12.1937
毀	-12.2005
汝	-12.2038
暇	-12.2038
毘	-12.2039
渤	-12.207
誅	-12.2072
閃	-12.2073
殷	-12.2107
腿	-12.2107
轟	-12.2107
俵	-12.2139
莉	-12.2142
努	-12.2208
摺	-12.2211
埼	-12.2245
賈	-12.2245
渾	-12.2245
蕃	-12.2246
厄	-12.2246
芋	-12.2246
昏	-12.2246
в	-12.2246
嵩	-12.228
跋	-12.228
矮	-12.2281
喚	-12.2281
亨	-12.2281
晦	-12.2315
痴	-12.2316
樫	-12.2316
嶼	-12.2351
鷺	-12.2351
ī	-12.2351
陛	-12.2351
瓜	-12.2386
翠	-12.2386
薨	-12.2387
而	-12.2387
惚	-12.2423
薦	-12.2457
兜	-12.2457
濡	-12.2458
醐	-12.2458
挿	-12.2481
硫	-12.2488
站	-12.2493
禎	-12.2529
屏	-12.2529
皐	-12.2529
γ	-12.2529
控	-12.255
某	-12.2565
ل	-12.2565
喬	-12.2565
蒋	-12.2601
彷	-12.2601
ぇ	-12.2601
栃	-12.2633
弄	-12.2637
瑠	-12.2637
兎	-12.2673
с	-12.2674
肋	-12.2674
机	-12.2674
揮	-12.2743
嫉	-12.2746
冒	-12.2775
鉾	-12.2783
煕	-12.282
桟	-12.282
к	-12.2821
寇	-12.2857
墟	-12.2857
斧	-12.2857
雍	-12.2894
撤	-12.296
膠	-12.2969
旺	-12.2969
嘴	-12.2969
髭	-12.297
般	-12.2992
捨	-12.2996
芯	-12.3007
榜	-12.3007
疆	-12.3007
喋	-12.3045
閥	-12.308
ぢ	-12.3082
淮	-12.3083
梗	-12.3083
拭	-12.312
撒	-12.3121
弐	-12.3121
輌	-12.3153
哨	-12.3159
斡	-12.3159
訛	-12.3159
冪	-12.3159
憶	-12.3195
抹	-12.3197
裔	-12.3234
л	-12.3236
剃	-12.3274
禍	-12.3274
昂	-12.3274
Ζ	-12.3274
■	-12.3274
畝	-12.3313
蹟	-12.3313
∞	-12.3313
▲	-12.3352
緻	-12.343
宍	-12.343
蛋	-12.343
勾	-12.3467
匡	-12.3469
綺	-12.347
僅	-12.3493
窟	-12.3509
т	-12.3549
卯	-12.3549
妾	-12.3549
契	-12.3621
疇	-12.3628
凱	-12.3628
俯	-12.363
択	-12.3667
漕	-12.3709
餐	-12.3709
煩	-12.3709
š	-12.3709
酪	-12.3749
這	-12.3749
陝	-12.379
彭	-12.3832
衙	-12.3872
榛	-12.3872
湘	-12.39
且	-12.3913
à	-12.3913
湛	-12.3913
痘	-12.3954
蝋	-12.3954
ε	-12.3955
薙	-12.3955
弼	-12.3996
篭	-12.3996
邊	-12.3996
距	-12.4036
按	-12.4036
堯	-12.4037
焚	-12.4079
爺	-12.408
暫	-12.412
隘	-12.4121
彌	-12.4122
洩	-12.4122
堡	-12.4164
轢	-12.4164
捏	-12.4164
殲	-12.4164
汪	-12.4164
鼠	-12.4164
渚	-12.4165
疏	-12.4206
腱	-12.4206
怨	-12.4248
膏	-12.4249
姜	-12.4249
า	-12.4291
冶	-12.4291
薪	-12.4291
鹵	-12.4291
縣	-12.4291
鍼	-12.4328
渉	-12.4331
耆	-12.4334
栽	-12.4377
﨑	-12.4378
撲	-12.4382
夭	-12.4421
壽	-12.4421
拗	-12.4421
做	-12.4421
樺	-12.4462
漱	-12.4463
悼	-12.4463
丼	-12.4464
酋	-12.4464
蟹	-12.4508
疹	-12.4551
蕉	-12.4552
瞑	-12.4553
莢	-12.4595
銚	-12.4596
爽	-12.4596
會	-12.4684
屑	-12.4684
σ	-12.4685
♪	-12.4729
傅	-12.4729
勿	-12.4774
裳	-12.4774
佛	-12.4774
痢	-12.4774
萎	-12.4774
逗	-12.4774
葦	-12.4774
匈	-12.4818
浚	-12.4819
窩	-12.4864
鰓	-12.4864
冀	-12.4864
頬	-12.4864
ç	-12.4864
橙	-12.4864
沃	-12.4909
繍	-12.4909
竪	-12.491
魁	-12.491
萼	-12.491
謂	-12.4955
豫	-12.4955
頒	-12.4955
迭	-12.5001
飴	-12.5001
艶	-12.5001
醜	-12.5001
琢	-12.5001
苔	-12.5001
妨	-12.5047
址	-12.5047
娶	-12.5047
冑	-12.5047
ú	-12.5094
ū	-12.5094
艤	-12.514
丙	-12.514
覗	-12.514
欣	-12.5187
芭	-12.5234
塀	-12.5234
槌	-12.5234
睡	-12.5281
聚	-12.5281
灌	-12.5281
穆	-12.5281
齋	-12.5281
慌	-12.5281
λ	-12.5328
酎	-12.5328
泄	-12.5375
盃	-12.5376
莫	-12.5376
喘	-12.5423
蘆	-12.5423
諧	-12.5424
柑	-12.5424
肇	-12.5424
鼎	-12.5424
寓	-12.5471
ω	-12.5472
璽	-12.5472
劾	-12.552
穿	-12.5569
藪	-12.5569
橿	-12.5569
ر	-12.5569
亥	-12.5569
珪	-12.5569
應	-12.5617
綜	-12.5617
傀	-12.5666
實	-12.5666
庚	-12.5667
虔	-12.5716
姚	-12.5716
梵	-12.5765
炸	-12.5766
贅	-12.5814
遜	-12.5815
擦	-12.5815
翰	-12.5815
舜	-12.5815
祓	-12.5815
窒	-12.5914
鯉	-12.5915
璋	-12.5915
柚	-12.5915
痩	-12.5915
衷	-12.5916
巾	-12.5916
彬	-12.6016
厥	-12.6016
箸	-12.6016
蕎	-12.6017
虞	-12.6017
粕	-12.6017
咽	-12.6068
鹸	-12.6068
ゝ	-12.6073
萱	-12.6119
ن	-12.6119
范	-12.6119
擁	-12.6126
肛	-12.617
邱	-12.617
閔	-12.617
紘	-12.617
苞	-12.6171
曙	-12.6171
ร	-12.6222
蓬	-12.6222
δ	-12.6222
慨	-12.6222
灸	-12.6272
瀋	-12.6274
蔚	-12.6274
暢	-12.6274
掻	-12.6275
怯	-12.6326
熾	-12.6326
掩	-12.6326
屠	-12.6327
π	-12.6327
閘	-12.6328
凪	-12.6377
偲	-12.6379
芹	-12.6379
袴	-12.638
嘗	-12.6432
荏	-12.6432
楢	-12.6485
僑	-12.6486
詫	-12.6486
虜	-12.6538
箔	-12.6539
訃	-12.6539
嵌	-12.6592
愕	-12.6593
Δ	-12.6593
塹	-12.6646
鸞	-12.6647
奢	-12.6701
蕩	-12.6701
碩	-12.6756
卜	-12.6756
楓	-12.6811
弩	-12.6811
و	-12.6811
贄	-12.6811
饅	-12.6811
靱	-12.6865
韋	-12.6865
阮	-12.6866
遙	-12.6866
豹	-12.6921
捗	-12.6921
錨	-12.6922
邇	-12.7033
姑	-12.709
篆	-12.7091
ゐ	-12.7091
⇒	-12.7091
婁	-12.7145
น	-12.7146
邉	-12.7147
±	-12.7147
姶	-12.7147
葡	-12.7147
髙	-12.7203
渥	-12.7203
д	-12.7204
茹	-12.7204
脩	-12.7204
臥	-12.7204
忘	-12.7256
淫	-12.7377
鴎	-12.7377
梢	-12.7377
濫	-12.7377
冴	-12.7377
ñ	-12.7377
憐	-12.7378
庇	-12.7435
璃	-12.7436
秤	-12.7436
鉤	-12.7436
É	-12.7436
薛	-12.7437
濤	-12.7494
漠	-12.7494
玖	-12.7494
嗅	-12.7495
鯖	-12.7495
懿	-12.7495
م	-12.7495
欺	-12.7495
逼	-12.7554
廿	-12.7554
苅	-12.7554
拙	-12.7554
嘲	-12.7613
閻	-12.7613
洒	-12.7613
宵	-12.7673
ي	-12.7673
φ	-12.7673
嬰	-12.7674
砥	-12.7732
甑	-12.7736
僭	-12.7793
濾	-12.7794
膵	-12.7794
軋	-12.7794
茜	-12.7794
裴	-12.7794
戮	-12.7794
析	-12.7828
犀	-12.7854
嘔	-12.7855
嚇	-12.7855
蕊	-12.7855
堆	-12.7916
ν	-12.7916
旛	-12.7916
κ	-12.7916
藁	-12.7916
ß	-12.7916
絨	-12.7917
′	-12.7917
狸	-12.7917
拿	-12.7917
療	-12.7934
煌	-12.7977
蒔	-12.7978
或	-12.7978
凰	-12.7978
â	-12.7978
芙	-12.7978
錆	-12.804
賂	-12.804
漬	-12.8093
呆	-12.8103
蚊	-12.8103
^	-12.8103
甕	-12.8103
冤	-12.8103
塑	-12.8103
釉	-12.8165
掟	-12.8165
遁	-12.8165
斤	-12.8165
─	-12.8166
炒	-12.8166
蜘	-12.8229
訊	-12.8229
鮫	-12.8229
愉	-12.8229
竿	-12.8292
繰	-12.8347
瓊	-12.8356
傳	-12.8357
掠	-12.8357
蹊	-12.8357
蛛	-12.8357
č	-12.8357
滸	-12.8357
顆	-12.8421
宥	-12.8421
圀	-12.8421
饗	-12.8421
廓	-12.8422
ρ	-12.8486
鑽	-12.8486
閤	-12.8551
艘	-12.8551
蝕	-12.8551
榮	-12.8551
趾	-12.8552
穣	-12.8617
咎	-12.8618
耽	-12.8618
矛	-12.8683
莱	-12.8683
把	-12.8683
麒	-12.8683
躯	-12.8683
筈	-12.8684
戎	-12.8684
塘	-12.8684
揉	-12.8684
綏	-12.8684
倹	-12.8749
愁	-12.875
套	-12.875
岑	-12.875
箏	-12.8817
淘	-12.8817
卦	-12.8817
琳	-12.8883
鉉	-12.8885
錘	-12.8885
槇	-12.8885
穢	-12.8953
м	-12.8953
瘤	-12.8953
臆	-12.8954
鯛	-12.8954
珊	-12.9021
漿	-12.9021
畏	-12.9021
□	-12.9021
狛	-12.9021
禿	-12.9021
刹	-12.9022
桿	-12.909
宦	-12.909
廬	-12.9091
佩	-12.9159
‘	-12.9159
靡	-12.916
ο	-12.916
些	-12.916
祚	-12.9229
瑚	-12.9229
瘍	-12.923
咬	-12.923
緋	-12.923
憩	-12.9299
鄴	-12.9299
賤	-12.93
涌	-12.93
厭	-12.93
砺	-12.93
撥	-12.9301
迅	-12.937
ง	-12.937
耀	-12.9371
臀	-12.9371
煥	-12.9371
潘	-12.9371
馨	-12.9442
頌	-12.9442
Ω	-12.9443
τ	-12.9514
凛	-12.9515
幇	-12.9515
蓉	-12.9515
牝	-12.9584
瑛	-12.9587
麾	-12.9587
薗	-12.9659
楔	-12.966
酉	-12.966
稙	-12.966
脛	-12.9733
辣	-12.9733
傲	-12.9734
溥	-12.9734
郊	-12.9794
掾	-12.9807
亢	-12.9807
蟻	-12.9807
贋	-12.9808
й	-12.9808
頚	-12.9808
竈	-12.9881
羨	-12.9882
絢	-12.9882
沌	-12.9882
鋏	-12.9882
θ	-12.9957
«	-12.9957
餃	-12.9958
糠	-13.0032
哈	-13.0033
ς	-13.0033
膿	-13.0033
誦	-13.0033
昧	-13.0034
獨	-13.0109
攣	-13.0109
у	-13.0109
蓑	-13.011
乖	-13.011
韮	-13.011
并	-13.011
丑	-13.011
唾	-13.0186
圃	-13.0186
吠	-13.0186
垢	-13.0186
η	-13.0186
я	-13.0186
椋	-13.0186
穎	-13.0186
佃	-13.0187
竇	-13.0187
牒	-13.0188
墜	-13.0262
蕨	-13.0264
糊	-13.0264
鮭	-13.0264
韶	-13.0264
ب	-13.0264
諒	-13.0264
涅	-13.0264
簒	-13.0341
與	-13.042
暉	-13.0421
贖	-13.0421
媚	-13.0421
椒	-13.0421
喧	-13.0421
胱	-13.0421
迄	-13.0499
蒐	-13.05
碓	-13.05
蛭	-13.05
衍	-13.05
餡	-13.05
註	-13.05
饒	-13.058
ō	-13.058
蛙	-13.058
謗	-13.0581
鞠	-13.0581
輩	-13.0671
碗	-13.0742
≒	-13.0742
倶	-13.0742
ヱ	-13.0743
擾	-13.0823
燭	-13.0824
痙	-13.0824
檣	-13.0824
瘡	-13.0824
讒	-13.0824
毫	-13.0824
ก	-13.0906
ι	-13.0906
羌	-13.0907
槃	-13.0907
匁	-13.0907
崑	-13.099
潭	-13.099
潁	-13.099
ा	-13.099
檎	-13.099
腋	-13.099
爛	-13.099
誹	-13.0991
裟	-13.1073
赫	-13.1073
枡	-13.1074
袂	-13.1074
巽	-13.1074
來	-13.1075
猷	-13.1158
霍	-13.1159
疱	-13.1159
霖	-13.1159
弛	-13.1159
畷	-13.1159
隧	-13.1159
疋	-13.1159
吃	-13.1243
荀	-13.1243
禽	-13.1243
箋	-13.1244
ø	-13.1244
鏃	-13.1244
姻	-13.1244
哺	-13.1244
燻	-13.1244
睨	-13.1245
ć	-13.1245
錮	-13.133
兗	-13.133
祷	-13.133
埔	-13.133
糎	-13.133
樊	-13.1332
脾	-13.1414
ั	-13.1417
เ	-13.1417
鍬	-13.1417
繭	-13.1417
閩	-13.1417
瑜	-13.1418
冉	-13.1418
祢	-13.1418
蟄	-13.1503
猥	-13.1505
恣	-13.1506
捌	-13.1506
諌	-13.1506
ม	-13.1593
อ	-13.1593
披	-13.1593
犠	-13.1593
邁	-13.1593
聾	-13.1593
驤	-13.1594
ē	-13.1594
囁	-13.1594
轍	-13.1594
ł	-13.1594
酌	-13.1594
雉	-13.1594
玩	-13.1683
惠	-13.1683
鍮	-13.1683
咳	-13.1683
讀	-13.1683
樟	-13.1772
茉	-13.1773
簾	-13.1773
諮	-13.1773
蛹	-13.1773
菖	-13.1773
ь	-13.1773
ô	-13.1773
壷	-13.1773
祟	-13.1774
崗	-13.1774
什	-13.1774
菟	-13.1863
詐	-13.1864
鳶	-13.1864
♥	-13.1864
輯	-13.1954
邵	-13.1956
渫	-13.1956
貪	-13.1956
偵	-13.1956
忽	-13.1956
筏	-13.1956
戊	-13.2046
劫	-13.2048
攪	-13.2048
С	-13.2048
蔦	-13.2048
ı	-13.2048
г	-13.2048
謬	-13.2048
桧	-13.2141
證	-13.2142
鰐	-13.2142
ã	-13.2142
∈	-13.2142
恪	-13.2234
彪	-13.2235
駁	-13.2236
游	-13.2236
◎	-13.2236
隴	-13.2236
棍	-13.2331
ぅ	-13.2331
悉	-13.2331
»	-13.2331
漣	-13.2332
膣	-13.2332
莽	-13.2332
邯	-13.2332
捲	-13.2427
皓	-13.2427
圳	-13.2427
祁	-13.2428
檻	-13.2428
墺	-13.2524
⇔	-13.2524
梧	-13.2524
怜	-13.2525
稗	-13.2525
賽	-13.2525
蕪	-13.2525
炳	-13.2526
ゑ	-13.2622
ล	-13.2622
丕	-13.2623
侑	-13.2623
拉	-13.2721
咋	-13.2722
尤	-13.2722
顛	-13.2722
筵	-13.2722
灼	-13.2722
杣	-13.2723
械	-13.2808
ส	-13.2821
幟	-13.2821
♂	-13.2822
鏑	-13.2822
彅	-13.2822
屍	-13.2822
櫃	-13.2822
塙	-13.2922
禮	-13.2922
巷	-13.2923
粲	-13.2924
舛	-13.3023
琉	-13.3023
綸	-13.3024
悶	-13.3024
鎬	-13.3025
籾	-13.3025
ê	-13.3025
溢	-13.3111
纂	-13.3123
訣	-13.3128
誼	-13.3128
撹	-13.3128
柊	-13.3128
奎	-13.3128
氣	-13.3128
雫	-13.3128
ว	-13.3231
憾	-13.3232
帛	-13.3232
瓢	-13.3232
祗	-13.3232
侃	-13.3233
較	-13.3336
旱	-13.3337
槿	-13.3337
ч	-13.3337
†	-13.3337
ˈ	-13.3337
渭	-13.3337
袈	-13.3442
唖	-13.3442
迦	-13.3443
ย	-13.3443
ζ	-13.3443
摯	-13.3443
煤	-13.3443
兌	-13.3444
箪	-13.3444
耿	-13.3444
槙	-13.3551
姥	-13.3551
竄	-13.3551
驃	-13.3551
粥	-13.3551
ː	-13.3551
Σ	-13.3551
А	-13.3551
俟	-13.3551
碍	-13.3551
鯱	-13.3551
瞞	-13.3551
鞆	-13.3659
ิ	-13.3659
徘	-13.3659
磔	-13.366
疼	-13.366
禹	-13.366
藏	-13.366
龐	-13.3769
舒	-13.377
曼	-13.377
鰹	-13.3771
聰	-13.388
襖	-13.388
≤	-13.388
蛾	-13.3881
戌	-13.3881
र	-13.3881
欅	-13.3881
厘	-13.3881
د	-13.3993
捺	-13.3993
涯	-13.4101
褐	-13.4101
庾	-13.4106
狄	-13.4106
楷	-13.4106
眷	-13.4107
竺	-13.4107
蜷	-13.4107
槐	-13.4107
亞	-13.4107
阜	-13.4107
岱	-13.4107
♭	-13.4109
硯	-13.4221
奠	-13.4221
鍔	-13.4222
п	-13.4222
攀	-13.4222
咄	-13.4223
俘	-13.4337
衞	-13.4338
孚	-13.4338
鶯	-13.4338
‰	-13.4338
鞄	-13.4338
←	-13.4338
眩	-13.4338
ð	-13.4338
ی	-13.4338
芒	-13.4338
托	-13.4338
澳	-13.4338
甦	-13.4338
朧	-13.4339
鵠	-13.4339
沫	-13.4455
糟	-13.4455
璧	-13.4455
́	-13.4456
當	-13.4456
惇	-13.4456
羲	-13.4456
熹	-13.4574
®	-13.4575
å	-13.4575
燐	-13.4575
傭	-13.4692
孕	-13.4694
蠣	-13.4694
捧	-13.4695
躙	-13.4695
茲	-13.4695
滬	-13.4695
齊	-13.4695
凧	-13.4695
毬	-13.4695
賣	-13.4695
貶	-13.4696
琨	-13.4696
鞨	-13.4808
่	-13.4817
髷	-13.4817
懺	-13.4817
Š	-13.4817
ت	-13.4817
辟	-13.4817
颯	-13.4817
倖	-13.4817
樂	-13.4818
鴉	-13.482
魃	-13.494
疽	-13.494
琥	-13.494
薮	-13.494
奕	-13.4941
Ö	-13.4941
瞰	-13.4941
箒	-13.4941
桔	-13.4941
蝉	-13.4942
冲	-13.5063
盈	-13.5065
嬪	-13.5065
桝	-13.5065
輻	-13.5065
ี	-13.5065
埃	-13.5065
涵	-13.5066
邨	-13.5066
兪	-13.5066
槓	-13.5066
檄	-13.5066
鮑	-13.5066
棠	-13.5067
践	-13.5186
翊	-13.5191
舐	-13.5192
櫂	-13.5192
恕	-13.5192
杓	-13.5192
焙	-13.5192
↑	-13.5192
ق	-13.5192
伎	-13.5193
唆	-13.532
椀	-13.532
苫	-13.532
憚	-13.532
剌	-13.532
鬘	-13.532
ы	-13.532
柘	-13.5321
秉	-13.5321
菰	-13.5321
据	-13.5437
崙	-13.5447
銑	-13.545
拌	-13.545
酬	-13.545
浬	-13.545
鋲	-13.545
悌	-13.5451
稠	-13.5451
閾	-13.5582
惰	-13.5582
囮	-13.5582
雙	-13.5582
總	-13.5582
捩	-13.5582
涜	-13.5582
號	-13.5582
嗚	-13.5582
拼	-13.5582
戟	-13.5582
泗	-13.5582
槨	-13.5583
臺	-13.5583
泌	-13.571
砧	-13.5715
笏	-13.5715
ต	-13.5715
्	-13.5715
М	-13.5715
臧	-13.5715
羞	-13.5715
漉	-13.5715
慄	-13.5716
莞	-13.5716
鄲	-13.5716
趨	-13.5849
鰻	-13.585
侶	-13.585
饌	-13.585
俄	-13.585
Λ	-13.585
晁	-13.585
◆	-13.585
ë	-13.585
┗	-13.585
奘	-13.5851
楡	-13.5851
洙	-13.5851
琅	-13.5985
諜	-13.5986
坡	-13.5987
亦	-13.5987
剪	-13.5987
斂	-13.5987
К	-13.5987
闍	-13.5987
齧	-13.5987
ş	-13.5987
ə	-13.5988
諍	-13.5988
澪	-13.5988
抽	-13.6047
ห	-13.6125
珀	-13.6126
閭	-13.6126
卍	-13.6126
窄	-13.6126
舅	-13.6126
箚	-13.6126
寶	-13.6126
蘂	-13.6126
聳	-13.6127
晟	-13.6127
迹	-13.6127
戍	-13.6266
猜	-13.6266
υ	-13.6267
稷	-13.6267
蕾	-13.6267
Ø	-13.6267
醒	-13.6268
尸	-13.6268
晏	-13.6268
焉	-13.6409
繹	-13.6409
ท	-13.6409
В	-13.641
ž	-13.641
Á	-13.641
碇	-13.641
ぉ	-13.641
ه	-13.641
顒	-13.641
昴	-13.641
赳	-13.641
儁	-13.6554
疵	-13.6554
斌	-13.6555
旁	-13.6555
燁	-13.6555
諺	-13.6555
鐸	-13.6555
舶	-13.6699
奚	-13.6699
怡	-13.6701
鉦	-13.6701
瑕	-13.6701
ด	-13.6701
埜	-13.6701
諷	-13.6702
栞	-13.6702
س	-13.6702
冏	-13.6702
æ	-13.6702
瓚	-13.6849
哥	-13.6851
Б	-13.6851
肴	-13.6851
婢	-13.6851
坤	-13.6851
臍	-13.6851
闊	-13.6851
峨	-13.6852
匪	-13.6852
竣	-13.6996
循	-13.7001
翟	-13.7002
喀	-13.7002
沓	-13.7002
偕	-13.7002
б	-13.7003
絃	-13.7003
鎚	-13.7003
氐	-13.7003
茸	-13.7003
溪	-13.7156
凋	-13.7156
♡	-13.7156
尭	-13.7156
י	-13.7157
汾	-13.7157
鋤	-13.7157
匝	-13.7157
秩	-13.7311
逍	-13.7312
涸	-13.7312
瀞	-13.7312
涛	-13.7312
啄	-13.7312
德	-13.7313
廈	-13.7313
ヰ	-13.7313
་	-13.7313
Č	-13.7313
з	-13.7313
匐	-13.7313
瑳	-13.7313
聲	-13.7314
曰	-13.7468
逞	-13.7471
咀	-13.7471
奸	-13.7471
娥	-13.7471
Γ	-13.7471
鱒	-13.7471
龕	-13.7472
ï	-13.7472
◯	-13.7472
睿	-13.7632
พ	-13.7632
芻	-13.7633
醤	-13.7633
呟	-13.7633
ع	-13.7633
━	-13.7633
ح	-13.7633
狡	-13.7633
炯	-13.7633
鬚	-13.7633
迪	-13.7633
靳	-13.7634
魄	-13.7634
จ	-13.7795
謐	-13.7795
肖	-13.7795
綽	-13.7796
์	-13.7796
澎	-13.7796
盪	-13.7797
祺	-13.7797
倦	-13.7797
⁄	-13.7797
汀	-13.7797
ة	-13.7797
珈	-13.7797
叟	-13.7797
≪	-13.7797
攫	-13.7797
葯	-13.7797
霸	-13.7962
跪	-13.7963
愍	-13.7963
痒	-13.7963
裡	-13.7963
ה	-13.7963
娩	-13.7964
î	-13.7964
蝸	-13.7964
疣	-13.7964
訥	-13.7964
闕	-13.7964
禧	-13.8131
葱	-13.8132
♀	-13.8132
拵	-13.8132
乎	-13.8133
剋	-13.8133
ă	-13.8133
冰	-13.8133
緬	-13.8133
ج	-13.8133
淋	-13.8133
仄	-13.8133
箭	-13.8133
竟	-13.8133
瑤	-13.8136
澱	-13.8303
邢	-13.8304
鈔	-13.8304
杷	-13.8305
이	-13.8305
燦	-13.8305
焔	-13.8305
ك	-13.8305
肆	-13.8305
ו	-13.8305
咤	-13.8479
謄	-13.848
寨	-13.848
昊	-13.848
்	-13.8481
隗	-13.8481
≫	-13.8481
鬆	-13.8481
乂	-13.8481
嵜	-13.8658
弗	-13.8658
้	-13.8658
瞼	-13.8658
齬	-13.8659
齟	-13.8659
餘	-13.8659
訶	-13.8659
歿	-13.8659
爬	-13.8659
唸	-13.8659
扈	-13.8659
滓	-13.866
畢	-13.866
褚	-13.884
哭	-13.884
£	-13.8841
柯	-13.8841
笙	-13.8841
粍	-13.8841
荼	-13.8841
俠	-13.8841
礦	-13.8841
佇	-13.8841
Р	-13.8841
琲	-13.8841
臂	-13.8841
掬	-13.8842
攘	-13.8842
僻	-13.8842
薊	-13.8842
艾	-13.8842
棗	-13.8842
臘	-13.8843
∀	-13.9026
П	-13.9026
婉	-13.9026
經	-13.9026
籤	-13.9027
茄	-13.9027
憧	-13.9938
批	-14.0006
獅	-14.0419
痺	-14.1327
坦	-14.2576
貿	-14.285
蝦	-14.285
訟	-14.3707
ゞ	-14.3708
釧	-14.3986
該	-14.4628
殆	-14.4644
措	-14.4644
燥	-14.5682
聘	-14.6837
迂	-14.7097
罷	-14.7254
肯	-14.7686
賠	-14.8618
揆	-14.9107
搭	-14.9425
薇	-14.9646
諏	-15.0201
祉	-15.0788
筐	-15.2789
濯	-15.2793
綻	-15.3563
膚	-15.3563
峙	-15.4394
拐	-15.5305
擢	-15.6306
穫	-15.7409
彗	-15.7413
惧	-15.7418
椅	-15.8657
隕	-15.8662
菩	-16.0045
讐	-16.1761
牲	-16.1762
氾	-16.1765
娯	-16.376
薔	-16.3762
嵯	-16.6261
嘩	-16.6262
紆	-16.6263
遽	-16.9595
漑	-16.9595
拷	-17.459
逮	-17.4593
踪	-17.4595
噌	-17.4598
贔	-18.4562
檗	-18.4563
屓	-18.4564
飫	-18.4565
匍	-18.4566
晰	-18.4567
褻	-18.4568
蹂	-18.4569
煬	-18.457
靺	-18.4571
徨	-18.4572
徊	-18.4573
抒	-18.4574
髑	-18.4575
髏	-18.4576
輜	-18.4577
毯	-18.4578
膀	-18.4579
萄	-18.458
嚆	-18.4581
拮	-18.4582
彿	-18.4583
躊	-18.4584
躇	-18.4585
儡	-18.4586
饉	-18.4587
揶	-18.4588
揄	-18.4589
騨	-18.459
醍	-18.4591
挨	-18.4592
拶	-18.4593
娠	-18.4593
肪	-18.4594
楕	-18.4595
曖	-18.4596
雰	-18.4596
